the 289411
. 279911
, 253066
of 171144
in 141458
and 115584
a 113102
is 113094
to 71111
) 60814
( 60628
The 56272
was 55229
'' 46372
for 31419
as 30513
on 30035
by 30011
It 27704
that 23860
are 23810
with 22585
from 22008
an 21115
or 18323
's 17857
at 17071
In 15688
it 14979
He 14522
: 13852
his 13632
has 13293
also 12993
born 12769
which 12504
be 12479
he 12423
were 11439
first 11303
found 11069
- 10928
France 10714
not 9484
one 9461
region 9123
United 9075
have 8725
city 8600
called 8201
department 7997
used 7757
had 7633
who 7610
A 7507
can 7442
made 7399
but 7299
football 7277
States 7237
its 7129
known 7006
other 6997
people 6975
their 6784
about 6592
they 6357
commune 6325
player 6274
This 6268
American 6261
two 6214
; 6156
this 6048
after 5974
most 5745
been 5501
part 5489
into 5410
They 5262
when 5194
name 5193
many 5191
became 5153
more 5116
her 5060
north 4956
-- 4927
time 4870
New 4706
all 4627
only 4551
between 4275
de 4272
than 4231
1 4167
team 4108
such 3966
2 3941
some 3932
years 3918
over 3845
former 3775
' 3761
World 3754
there 3743
English 3723
where 3707
â 3663
up 3652
She 3577
town 3557
state 3507
September 3459
very 3426
area 3361
Ã 3329
There 3317
May 3306
she 3300
January 3280
year 3245
located 3180
October 3178
new 3165
March 3164
because 3142
British 3138
August 3131
July 3131
died 3122
three 3110
played 3104
during 3100
named 3072
June 3068
April 3066
England 3048
band 3040
music 3034
out 3026
December 2988
use 2973
November 2953
German 2949
often 2947
like 2924
then 2918
2007 2902
album 2896
second 2886
him 2885
series 2885
released 2871
them 2859
won 2812
Other 2804
3 2798
world 2794
game 2772
February 2763
later 2751
University 2738
national 2730
will 2727
London 2700
On 2699
South 2697
started 2682
would 2647
well 2634
different 2623
until 2621
same 2589
number 2578
War 2576
John 2570
may 2556
North 2552
County 2525
French 2506
capital 2498
After 2482
National 2467
group 2457
small 2449
I 2448
season 2440
4 2426
plays 2424
Germany 2423
2006 2414
district 2395
family 2392
before 2381
i 2379
being 2335
10 2333
so 2320
usually 2319
5 2316
now 2313
work 2306
famous 2304
around 2301
II 2284
through 2281
His 2279
system 2278
main 2254
century 2250
no 2242
movie 2235
both 2230
` 2229
including 2212
Japanese 2204
language 2200
said 2186
York 2183
-@@ 2173
population 2149
2008 2142
make 2137
under 2128
large 2125
west 2111
2005 2110
City 2096
northwest 2082
four 2079
important 2076
King 2075
near 2050
south 2046
League 2045
km 2041
largest 2036
since 2031
s 2030
When 2029
do 2026
book 2015
written 2014
6 2006
place 1998
water 1960
government 1957
province 1949
early 1944
municipality 1943
each 1941
these 1940
% 1938
15 1926
River 1926
several 1919
million 1917
did 1914
any 1905
show 1887
television 1885
based 1884
Pas-de-Calais 1863
against 1859
built 1854
7 1846
8 1846
long 1837
while 1837
America 1836
One 1834
created 1833
form 1824
20 1821
son 1820
T@@ 1815
la 1815
o 1813
species 1805
country 1804
began 1800
12 1787
word 1776
Some 1775
Australia 1773
At 1771
Nord-Pas-de-Calais 1754
given 1753
30 1752
References 1746
Kingdom 1734
These 1731
song 1724
D@@ 1714
popular 1708
2000 1705
means 1695
For 1682
end 1680
President 1678
25 1669
last 1668
back 1655
sometimes 1653
S@@ 1649
11 1645
best 1643
2004 1638
West 1627
Aisne 1625
& 1621
16 1620
life 1619
18 1610
As 1596
13 1591
L@@ 1590
film 1588
9 1575
common 1565
14 1563
Calvados 1560
old 1560
member 1559
es 1557
man 1557
P@@ 1555
Pakistan 1553
live 1550
East 1545
could 1544
rock 1543
play 1541
home 1537
Picardie 1532
major 1526
school 1525
B@@ 1524
land 1524
17 1523
include 1520
moved 1517
K@@ 1516
countries 1513
24 1507
However 1500
Roman 1496
2001 1494
example 1490
Japan 1487
still 1487
person 1485
Its 1481
day 1479
much 1478
if 1475
left 1470
set 1467
members 1457
death 1452
Europe 1448
Switzerland 1448
21 1444
went 1443
U.S. 1438
came 1437
east 1437
age 1434
2009 1431
Basse-Normandie 1428
Republic 1427
term 1425
G@@ 1417
line 1417
19 1416
published 1416
23 1415
become 1412
father 1409
took 1409
H@@ 1407
Union 1405
way 1404
James 1401
India 1394
another 1394
2003 1390
county 1389
Italian 1385
games 1382
en 1381
high 1377
own 1375
wrote 1374
California 1372
e 1367
history 1366
C@@ 1365
William 1364
single 1360
times 1359
formed 1354
22 1348
singer 1348
held 1347
using 1345
video 1342
= 1341
N@@ 1341
Spanish 1341
third 1339
m 1337
F@@ 1336
professional 1335
R@@ 1320
body 1318
island 1311
us 1311
Most 1310
what 1307
A@@ 1306
see 1305
company 1304
h@@ 1304
power 1304
founded 1301
1999 1300
k@@ 1292
History 1286
un@@ 1282
2002 1275
parts 1272
State 1269
er 1269
together 1267
southwest 1264
children 1263
ing 1263
George 1258
International 1250
26 1248
y 1248
Loire 1239
27 1238
type 1238
g@@ 1237
An 1231
t@@ 1229
n@@ 1226
in@@ 1225
club 1220
E@@ 1218
station 1216
actor 1214
u 1214
28 1213
During 1211
District 1209
Pays 1209
southern 1209
1\/4 1198
al 1198
Greek 1197
along 1191
s@@ 1188
canton 1187
Great 1185
M@@ 1182
websites 1180
European 1179
tropical 1178
Italy 1176
does 1174
Canada 1173
even 1172
five 1167
just 1165
Many 1164
y@@ 1164
period 1161
making 1160
public 1159
ers 1152
n 1152
next 1148
character 1144
29 1142
China 1141
d@@ 1134
Royal 1133
W@@ 1133
Gironde 1129
again 1129
Championship 1127
married 1120
ice 1119
modern 1119
short 1119
# 1118
career 1118
living 1118
Charles 1114
title 1111
center 1110
version 1110
days 1108
works 1101
V@@ 1094
off 1094
get 1093
storm 1092
i@@ 1083
current 1078
ed 1078
river 1073
thought 1068
war 1066
m@@ 1065
side 1065
Party 1062
Scotland 1058
head 1058
books 1056
match 1056
less 1055
changed 1054
similar 1053
worked 1051
2010 1048
First 1047
p@@ 1046
Henry 1044
produced 1043
few 1042
official 1038
pages 1037
Aquitaine 1034
Â 1034
top 1032
l@@ 1030
original 1028
down 1022
z@@ 1021
re@@ 1020
Park 1018
d. 1015
good 1014
comes 1012
joined 1012
led 1011
er@@ 1008
seen 1008
Africa 1007
School 1007
how 1007
Island 1003
College 1001
point 1001
t 999
Australian 998
en@@ 998
r@@ 994
Florida 993
able 993
order 993
J@@ 992
Brazilian 990
Church 989
ch@@ 986
gave 986
St. 985
areas 984
those 984
Ireland 983
within 983
following 982
late 982
All 979
Empire 978
wife 978
village 977
lived 973
record 969
Christian 966
$ 965
e@@ 964
Minister 961
ia 958
Council 953
got 953
right 953
list 951
Grand 950
includes 949
Î 948
San 947
O@@ 946
an@@ 945
hurricane 945
without 944
writer 939
every 938
currently 936
House 935
WWE 935
help 934
mother 933
100 931
Canadian 927
f@@ 926
law 923
local 922
Football 920
uses 919
al@@ 918
take 915
b@@ 912
k 912
miles 911
Z@@ 909
go 909
put 906
Central 904
king 900
story 900
metal 899
1998 897
1997 895
I@@ 893
La 893
Paris 892
chemical 892
food 890
away 889
III 888
ar@@ 887
killed 885
states 885
taken 883
Western 882
languages 882
computer 880
Paul 879
sold 879
C 878
Earth 878
3@@ 875
David 875
Atlantic 874
leader 873
meaning 873
playing 872
Spain 871
1996 870
event 870
political 870
types 870
! 869
Ð 867
Queen 865
Robert 865
31 863
4@@ 863
big 862
should 861
ar 860
color 859
men 859
Award 858
el@@ 856
included 856
1994 855
BC 853
mostly 853
you 853
control 849
Red 848
six 847
Sea 846
Asia 845
human 843
served 842
Emperor 841
plants 841
building 839
northern 838
players 836
Music 835
daughter 834
w@@ 834
military 830
role 829
Cup 826
Y@@ 824
white 824
words 824
Iowa 821
Chinese 820
If 820
field 820
c@@ 819
at@@ 815
change 815
though 815
By 813
Scottish 813
makes 812
songs 812
From 809
special 809
os 808
1995 806
air 806
general 806
central 804
must 803
better 797
house 797
UK 795
considered 795
opened 795
1979 794
1981 794
developed 793
5@@ 792
shows 791
things 791
teams 790
light 789
groups 786
U@@ 783
sea 783
Indian 782
Russian 781
es@@ 781
Sh@@ 780
actress 780
General 778
Latin 778
international 778
8@@ 777
Her 777
lot 776
People 774
1980 773
cities 773
Richard 771
Wikipedia 771
1992 770
Berlin 770
Ch@@ 769
car 768
animals 767
et 767
Ø 767
art 766
0 765
come 765
study 765
Club 762
across 762
free 761
a@@ 760
Virginia 755
u@@ 754
6@@ 752
Al@@ 752
St@@ 751
almost 751
energy 751
names 751
Northern 750
either 750
1984 748
9@@ 747
party 747
recorded 745
v@@ 745
Because 744
Hall 744
level 743
others 743
Å 743
1993 742
information 742
composer 741
ine 741
Lake 740
e-@@ 740
total 739
1990 738
red 737
young 736
university 734
Thomas 733
lead 733
present 733
today 732
1986 731
Britain 729
caused 729
j@@ 729
7@@ 727
women 727
Dutch 726
or@@ 726
To 725
on@@ 725
Duke 724
great 724
run 723
service 723
coast 722
close 717
per 717
commonly 715
Wales 714
1974 713
program 713
working 709
Michael 708
1982 706
Louis 706
race 706
1975 704
1989 704
Battle 704
TV 703
Belgian 702
due 702
money 702
Province 701
size 701
biggest 700
related 700
lost 699
Prime 698
science 698
NHL 697
1991 696
black 696
originally 696
Since 693
1970 692
discovered 690
1973 689
highest 689
o@@ 689
once 688
Catholic 687
church 687
having 687
received 687
Disney 685
You 685
although 685
natural 685
Hurricane 683
Mexico 683
appeared 682
guitar 682
d 681
l 681
\/@@ 679
elected 679
politician 679
50 678
But 678
Peter 678
plant 678
it@@ 677
Life 675
shown 675
surface 675
numbers 673
dÃ 672
movement 672
brother 671
Los 669
instead 668
systems 667
\/O/ 666
ie 666
start 666
western 665
Day 663
among 663
performed 663
1976 659
Hockey 659
ten 659
1983 658
Soviet 657
ab@@ 657
especially 657
signed 657
never 656
sent 656
God 655
1977 654
1985 654
Sir 654
Games 653
Texas 651
oldest 650
outside 649
style 649
Edward 648
done 648
is@@ 648
mainly 648
Army 647
Washington 647
win 647
above 645
final 645
forces 644
software 644
page 642
13@@ 641
el 641
president 641
Ocean 640
novel 640
theory 640
1972 639
force 639
Pacific 638
smaller 638
Super 637
key 637
1987 636
director 636
site 636
Prince 634
Black 633
hit 633
1969 631
ation 630
divided 629
says 629
Formula 628
ancient 628
space 628
With 627
um 627
Their 626
Russia 625
ad@@ 625
am 625
position 625
14@@ 624
as@@ 624
hockey 623
10@@ 620
Wrestling 620
himself 620
network 620
cells 619
mean 619
seven 619
1988 618
move 618
replaced 618
st@@ 617
strong 617
Angeles 616
wanted 616
1967 615
islands 615
1978 614
support 614
z 614
Mary 613
US 613
While 613
studied 613
contains 612
Best 611
too 611
am@@ 610
ate 610
Parliament 609
Victoria 609
find 609
12@@ 608
Line 608
1945 607
Academy 607
Chicago 607
ended 607
author 606
Eastern 605
articles 604
becomes 604
sh@@ 604
fourth 603
1971 602
Saint 602
b 602
districts 602
eastern 602
least 602
Islands 600
studio 598
takes 598
Prize 596
added 595
independent 595
open 594
Romania 592
average 591
genus 591
stage 591
border 590
ol@@ 589
child 588
data 588
events 588
moon 588
2@@ 587
half 587
Mar@@ 586
championship 586
episode 586
however 585
places 585
writing 585
partement 584
reached 584
design 583
range 583
Bay 582
ic 582
little 581
th@@ 581
Ä 581
office 580
release 580
continued 579
Although 578
railway 578
Nintendo 577
helped 577
seat 577
itself 576
à 575
army 573
ly 573
length 572
r 572
star 572
According 571
non-@@ 571
Tropical 570
described 569
le@@ 569
Center 568
Association 567
unit 567
Nobel 566
hard 566
White 565
development 565
ever 565
ship 564
te 564
ic@@ 563
stadium 563
conductor 562
ian 562
officially 562
40 561
Netherlands 561
full 561
von 561
Ù 561
B 560
le 560
Company 559
Windows 559
opera 559
characters 558
feet 558
n't 558
BBC 557
forms 557
low 557
ne 557
Entertainment 556
Before 555
process 555
various 554
Southern 553
changes 553
ac@@ 552
fire 552
buildings 551
generally 551
idea 551
Events 550
g 550
say 550
et@@ 548
il@@ 548
successful 548
students 546
met 543
movies 543
Street 542
In@@ 541
fish 541
give 540
woman 540
High 539
Irish 539
possible 539
x 539
established 538
points 538
units 538
Martin 537
months 537
organization 537
sister 537
Two 536
inside 536
radio 536
Division 535
em@@ 535
musician 534
class 532
Brazil 531
Saint-@@ 530
Lord 529
kind 529
p 529
Mario 528
announced 528
result 528
Later 526
engine 526
ies 526
Illinois 525
always 525
ro@@ 525
albums 524
blood 524
night 524
services 524
source 524
square 524
female 523
Old 522
USA 522
returned 521
sports 520
1968 519
ground 518
An@@ 517
Ar@@ 517
Records 517
ans 517
lives 517
Re@@ 516
owned 516
Jupiter 514
Major 514
/@@ 513
1960 513
Sarthe 513
certain 513
followed 513
introduced 513
symbol 513
ul@@ 512
Air 510
ag@@ 510
directed 510
distance 510
league 510
pressure 510
referred 510
soon 509
cause 508
cell 508
far 508
larger 508
material 507
ot@@ 507
gold 506
retired 506
ring 506
1963 505
Oklahoma 505
Secretary 505
available 505
letter 505
ago 503
ant 503
Harry 502
eight 502
h 502
V 501
era 501
designed 500
Game 498
lines 498
1964 497
Orchestra 497
tree 497
Austria 495
om@@ 495
1961 494
allowed 494
simply 494
Jesus 493
awarded 493
date 493
ist 493
F 492
attack 492
below 492
Carolina 491
Early 491
rule 491
stars 491
20th 490
Today 490
features 490
we 490
longer 489
traditional 489
Am@@ 488
Rock 488
... 487
X 487
J. 486
Le@@ 486
Pope 486
mountain 486
id@@ 485
ap@@ 484
our 483
starting 483
Awards 482
decided 482
towns 482
Poland 481
animal 481
Joseph 480
minor 480
round 480
Valley 479
create 478
green 478
Second 477
musical 477
1947 476
host 476
probably 476
a-@@ 475
college 475
oil 475
police 474
lake 473
research 473
us@@ 473
spoken 472
text 472
wrestling 472
brand 471
im@@ 471
rights 471
Lady 469
article 469
community 469
told 469
base 468
brought 468
performance 468
ur@@ 468
ways 468
Star 467
division 467
front 467
Zealand 466
heavy 466
é 466
1965 465
artist 465
ina 465
quickly 465
Car@@ 464
Rome 464
beginning 464
election 463
os@@ 463
Road 462
model 462
electric 461
hand 461
whose 461
200 460
60 460
Middle 459
case 458
+ 457
Korea 457
Series 457
business 457
destroyed 457
grew 457
Young 456
friend 456
going 456
temperature 456
write 456
ys 456
1949 455
Government 455
culture 455
goes 454
der 453
themselves 453
orchestra 452
stories 452
track 452
production 451
19th 450
Be@@ 450
E 450
Manchester 450
Prix 450
job 450
problems 450
producer 450
separate 450
1@@ 449
Each 449
Institute 449
finished 449
pop 449
1948 448
road 448
tried 448
African 447
parents 447
Big 446
No 446
S 446
Time 446
disease 446
nuclear 446
ons 446
throughout 446
believed 445
port 445
Kentucky 444
That 444
religious 444
Another 443
Elizabeth 443
award 443
rest 443
De@@ 442
hours 442
racing 441
schools 441
:@@ 440
1962 439
ball 439
defeated 439
object 439
private 439
qu@@ 439
whole 439
Alexander 438
Department 438
Se@@ 438
Storm 438
ak@@ 438
code 438
enough 438
middle 438
call 437
op@@ 437
poet 437
Sweden 436
bass 435
blue 435
Green 434
Le 434
statistics 434
El@@ 433
Sun 433
IV 432
Olympic 432
Team 432
ai 432
bands 432
real 432
winds 432
1966 431
films 431
project 431
ri@@ 431
saw 431
0@@ 430
1946 430
Olympics 430
als 430
damage 430
About 428
asked 428
humans 428
il 428
stop 428
F.C. 427
Airport 425
leading 425
need 425
ah 424
che 423
gas 423
older 423
ts 423
Dr. 422
Egypt 422
social 422
15@@ 421
1980s 421
G 421
success 421
user 421
Also 420
leaves 420
park 420
wood 420
guitarist 419
Un@@ 418
magazine 418
Swedish 417
kept 417
Cor@@ 416
active 416
territory 416
wide 416
x@@ 415
H 414
io 414
past 414
Lee 413
lower 413
standard 413
1939 412
1957 412
1959 412
amount 412
summer 412
ion 411
Armenian 410
Book 410
Saturn 410
calendar 410
St 409
fiction 409
placed 409
Georgia 408
Linux 408
M 408
di@@ 408
higher 408
Ontario 407
Sp@@ 407
System 407
dis@@ 407
edition 407
trade 407
X@@ 406
ates 406
département 406
ens 406
ig@@ 406
pl@@ 406
re 406
ut@@ 406
Federal 405
Nations 405
court 404
da 404
ed@@ 404
ism 404
lies 404
Con@@ 403
Railway 403
native 403
operating 403
Austrian 402
Korean 402
behind 402
wind 402
1952 400
Bar@@ 400
Jr. 400
baseball 400
battle 400
planet 400
Golden 399
census 399
rather 399
sound 399
Mor@@ 398
de@@ 398
keep 398
think 398
Force 397
Society 397
except 397
1956 396
80 396
Mc@@ 396
Tom 396
c 396
male 396
manager 396
Persian 395
mass 395
might 395
Jewish 394
Then 394
piano 393
1954 392
90 392
regular 392
scale 392
Total 391
Scott 390
ite 390
terms 390
My 389
T 389
according 389
Year 388
friends 388
structure 388
ana 387
ra 387
runs 387
tells 387
ner 386
ruled 386
1944 385
1955 385
Court 385
En@@ 385
Man@@ 385
taking 385
view 385
winning 385
1958 384
piece 384
Live 383
me 383
speed 383
copies 382
driver 382
les 382
needed 382
something 382
° 382
Holy 381
Maria 381
refers 381
simple 381
Boston 380
Boy 380
Chris 380
Hill 380
Mayenne 380
animated 380
regions 380
ton 380
1953 379
500 379
Ohio 379
becoming 379
ets 379
rules 379
true 379
fifth 378
love 378
moving 378
oc@@ 378
Or@@ 377
act 377
birds 377
seasons 377
Like 376
Th@@ 376
1940 375
ions 375
Ï 375
Act 374
Governor 374
Microsoft 374
Par@@ 374
Vienna 374
allow 374
bridge 374
ley 374
stations 374
1st 373
Class 373
Sch@@ 372
d'Azur 372
train 372
your 372
acid 371
av@@ 371
diameter 371
mph 371
p. 371
.@@ 370
Santa 370
action 370
ated 370
industry 370
ings 370
look 370
paper 370
1942 369
Love 369
Mount 369
N 369
flag 369
hot 369
weather 369
well-known 369
birth 368
passed 368
bad 367
cancer 367
dead 367
debut 367
ey 367
here 367
ors 367
stone 367
1950 366
Arthur 366
Internet 366
Premier 366
administrative 366
towards 366
trees 366
} 366
Symphony 365
kinds 365
od@@ 365
sp@@ 365
week 365
Man 364
heart 364
um@@ 364
O 363
Per@@ 363
comedy 363
ec@@ 363
husband 363
ones 363
talk 363
Melbourne 362
begins 362
turned 362
di 361
heat 361
label 361
mythology 361
Group 360
already 360
Oxford 359
Winter 359
id 359
ke 359
showed 359
believe 358
degree 358
nine 358
ran 358
remains 358
trains 358
Michigan 357
Punjab 357
buried 357
ds 357
fictional 357
se@@ 357
ISBN 356
NFL 356
ations 356
multiple 356
return 356
Official 355
elements 355
35 354
Mon@@ 354
ard 354
asteroid 354
counties 354
spent 354
Har@@ 353
au 353
fight 353
describe 352
eat 352
worldwide 352
ak 351
ay 351
know 351
troops 351
want 351
wrestler 351
Brown 350
D 350
future 350
gives 350
physical 350
1918 349
Bible 349
Family 349
idae 349
ing@@ 349
nearly 349
renamed 349
stopped 349
website 349
Beach 348
Democratic 348
Muslim 348
appears 348
normal 348
Polish 347
W. 347
branch 347
happened 347
{ 347
1933 346
Francisco 346
H. 346
Iran 346
Radio 346
borders 346
leave 346
ou@@ 346
ov@@ 346
users 346
16@@ 345
Kashmir 345
Smith 345
champion 345
ell 345
running 345
split 345
1970s 344
grow 344
programs 344
status 344
y-@@ 344
1960s 343
Three 343
ka 343
70 342
El 342
Raw 342
Sydney 342
cm 342
composed 342
consists 342
rivers 342
s-@@ 342
Albert 341
Festival 341
complex 341
market 341
reported 341
room 341
upon 341
widely 341
1951 340
Mal@@ 340
Mark 340
Qu@@ 340
Summer 340
competition 340
cyclone 340
mouth 340
pieces 340
ville 340
voice 340
1941 339
complete 339
hold 339
newspaper 339
0.@@ 338
1936 338
Princess 338
cents 338
mountains 338
Alabama 337
addition 337
normally 337
versions 337
Gulf 336
cars 336
covered 336
ier 336
vocals 336
1930 335
75 335
Br@@ 335
Museum 335
conducted 335
influence 335
section 335
studies 335
Ford 333
Khan 333
Pennsylvania 333
god 333
Cape 332
Cathedral 332
Columbia 332
Cross 332
Sometimes 332
bird 332
R. 331
ir@@ 331
Bl@@ 330
Tr@@ 330
ants 330
bank 330
element 330
houses 330
reason 330
ur 330
1937 329
Night 329
cover 329
earlier 329
greatest 329
Alaska 328
Champion 328
Earl 328
Free 328
More 328
ium 328
kilometres 328
re-@@ 328
read 328
soldiers 328
ter 328
A. 327
Both 327
Fox 327
Tour 327
] 327
bought 327
education 327
ins 327
ships 327
weeks 327
Commonwealth 326
Ne@@ 326
U 326
companies 326
ent@@ 326
ino 326
ob@@ 326
AD 325
Andrew 325
colors 325
equal 325
ot 325
painter 325
vote 325
Massachusetts 324
actually 324
allows 324
bar 324
inhabitants 324
45 323
Little 323
ad 323
gets 323
winner 323
Jersey 322
board 322
chosen 322
effect 322
entire 322
further 322
meters 322
dark 321
function 321
1900 320
Anne 320
Israel 320
Land 320
[ 320
ae 320
awards 320
del 320
someone 320
1920 319
1943 319
300 319
DNA 319
Modern 319
figure 319
ideas 319
involved 319
na 319
shape 319
table 319
teacher 319
Blue 318
Portuguese 318
Stanley 318
cases 318
closed 318
Mr. 317
Show 317
Stadium 317
council 317
ent 317
recent 317
refer 317
1990s 316
be@@ 316
cut 316
directly 316
orbit 316
training 316
Denmark 315
List 315
collection 315
medical 315
produce 315
products 315
valley 315
1934 314
L 314
See 314
appear 314
eventually 314
forced 314
particular 314
recording 314
sub@@ 314
C. 313
Indiana 313
Science 313
charge 313
relationship 313
Ñ 313
å 313
3-@@ 312
Kelly 312
beat 312
est 312
nature 312
per@@ 312
Bank 311
Bill 311
Dynasty 311
Moscow 311
ics 311
ir 311
speak 311
1938 310
Islamic 310
Turkey 310
ik@@ 310
ra@@ 310
32 309
? 309
Aube 309
Order 309
Rail 309
fruit 309
opening 309
powerful 309
records 309
Baseball 308
Image 308
civil 308
ter@@ 308
yellow 308
Congress 307
Frederick 307
Greece 307
Port 307
Treaty 307
c. 307
distribution 307
ends 307
fought 307
machine 307
minutes 307
news 307
north-central 307
supported 307
Civil 306
Mississippi 306
appointed 306
dynasty 306
ius 306
listed 306
month 306
singles 306
DVD 305
Gr@@ 305
Provence-Alpes-C 305
emperor 305
face 305
moons 305
nation 305
rate 305
ArdÃ 304
Ma@@ 304
Me@@ 304
Nazi 304
category 304
cl@@ 304
ev@@ 304
fighting 304
health 304
sky 304
1932 303
Fame 303
Q@@ 303
airport 303
completed 303
estimated 303
individual 303
sign 303
sport 303
Bush 302
Service 302
So 302
architecture 302
problem 302
provide 302
rich 302
Revolution 301
arts 301
attacks 301
die 301
e.g. 301
image 301
independence 301
ini 301
meant 301
particularly 301
camp 300
flows 300
He@@ 299
ability 299
bus 299
media 299
nearby 299
value 299
Kong 298
Robinson 298
b. 298
let 298
letters 298
man@@ 298
20@@ 297
Arts 297
Stone 297
alternative 297
billion 297
ge 297
historical 297
1\/2 296
Cambridge 296
Marie 296
artists 296
basketball 296
digital 296
objects 296
prison 296
1919 295
Aargau 295
Me 295
ids 295
provinces 295
tour 295
1929 294
Co@@ 294
Di@@ 294
Jack 294
chief 294
founder 294
ists 294
previous 294
se 294
1935 293
Czech 293
al-@@ 293
ale 293
giving 293
im 293
method 293
scientific 293
17@@ 292
51 292
Swiss 292
Toronto 292
Town 292
concert 292
honor 292
literature 292
metres 292
Chief 291
instruments 291
meet 291
mm 291
ne@@ 291
product 291
union 291
Art 290
associated 290
declared 290
depression 290
economic 290
mon 290
practice 290
roles 290
á 290
5-@@ 289
Ver@@ 289
growth 289
ib@@ 289
wall 289
Coast 288
P 288
centuries 288
difficult 288
discovery 288
invented 288
sk@@ 288
Minnesota 287
Peace 287
Triple 287
climate 287
computers 287
conditions 287
dry 287
ill@@ 287
link 287
ndash 287
recently 287
try 287
Frontier 286
device 286
earliest 286
feature 286
join 286
laws 286
o-@@ 286
0-@@ 285
1925 285
adopted 285
lands 285
skin 285
v 285
Only 284
Pro@@ 284
S. 284
Turkish 284
end@@ 284
fl@@ 284
ling 284
ore 284
plan 284
rain 284
remained 284
sl@@ 284
Ab@@ 283
Channel 283
Her@@ 283
Singapore 283
Wars 283
shot 283
starts 283
Ancient 282
Argentina 282
Who 282
ating 282
completely 282
f 282
sex 282
Arabic 281
Bridge 281
alphabet 281
landfall 281
minister 281
reach 281
ya 281
1924 280
Christmas 280
Mountains 280
arms 280
classical 280
ph@@ 280
Doctor 279
Hungary 279
M. 279
Norway 279
Office 279
block 279
brothers 279
coach 279
cultural 279
ip@@ 279
ist@@ 279
location 279
northeast 279
responsible 279
sons 279
tribe 279
² 279
1901 278
2nd 278
We 278
aircraft 278
approximately 278
combined 278
engineering 278
er-@@ 278
levels 278
solo 278
4-@@ 277
Bo@@ 277
Francis 277
acting 277
build 277
dance 277
direction 277
punk 277
removed 277
starring 277
turn 277
whether 277
Kansas 276
Opera 276
ay@@ 276
entered 276
ler 276
strength 276
web 276
Yorkshire 275
box 275
episodes 275
featured 275
grown 275
municipalities 275
on-@@ 275
younger 275
Death 274
Foundation 274
R 274
fall 274
in-@@ 274
opposite 274
upper 274
Main 273
Steve 273
castle 273
compound 273
flat 273
growing 273
height 273
ica 273
religion 273
Asian 272
Conference 272
Upper 272
appearance 272
solar 272
Armenia 271
Ber@@ 271
Frank 271
Saxony 271
alone 271
meeting 271
powers 271
professor 271
sequel 271
Daniel 270
ata 270
direct 270
eggs 270
festival 270
he@@ 270
marriage 270
mathematics 270
basic 269
channel 269
chart 269
exist 269
mi 269
peace 269
specific 269
taught 269
2-@@ 268
48 268
64 268
Colorado 268
ani 268
az@@ 268
commercial 268
defined 268
physics 268
songwriter 268
Jane 267
Munich 267
Philip 267
Statistics 267
cold 267
fact 267
ians 267
li@@ 267
southwestern 267
stayed 267
travel 267
winter 267
36 266
Bal@@ 266
Palace 266
ology 266
personal 266
recognized 266
ry 266
1-@@ 265
Jackson 265
ant@@ 265
eye 265
variety 265
1911 264
connected 264
contain 264
formula 264
increase 264
legal 264
ocean 264
row 264
urban 264
Jews 263
ara 263
ending 263
officer 263
sources 263
ah@@ 262
ch 262
course 262
dog 262
foot 262
separated 262
up@@ 262
chess 261
ep@@ 261
ish 261
sch@@ 261
theater 261
150 260
Census 260
Law 260
PokÃ 260
bigger 260
families 260
share 260
southeast 260
twice 260
1910 259
65 259
Adams 259
As@@ 259
Corporation 259
Hamilton 259
Hitler 259
Pl@@ 259
Song 259
\* 259
materials 259
par@@ 259
pass 259
philosophy 259
spread 259
Belgium 258
Florence 258
Fort 258
Lincoln 258
Navy 258
News 258
philosopher 258
sixth 258
translated 258
Jones 257
Last 257
Portugal 257
Walt 257
ach@@ 257
activities 257
ator 257
effects 257
girl 257
ise 257
majority 257
whom 257
1927 256
1928 256
33 256
38 256
Cap@@ 256
Mo@@ 256
construction 256
est@@ 256
leaving 256
é@@ 256
North-West 255
Orthodox 255
af@@ 255
eg@@ 255
engines 255
images 255
primary 255
situated 255
student 255
th 255
Professor 254
ano 254
content 254
flow 254
influenced 254
picture 254
royal 254
thus 254
1914 253
34 253
Bavaria 253
Caribbean 253
Castle 253
Peninsula 253
Region 253
bit 253
causes 253
console 253
easily 253
kill 253
ks 253
string 253
1912 252
Age 252
E. 252
Taylor 252
berg 252
carbon 252
saying 252
sc@@ 252
sexual 252
test 252
3rd 251
Ad@@ 251
Max 251
Press 251
break 251
fields 251
ow@@ 251
plane 251
poor 251
sides 251
wave 251
wear 251
Ticino 250
W 250
deep 250
fully 250
longest 250
milk 250
Cl@@ 249
Examples 249
Johann 249
Montreal 249
attended 249
headquarters 249
online 249
ous 249
policy 249
res 249
store 249
weight 249
1923 248
Van 248
ber@@ 248
controlled 248
finally 248
ines 248
jazz 248
tournament 248
3\/4 247
Hong 247
VendÃ 247
Wilson 247
bottom 247
churches 247
hour 247
mixed 247
organ 247
shared 247
Mediterranean 246
Tim 246
Williams 246
activity 246
hair 246
interest 246
ong 246
rural 246
singing 246
tradition 246
un 246
37 245
Finland 245
Under 245
claimed 245
con@@ 245
covers 245
ft 245
inches 245
society 245
tribes 245
2011 244
Even 244
Hot 244
MÃ 244
Walter 244
acts 244
bl@@ 244
en-@@ 244
eyes 244
i-@@ 244
orbits 244
39 243
Ag@@ 243
Joe 243
SmackDown 243
accepted 243
continue 243
issue 243
organized 243
sang 243
1922 242
1926 242
1931 242
400 242
borough 242
og@@ 242
ol 242
origin 242
over@@ 242
route 242
1917 241
B. 241
Of 241
and@@ 241
ars 241
jpg 241
ma 241
raised 241
tall 241
1.@@ 240
Tehsil 240
WWF 240
adult 240
fast 240
flowers 240
hosted 240
.com 239
And 239
Four 239
compared 239
evolution 239
results 239
street 239
subject 239
18th 238
1921 238
Ain 238
Gu@@ 238
Open 238
Over 238
Women 238
agreed 238
all@@ 238
annual 238
boy 238
coming 238
memory 238
Borough 237
Com@@ 237
Geneva 237
Protestant 237
Quebec 237
aired 237
ang@@ 237
anti-@@ 237
contract 237
drive 237
previously 237
purpose 237
Christ 236
D. 236
Gregorian 236
No. 236
Sal@@ 236
Tokyo 236
access 236
broke 236
carried 236
environment 236
evidence 236
federal 236
mid-@@ 236
secret 236
starred 236
Christianity 235
Muslims 235
cathedral 235
compounds 235
ov 235
speech 235
technology 235
Count 234
Fire 234
Greater 234
NBA 234
deal 234
double 234
earthquake 234
ene 234
ens@@ 234
ford 234
foreign 234
ge@@ 234
ok@@ 234
property 234
1,@@ 233
1908 233
Col@@ 233
K 233
Stephen 233
drums 233
ee 233
getting 233
instrument 233
pp 233
prime 233
stands 233
ã 233
Bad 232
Fl@@ 232
Indonesia 232
Racing 232
drama 232
matter 232
nominated 232
te@@ 232
How 231
Sunday 231
ari 231
drink 231
ers@@ 231
ham 231
holds 231
le-@@ 231
likely 231
van 231
voted 231
1913 230
Al 230
Deaths 230
ECW 230
F. 230
What 230
WrestleMania 230
chocolate 230
els 230
increased 230
iz@@ 230
matches 230
titles 230
Detroit 229
Kh@@ 229
Philharmonic 229
Ross 229
VI 229
parties 229
pronounced 229
tr@@ 229
walls 229
CD 228
Film 228
Square 228
asteroids 228
des 228
kilometers 228
onto 228
organisms 228
ub@@ 228
wild 228
wins 228
55 227
Dominican 227
Interstate 227
agreement 227
ary 227
iv@@ 227
owner 227
post 227
yet 227
Arizona 226
Federation 226
Highway 226
Justice 226
Long 226
Mountain 226
OS 226
Ph@@ 226
Pictures 226
Space 226
Virgin 226
chain 226
formerly 226
governor 226
limited 226
tell 226
villages 226
Johnson 225
Library 225
Social 225
Station 225
Urdu 225
bi@@ 225
care 225
comedian 225
for@@ 225
goal 225
out@@ 225
wing 225
7-@@ 224
Karl 224
Samuel 224
Territory 224
Vietnam 224
cor@@ 224
dogs 224
net 224
notable 224
overall 224
rail 224
Er@@ 223
Mac@@ 223
Network 223
Pe@@ 223
Pr@@ 223
circuit 223
colony 223
earned 223
edge 223
ella 223
examples 223
ick 223
industrial 223
inter@@ 223
launched 223
mathematician 223
peak 223
seventh 223
slowly 223
Abbottabad 222
Bowl 222
Ge@@ 222
Sar@@ 222
Several 222
density 222
ide 222
looks 222
merged 222
museum 222
musicians 222
parallel 222
ruler 222
treaty 222
Bros. 221
Constitution 221
Wisconsin 221
closely 221
existed 221
if@@ 221
pictures 221
q@@ 221
suggested 221
transport 221
Bur@@ 220
Category 220
DÃ 220
Friedrich 220
Sk@@ 220
ass@@ 220
atomic 220
belt 220
car@@ 220
cast 220
comic 220
highly 220
planned 220
tennis 220
4th 219
Between 219
Brian 219
Inc. 219
Tennessee 219
Years 219
looking 219
mammals 219
5th 218
Committee 218
Juan 218
difference 218
etc. 218
fuel 218
horse 218
killing 218
proposed 218
reign 218
smallest 218
stated 218
writers 218
Matthew 217
gained 217
hands 217
ich@@ 217
legs 217
master 217
soccer 217
spring 217
/ 216
Assembly 216
Bangladesh 216
Chile 216
Education 216
Philadelphia 216
ash 216
creation 216
quite 216
settlement 216
template 216
47 215
Afghanistan 215
Christians 215
Matt 215
Mike 215
Top 215
ama 215
applications 215
mentioned 215
organizations 215
paintings 215
sets 215
visit 215
Christopher 214
Ferdinand 214
Lower 214
Missouri 214
Senate 214
Special 214
Way 214
captured 214
co@@ 214
concept 214
core 214
novels 214
races 214
trying 214
typically 214
72 213
Arab 213
Min@@ 213
Public 213
Wilhelm 213
designation 213
develop 213
editor 213
elle 213
lakes 213
learn 213
prize 213
represented 213
ted 213
ura 213
1000 212
42 212
Adam 212
Islam 212
Neptune 212
Tony 212
ats 212
attacked 212
card 212
ity 212
leaders 212
perform 212
rare 212
theme 212
universe 212
200@@ 211
Abbey 211
Area 211
Benjamin 211
Billboard 211
Birmingham 211
Carl 211
Draft 211
Forest 211
Is 211
Pal@@ 211
Potter 211
ages 211
economy 211
electronic 211
ena 211
universities 211
44 210
7th 210
DS 210
Kim 210
Metropolitan 210
Vaucluse 210
ade 210
cost 210
metropolitan 210
motion 210
note 210
reasons 210
scientists 210
ta 210
tea 210
ze 210
Americans 209
Creek 209
Good 209
Hollywood 209
Jim 209
Madrid 209
Su@@ 209
biology 209
bodies 209
co-@@ 209
fans 209
rocks 209
significant 209
sites 209
visited 209
behavior 208
ky 208
printed 208
required 208
selected 208
solid 208
translation 208
Grammy 207
Idaho 207
Simon 207
Westminster 207
bar@@ 207
cycle 207
iron 207
slightly 207
waves 207
1916 206
Nor@@ 206
Puerto 206
Survivor 206
Taiwan 206
Theatre 206
Voyager 206
applied 206
bacteria 206
centre 206
cross 206
degrees 206
ess 206
ess@@ 206
graduated 206
ita 206
links 206
nations 206
protect 206
silver 206
sugar 206
to@@ 206
via 206
volume 206
1903 205
9-@@ 205
Alfred 205
Danish 205
Depression 205
Mag@@ 205
Sports 205
composers 205
format 205
gods 205
ker 205
liquid 205
my 205
soft 205
why 205
1950s 204
6th 204
95 204
Cal@@ 204
Can@@ 204
Ex@@ 204
Gold 204
Mas@@ 204
P. 204
Seven 204
Val@@ 204
^ 204
account 204
aw@@ 204
income 204
principal 204
tail 204
warm 204
Argentine 203
Final 203
Roger 203
Romans 203
concerts 203
ell@@ 203
ical 203
paid 203
painting 203
provides 203
selection 203
serving 203
17th 202
Inter@@ 202
Ke@@ 202
Security 202
association 202
broadcast 202
ex@@ 202
failed 202
goals 202
mark 202
ow 202
showing 202
ug@@ 202
wine 202
Arkansas 201
Captain 201
Underground 201
basis 201
exchange 201
expected 201
follow 201
generation 201
glass 201
hall 201
ill 201
medal 201
occupied 201
security 201
storms 201
wants 201
waters 201
Centre 200
Del@@ 200
Medicine 200
Ottoman 200
Patrick 200
ang 200
arrested 200
earth 200
ette 200
ich 200
ki 200
kingdom 200
mar@@ 200
measure 200
que 200
sun 200
Ardèche 199
Bob 199
Mont@@ 199
bring 199
brown 199
circle 199
doctor 199
forest 199
morning 199
ola 199
pro@@ 199
ue 199
16th 198
1906 198
Not 198
Out 198
Warner 198
attempt 198
celebrated 198
changing 198
ek 198
fell 198
remaining 198
temperatures 198
ud@@ 198
youngest 198
æ 198
Anthony 197
Dark 197
Egyptian 197
Heavyweight 197
Human 197
Labor 197
Maya 197
Overview 197
aceae 197
dates 197
defeat 197
den 197
eng@@ 197
formal 197
goods 197
happens 197
huge 197
ion@@ 197
kmÂ 197
lyrics 197
parliament 197
radiation 197
stock 197
Bureau 196
For@@ 196
Graham 196
Hawaii 196
Ian 196
Iraq 196
Muhammad 196
ites 196
pay-per-view 196
selling 196
serve 196
throne 196
46 195
54 195
6-@@ 195
Charlotte 195
Ray 195
VIII 195
Vancouver 195
electricity 195
file 195
follows 195
heard 195
historic 195
loss 195
score 195
thousands 195
unknown 195
victory 195
1915 194
26@@ 194
Ali 194
Beatles 194
Cuba 194
Du@@ 194
Guinea 194
Norwegian 194
VII 194
ac 194
ain 194
ann@@ 194
ast@@ 194
clubs 194
goaltender 194
gr@@ 194
joining 194
scientist 194
super@@ 194
w 194
zone 194
EP 193
Em@@ 193
Glasgow 193
Mexican 193
Monroe 193
Now 193
Phoenix 193
PlayStation 193
War@@ 193
bed 193
br@@ 193
ca 193
clear 193
combination 193
gu@@ 193
ial 193
needs 193
ranked 193
relations 193
territories 193
therefore 193
Following 192
Kar@@ 192
Television 192
ada 192
ance 192
cards 192
deaths 192
ering 192
ik 192
managed 192
pick 192
provided 192
thing 192
1904 191
Av@@ 191
Don 191
Independence 191
Lu@@ 191
Mayor 191
Pol@@ 191
Research 191
Sarah 191
ala 191
ane 191
bo@@ 191
crust 191
drummer 191
eaten 191
ech@@ 191
escape 191
ff@@ 191
helps 191
ile 191
mayor 191
medicine 191
stores 191
straight 191
structures 191
59 190
8-@@ 190
Dis@@ 190
Mat@@ 190
SS 190
Sc@@ 190
Wal@@ 190
administration 190
ea 190
enter 190
fantasy 190
farm 190
fashion 190
flight 190
guest 190
items 190
plastic 190
reading 190
sense 190
signal 190
1865 189
1902 189
Bi@@ 189
Bruce 189
Caesar 189
Hungarian 189
Mel@@ 189
ash@@ 189
disk 189
du 189
folk 189
gl@@ 189
greater 189
notes 189
operated 189
pay 189
programming 189
really 189
replace 189
sales 189
teaching 189
uk@@ 189
und 189
ure 189
yl@@ 189
43 188
81 188
85 188
Hebrew 188
SÃ 188
ally 188
bone 188
doing 188
ides 188
ie@@ 188
meets 188
moves 188
under@@ 188
ver@@ 188
worth 188
~ 188
2.@@ 187
Births 187
Cam@@ 187
Diego 187
PC 187
Philippines 187
Trophy 187
campaign 187
ger 187
giant 187
occur 187
Anna 186
Councils 186
Harrison 186
Jean 186
Louisiana 186
belongs 186
ber 186
extinct 186
happen 186
largely 186
linked 186
ordered 186
regional 186
salt 186
tracks 186
twelve 186
useful 186
Director 185
Garden 185
K. 185
Your 185
ence 185
ery 185
iss@@ 185
politics 185
presented 185
scene 185
seeds 185
weapons 185
workers 185
1895 184
18@@ 184
1905 184
66 184
Billy 184
Catherine 184
FC 184
Hor@@ 184
d-@@ 184
empire 184
maximum 184
ness 184
poem 184
settled 184
teeth 184
Bobby 183
Common 183
Defense 183
L. 183
affected 183
captain 183
challenge 183
functions 183
lasted 183
ment 183
pe@@ 183
reference 183
10th 182
98 182
Bel@@ 182
Country 182
flowering 182
inclination 182
inspired 182
positive 182
uc@@ 182
vi@@ 182
we@@ 182
Five 181
Fre@@ 181
Imperial 181
Jeff 181
Kennedy 181
Seattle 181
Supreme 181
aj@@ 181
apart 181
ceremony 181
executive 181
goddess 181
hundred 181
pre-@@ 181
speaking 181
ting 181
Chancellor 180
Children 180
Fe@@ 180
Gl@@ 180
Home 180
Is@@ 180
Mac 180
Temple 180
anime 180
armed 180
ba 180
blues 180
percent 180
platform 180
q 180
subtropical 180
surrounding 180
ung 180
13th 179
2,@@ 179
Antonio 179
Geography 179
Haiti 179
Rose 179
Times 179
actual 179
add 179
learned 179
mon@@ 179
operation 179
outer 179
sing 179
violin 179
19@@ 178
Cena 178
Pittsburgh 178
Water 178
ard@@ 178
claim 178
communities 178
definition 178
floor 178
library 178
lots 178
physicist 178
search 178
speakers 178
stay 178
tallest 178
1891 177
28@@ 177
41 177
56 177
Darwin 177
Friday 177
La@@ 177
Magazine 177
Moon 177
Pierre 177
Vice 177
contact 177
equipment 177
finds 177
journalist 177
models 177
om 177
particles 177
projects 177
report 177
stand 177
treatment 177
86 176
Lo@@ 176
Milan 176
R&B 176
acted 176
air@@ 176
causing 176
classes 176
classified 176
micro@@ 176
painted 176
peninsula 176
pianist 176
pole 176
produces 176
reg@@ 176
secondary 176
ula 176
1907 175
250 175
69 175
Austin 175
Bell 175
Ben 175
Carter 175
Chess 175
Prussia 175
Ro@@ 175
Story 175
audience 175
coastal 175
equator 175
hill 175
ind@@ 175
invasion 175
phrase 175
ro 175
steel 175
titled 175
worn 175
71 174
Ac@@ 174
Ages 174
Bishop 174
De 174
Howard 174
Master 174
Ministry 174
Works 174
candidate 174
dies 174
expansion 174
felt 174
forests 174
inc@@ 174
issues 174
meat 174
oxide 174
poetry 174
primarily 174
res@@ 174
scored 174
sell 174
staff 174
ti 174
uk 174
73 173
Ap@@ 173
Bre@@ 173
Hills 173
Homo 173
Police 173
Renaissance 173
arrived 173
authority 173
door 173
layer 173
methods 173
quality 173
ran@@ 173
script 173
seconds 173
1898 172
Clinton 172
Republican 172
Sa@@ 172
Third 172
analysis 172
capacity 172
financial 172
i.e. 172
interested 172
iÃ 172
j 172
medieval 172
organic 172
partner 172
remain 172
25@@ 171
800 171
Alan 171
Around 171
Band 171
Bu@@ 171
Carlos 171
Championships 171
Flanders 171
G. 171
Jordan 171
Liverpool 171
Power 171
Tor@@ 171
Welsh 171
creating 171
dioxide 171
insects 171
ish@@ 171
leads 171
passenger 171
perhaps 171
possibly 171
relative 171
reports 171
tube 171
49 170
9th 170
BÃ 170
Cold 170
Davis 170
Ros@@ 170
Sindh 170
bits 170
chose 170
derived 170
footballer 170
formation 170
freedom 170
issued 170
mechanical 170
message 170
rank 170
relatively 170
traffic 170
ut 170
/O. 169
1881 169
83 169
Books 169
Char@@ 169
End 169
GÃ 169
Hal@@ 169
Name 169
Tower 169
Unlike 169
We@@ 169
au@@ 169
beautiful 169
clothing 169
damaged 169
internal 169
ns 169
prey 169
shell 169
values 169
-like 168
78 168
Franklin 168
Iron 168
Margaret 168
Mer@@ 168
Sam@@ 168
Sol@@ 168
Ukraine 168
ative 168
boat 168
broken 168
carry 168
charts 168
electrical 168
ethnic 168
extremely 168
fly 168
ingen 168
mainland 168
occurred 168
ster 168
thick 168
00@@ 167
52 167
Commission 167
Connecticut 167
Do 167
Lewis 167
Miller 167
Pet@@ 167
Ter@@ 167
Video 167
atmosphere 167
daily 167
figures 167
fishing 167
fossil 167
importance 167
kin 167
ko 167
operations 167
tool 167
traveled 167
12th 166
1889 166
53 166
Apple 166
Community 166
CÃ 166
Ger@@ 166
Hercules 166
Hu@@ 166
Lawrence 166
Orange 166
Saturday 166
Te@@ 166
Zeus 166
codes 166
differences 166
liked 166
males 166
no@@ 166
noted 166
performing 166
queen 166
recordings 166
sisters 166
1,000 165
1879 165
600 165
Eric 165
Franz 165
MTV 165
Rangers 165
Real 165
Standard 165
Sub@@ 165
accident 165
dia 165
et-@@ 165
hydrogen 165
murder 165
passes 165
roughly 165
soil 165
st 165
1899 164
74 164
Byzantine 164
Homer 164
Late 164
Monday 164
Orton 164
Tar@@ 164
couple 164
eccentricity 164
ecliptic 164
extended 164
hole 164
ins@@ 164
km\/h 164
magnetic 164
negative 164
oh@@ 164
si@@ 164
sm@@ 164
strings 164
unique 164
Alice 163
At@@ 163
Jerusalem 163
Kevin 163
Les 163
Member 163
Members 163
Men@@ 163
Once 163
Socialist 163
Tri@@ 163
Up 163
claims 163
immediately 163
management 163
rise 163
spot 163
stream 163
1890 162
1909 162
Arnold 162
Austen 162
Ban@@ 162
Biography 162
Dar@@ 162
Delta 162
Far@@ 162
Ha@@ 162
Mil@@ 162
Percy 162
Uranus 162
aged 162
att@@ 162
describes 162
dr@@ 162
easy 162
elections 162
filled 162
flower 162
ian@@ 162
me@@ 162
orange 162
pool 162
solution 162
sure 162
surrounded 162
1867 161
1892 161
1896 161
Fer@@ 161
Heritage 161
Hugo 161
Nicholas 161
Rio 161
Super@@ 161
Usually 161
Y 161
actors 161
art@@ 161
brain 161
containing 161
experience 161
oxygen 161
plans 161
ren@@ 161
represent 161
ser@@ 161
spelled 161
unusual 161
5,000 160
Hart 160
Hel@@ 160
Memorial 160
Ru@@ 160
Sw@@ 160
Testament 160
Universal 160
Wh@@ 160
astronomer 160
attached 160
bones 160
dedicated 160
historian 160
potential 160
sounds 160
tools 160
(/O@@ 159
15th 159
77 159
Allen 159
Board 159
Bon@@ 159
Champions 159
Foreign 159
Heart 159
Jerry 159
Pat@@ 159
Suceava 159
banks 159
clothes 159
crime 159
distinct 159
ents 159
ett@@ 159
invited 159
narrow 159
ney 159
nickname 159
question 159
tries 159
turns 159
87 158
99 158
Among 158
Edinburgh 158
Instead 158
Lennon 158
Native 158
Sel@@ 158
Solothurn 158
Tamil 158
anything 158
aut@@ 158
burg 158
burned 158
capture 158
coffee 158
d'@@ 158
ern@@ 158
lan@@ 158
license 158
magnitude 158
measured 158
one-@@ 158
perfect 158
presidential 158
press 158
ri 158
southeastern 158
ste@@ 158
worlds 158
97 157
Baltimore 157
Finnish 157
Wagner 157
an-@@ 157
angle 157
colored 157
easier 157
featuring 157
forming 157
marked 157
moment 157
organism 157
reality 157
resulted 157
120 156
57 156
80@@ 156
Airlines 156
Atlanta 156
Brooklyn 156
Hindu 156
Mars 156
Ser@@ 156
Soon 156
Until 156
Xbox 156
attention 156
ey@@ 156
hospital 156
hp 156
numerous 156
operas 156
ora 156
ori 156
output 156
trip 156
1861 155
8th 155
Boys 155
Serbia 155
architect 155
ase 155
assistant 155
belief 155
boundary 155
chemistry 155
colonies 155
drug 155
existing 155
identified 155
looked 155
mission 155
protected 155
protection 155
save 155
shortened 155
thin 155
ç 155
10,000 154
1930s 154
Cleveland 154
Go@@ 154
Jefferson 154
Nar@@ 154
Project 154
composition 154
devices 154
domestic 154
fer@@ 154
ically 154
lowest 154
mind 154
molecules 154
orders 154
passengers 154
processing 154
response 154
roads 154
rose 154
sen 154
sw@@ 154
trial 154
watch 154
1857 153
360 153
88 153
Ak@@ 153
Brabant 153
Convention 153
Die 153
Douglas 153
Hans 153
LÃ 153
Manhattan 153
My@@ 153
Norman 153
Ol@@ 153
UEFA 153
Wii 153
actions 153
aka 153
conflict 153
cooking 153
copy 153
der@@ 153
designer 153
drivers 153
falls 153
girls 153
literally 153
marine 153
occurs 153
prevent 153
ski 153
the@@ 153
tower 153
underground 153
vehicle 153
virus 153
wh@@ 153
50@@ 152
63 152
Century 152
Na@@ 152
Oliver 152
Pyrénées 152
Studios 152
Tak@@ 152
begin 152
bright 152
cheese 152
closest 152
economics 152
explorer 152
failure 152
interview 152
officers 152
parks 152
two-@@ 152
wings 152
á@@ 152
1893 151
1894 151
900 151
Al-@@ 151
Born 151
Gaelic 151
Jan@@ 151
Ko@@ 151
Mu@@ 151
Solar 151
constructed 151
focus 151
hundreds 151
learning 151
processes 151
properties 151
reduced 151
serious 151
weakened 151
92 150
Blues 150
Capital 150
Don@@ 150
Giovanni 150
Here 150
Houston 150
Journal 150
Language 150
Leeds 150
Local 150
Stewart 150
T. 150
Thailand 150
Whedon 150
beach 150
classic 150
evil 150
garden 150
mann 150
ona 150
ou 150
priest 150
roots 150
strongest 150
sweet 150
ul 150
visible 150
ü@@ 150
Barcelona 149
Bull 149
Communist 149
Ernst 149
Gal@@ 149
Gordon 149
Organization 149
Point 149
Wil@@ 149
belong 149
calls 149
ce 149
defense 149
departments 149
display 149
enc@@ 149
governments 149
ix 149
map 149
ms 149
of@@ 149
persons 149
pilot 149
sharp 149
vehicles 149
ö@@ 149
Batista 148
Cat@@ 148
Hardy 148
Jacques 148
Kal@@ 148
Napoleon 148
Sl@@ 148
Web 148
agent 148
ami 148
ao 148
balls 148
bor@@ 148
contained 148
count 148
critics 148
dropped 148
ek@@ 148
ew@@ 148
har@@ 148
mosque 148
ote 148
server 148
standing 148
ve 148
votes 148
3:@@ 147
5,@@ 147
Albums 147
Bach 147
Dead 147
J 147
Ring 147
Simpsons 147
Str@@ 147
Tag 147
Though 147
West@@ 147
ach 147
additional 147
faster 147
ff 147
hero 147
hits 147
offered 147
path 147
permanent 147
pin 147
seats 147
serves 147
shaped 147
suburb 147
surviving 147
É 147
1.5 146
58 146
Ba@@ 146
Basketball 146
Cast@@ 146
Conservative 146
Gen@@ 146
M.D. 146
Maryland 146
McMahon 146
Paulo 146
abbreviated 146
address 146
aro 146
boys 146
choose 146
confirmed 146
contested 146
diesel 146
em 146
fellow 146
ha 146
ive 146
ized 146
min@@ 146
ret@@ 146
62 145
Atlantiques 145
Bear 145
I. 145
Just 145
Kent 145
Mah@@ 145
Mus@@ 145
Po@@ 145
Sam 145
Sat@@ 145
Shah 145
Simpson 145
Types 145
Utah 145
ades 145
automobile 145
chance 145
communication 145
constitution 145
existence 145
females 145
fossils 145
gun 145
individuals 145
ises 145
lack 145
lie 145
mining 145
organist 145
palace 145
ps 145
reaching 145
reaction 145
rugby 145
safety 145
sauce 145
self-@@ 145
styles 145
2,000 144
Despite 144
Kurt 144
Malaysia 144
Medal 144
Michaels 144
Military 144
Sciences 144
Syria 144
Zone 144
allowing 144
anyone 144
atoms 144
avoid 144
championships 144
connects 144
ese 144
extra 144
forward 144
gene 144
gray 144
iro 144
km/h 144
land@@ 144
marks 144
non-spherical 144
osa 144
pair 144
parish 144
playoffs 144
slow 144
technique 144
violence 144
wheel 144
1878 143
6,@@ 143
Brothers 143
Im@@ 143
Jura 143
Li@@ 143
Light 143
Louise 143
Moore 143
Singles 143
amounts 143
arm 143
bu@@ 143
classification 143
else 143
entry 143
es-@@ 143
executed 143
ful 143
hardware 143
impact 143
knowledge 143
la@@ 143
performances 143
po@@ 143
poems 143
refused 143
shear 143
sleep 143
str@@ 143
traded 143
67 142
79 142
All@@ 142
Angel 142
DC 142
Dem@@ 142
Father 142
Hospital 142
Jimmy 142
Leo 142
License 142
Peru 142
Rom@@ 142
Route 142
Trek 142
Wild 142
baby 142
background 142
continental 142
depending 142
ere 142
fixed 142
founding 142
frequently 142
gen@@ 142
grows 142
ias 142
oo@@ 142
periods 142
receive 142
regarded 142
reviews 142
ru@@ 142
senior 142
sentence 142
worship 142
Athens 141
FIFA 141
Flag 141
Lost 141
Natural 141
Pi@@ 141
Slovakia 141
Ur@@ 141
ab 141
arch@@ 141
co 141
coat 141
crew 141
drugs 141
global 141
joins 141
knew 141
lists 141
nÃ 141
pattern 141
planets 141
positions 141
shore 141
studying 141
su@@ 141
transfer 141
ys@@ 141
-de-@@ 140
3,000 140
Celtic 140
Cr@@ 140
Dolj 140
Edmund 140
FÃ 140
Health 140
Iranian 140
Jonathan 140
Kane 140
Rhine-Westphalia 140
SI 140
command 140
dating 140
ding 140
everything 140
expanded 140
genetic 140
hy@@ 140
ize 140
lo@@ 140
op 140
proper 140
rainfall 140
restaurant 140
revealed 140
revolution 140
setting 140
storage 140
weak 140
08 139
1888 139
68 139
Arctic 139
Corps 139
GNU 139
Marshall 139
ain@@ 139
alism 139
ari@@ 139
branches 139
citizens 139
consider 139
constituency 139
cup 139
ect@@ 139
fine 139
illa 139
losing 139
mis@@ 139
mo@@ 139
nicknamed 139
prayer 139
proved 139
traditionally 139
Against 138
Ann 138
Canadiens 138
Commons 138
Express 138
Kat@@ 138
Luis 138
Minor 138
Nelson 138
Wind 138
aid 138
bur@@ 138
buy 138
cousin 138
critical 138
dangerous 138
ered 138
fresh 138
homes 138
lin 138
rÃ 138
shortly 138
specifically 138
sung 138
treated 138
usage 138
3.@@ 137
Every 137
Google 137
Ir@@ 137
Ivan 137
Media 137
Queensland 137
Tuscany 137
act@@ 137
computing 137
continues 137
cyclones 137
distributed 137
electrons 137
ito 137
keys 137
kn@@ 137
literary 137
mathematical 137
nor 137
popularity 137
routes 137
thousand 137
volcano 137
Chapel 136
Development 136
Fr@@ 136
Gustav 136
Nazis 136
Renault 136
Rights 136
Such 136
Technology 136
Wall 136
adults 136
anus 136
authorities 136
chi 136
cream 136
eating 136
entirely 136
evolved 136
holiday 136
ign@@ 136
mat@@ 136
met@@ 136
motor 136
officials 136
principle 136
print 136
sand 136
signs 136
supply 136
techniques 136
ures 136
views 136
writings 136
11th 135
14th 135
96 135
Ash@@ 135
Back 135
Be 135
Buffalo 135
Electric 135
Girl 135
Hotel 135
Java 135
Las 135
Mart@@ 135
Oregon 135
Ram@@ 135
Rico 135
Tel@@ 135
chairman 135
che@@ 135
closer 135
desert 135
ely 135
engineer 135
exists 135
labor 135
novelist 135
ock 135
offer 135
ong@@ 135
oph@@ 135
resigned 135
soldier 135
stick 135
succeeded 135
tourist 135
tri@@ 135
typical 135
writes 135
100,000 134
1897 134
94 134
Britannica 134
Dor@@ 134
Field 134
Gothic 134
Gre@@ 134
Grey 134
Luxembourg 134
Nuremberg 134
Period 134
Pot@@ 134
RNA 134
Romanian 134
Russell 134
Six 134
Wood 134
beliefs 134
characteristics 134
egg 134
holding 134
household 134
ida 134
instructions 134
kg 134
ole 134
purposes 134
quantum 134
respectively 134
yearly 134
,@@ 133
Clark 133
Emmy 133
Julius 133
Knight 133
Miami 133
Mozart 133
Nick 133
Note 133
Rem@@ 133
RÃ 133
Sound 133
_@@ 133
ches 133
client 133
connection 133
continent 133
cultures 133
cur@@ 133
dancer 133
document 133
exactly 133
gate 133
infection 133
maker 133
mate 133
mosques 133
offices 133
ost@@ 133
ron 133
ung@@ 133
walk 133
1870 132
1880 132
1882 132
1885 132
23@@ 132
89 132
Affairs 132
Amsterdam 132
Dream 132
Frankfurt 132
Girls 132
Hampshire 132
New@@ 132
Q 132
Rolling 132
Ten 132
ais 132
bear 132
bread 132
cher 132
constant 132
execution 132
flavor 132
gone 132
guard 132
hal@@ 132
herself 132
kh@@ 132
municipal 132
ni@@ 132
passing 132
processor 132
resources 132
sal@@ 132
situation 132
standards 132
teach 132
Bernard 131
Bor@@ 131
Dublin 131
Energy 131
Hemisphere 131
IP 131
Kam@@ 131
Mercury 131
Mur@@ 131
Notes 131
Pop 131
Red@@ 131
Spring 131
Venice 131
WCW 131
amb@@ 131
colonial 131
concentration 131
cr@@ 131
everyone 131
gravity 131
ii 131
ique 131
ised 131
lawyer 131
represents 131
resulting 131
satellite 131
snow 131
spelling 131
strengthened 131
winners 131
ä@@ 131
AC 130
Baron 130
Ed@@ 130
Isle 130
Jammu 130
Norfolk 130
Part 130
Roosevelt 130
Senator 130
Sri 130
aw 130
cloud 130
confused 130
documents 130
headed 130
heads 130
int@@ 130
ly@@ 130
mechanics 130
minute 130
movements 130
ory 130
plain 130
shire 130
step 130
symbols 130
2.5 129
Columbus 129
Eddie 129
Indus 129
Long@@ 129
Ly@@ 129
Naples 129
Pakistani 129
Pokémon 129
banned 129
elli 129
evening 129
extension 129
finish 129
fur 129
hills 129
improve 129
inventor 129
necessary 129
od 129
ping 129
rarely 129
sa 129
trained 129
ì 129
1886 128
3,@@ 128
Aberdeen 128
Augustus 128
Cook 128
D.C. 128
Forbes 128
Hamburg 128
Han@@ 128
Junior 128
Lithuania 128
Rise 128
Together 128
ai@@ 128
aki 128
anthem 128
ato 128
cat 128
charged 128
chloride 128
competed 128
eighth 128
ett 128
expensive 128
favorite 128
granted 128
ington 128
kW 128
lets 128
locomotives 128
martial 128
send 128
shorter 128
stored 128
successor 128
survived 128
zero 128
196@@ 127
Cur@@ 127
Down 127
Hull 127
Jon 127
Maine 127
Oscar 127
Silver 127
Software 127
Spirit 127
amp@@ 127
authors 127
can@@ 127
coal 127
colleges 127
condition 127
controls 127
electron 127
faith 127
genera 127
institutions 127
ire 127
medium 127
ments 127
observed 127
pre@@ 127
producing 127
rulers 127
tax 127
till 127
trophy 127
000 126
82 126
Herbert 126
Madison 126
Miss 126
Orleans 126
Otto 126
Pro 126
San@@ 126
Songs 126
ace 126
adding 126
developing 126
drawing 126
hosts 126
ico 126
ova 126
price 126
rec@@ 126
soul 126
streets 126
ty 126
youth 126
1800 125
@@ 125
Baptist 125
Bengal 125
Buffy 125
Croatia 125
Crown 125
Dan 125
F1 125
Grace 125
Guerrero 125
Hainaut 125
Hol@@ 125
Hy@@ 125
Leipzig 125
Part@@ 125
Petersburg 125
Pre@@ 125
Rhône 125
Salzburg 125
Ta@@ 125
Tur@@ 125
Urban 125
Youth 125
ads 125
agree 125
airline 125
civilization 125
credited 125
drafted 125
enters 125
foods 125
ink 125
mer 125
mobile 125
newspapers 125
nothing 125
oral 125
osaurus 125
partly 125
portion 125
ric@@ 125
seed 125
spacecraft 125
sub-@@ 125
twenty 125
'@@ 124
1848 124
84 124
Advance 124
Ann@@ 124
Bad@@ 124
Cat 124
Computer 124
Cretaceous 124
Holland 124
Vincent 124
asks 124
caught 124
covering 124
currency 124
enemy 124
evolutionary 124
fame 124
flies 124
ima 124
ization 124
kers 124
legend 124
mel@@ 124
neck 124
ny 124
penis 124
risk 124
screen 124
sequence 124
shall 124
soap 124
statesman 124
sur-@@ 124
talking 124
trading 124
verse 124
volcanic 124
waste 124
(/O2006/O) 123
30@@ 123
Alliance 123
Baby 123
Buddhism 123
Dec@@ 123
Derby 123
Forces 123
Michelle 123
Provence-Alpes-Côte 123
Sand@@ 123
Shadow 123
Vi@@ 123
Vill@@ 123
aria 123
ath@@ 123
conducting 123
erg@@ 123
facilities 123
flying 123
genre 123
illo 123
leap 123
pi@@ 123
present-day 123
reduce 123
sol@@ 123
suggests 123
(/O2004/O) 122
10-@@ 122
1862 122
1876 122
Alex 122
Barbara 122
Castile 122
Coll@@ 122
Dictionary 122
Gar@@ 122
Head 122
Jan 122
Johnny 122
Met@@ 122
Mother 122
NASA 122
NBC 122
Number 122
Pradesh 122
Rumble 122
Southeast 122
Stars 122
Suffolk 122
USB 122
Z 122
ap 122
appearances 122
beyond 122
ching 122
circulation 122
committee 122
copper 122
corner 122
despite 122
details 122
dissolved 122
ear@@ 122
entertainment 122
hunting 122
intended 122
lay 122
mix 122
northeastern 122
northwestern 122
ond@@ 122
ots 122
parent 122
plate 122
rel@@ 122
residents 122
ros@@ 122
stress 122
telephone 122
thumb 122
va 122
year-old 122
700 121
Agency 121
Arena 121
Ay@@ 121
CE 121
Francesco 121
Literature 121
Physiology 121
Shakespeare 121
Steven 121
Stuart 121
Will 121
advanced 121
aff@@ 121
approved 121
atom 121
cake 121
dancing 121
daughters 121
dollars 121
farming 121
fluid 121
fort 121
hurricanes 121
ible 121
inus 121
keeping 121
n-@@ 121
opposition 121
prisoners 121
singers 121
survive 121
tip 121
uncle 121
wrong 121
197@@ 120
4,@@ 120
Arabia 120
Az@@ 120
Cu@@ 120
Edge 120
Kings 120
Latvia 120
Lieutenant 120
Men 120
Movie 120
Op@@ 120
Pan@@ 120
Star@@ 120
Strait 120
Thompson 120
bassist 120
boundaries 120
cable 120
cattle 120
choice 120
decision 120
ef@@ 120
eleven 120
ello 120
fat 120
feel 120
geometry 120
ij@@ 120
illegal 120
phone 120
proof 120
signals 120
sizes 120
statement 120
suffered 120
texts 120
1883 119
24@@ 119
93 119
Dave 119
Han 119
Mouse 119
Nevada 119
Norse 119
Northwest 119
Pri@@ 119
Ra@@ 119
Rec@@ 119
Sav@@ 119
Springs 119
Sussex 119
The@@ 119
Tom@@ 119
Vince 119
ack 119
algorithm 119
camps 119
choir 119
cipher 119
determined 119
experiment 119
ila 119
ious 119
mine 119
peoples 119
populations 119
rat 119
ric 119
vocal 119
(/O2001/O) 118
1860 118
199@@ 118
5.@@ 118
Adventures 118
Anderson 118
Archbishop 118
Ca@@ 118
Harvard 118
Pu@@ 118
Queens 118
Sab@@ 118
Transport 118
bro@@ 118
ded 118
factory 118
newly 118
oo 118
presence 118
rac@@ 118
resistance 118
seems 118
transferred 118
voiced 118
ying 118
Ë 118
Alexandria 117
Bas@@ 117
Dam 117
Duchy 117
Jason 117
José 117
Luc@@ 117
Ok@@ 117
Our 117
Season 117
Site 117
Terry 117
Thames 117
Trade 117
Woman 117
ales 117
ality 117
arranged 117
aster 117
breed 117
bury 117
childhood 117
commander 117
consisting 117
creator 117
del@@ 117
designs 117
extreme 117
formally 117
holy 117
injured 117
internet 117
kings 117
minerals 117
mixture 117
nervous 117
ont@@ 117
organs 117
rebuilt 117
requires 117
roll 117
supposed 117
t-@@ 117
target 117
1871 116
1872 116
1887 116
Bri@@ 116
Hearts 116
Ju@@ 116
Kr@@ 116
Mak@@ 116
Neu@@ 116
Pass 116
Sur@@ 116
Tibetan 116
Village 116
accept 116
alongside 116
application 116
boxing 116
cartoon 116
charges 116
col@@ 116
ern 116
files 116
finding 116
identity 116
injury 116
inner 116
mile 116
offers 116
pain 116
request 116
sodium 116
strip 116
three-@@ 116
une 116
Building 115
Dallas 115
Horse 115
Place 115
Sonic 115
Tampa 115
ake 115
alist 115
approach 115
campus 115
catch 115
compete 115
conference 115
connect 115
convection 115
crown 115
editors 115
feed 115
households 115
influential 115
judge 115
kills 115
marry 115
ois 115
opposed 115
protein 115
publishing 115
raise 115
reaches 115
releases 115
rice 115
tw@@ 115
warning 115
180 114
1877 114
1920s 114
61 114
Administration 114
Americas 114
Cameron 114
Camp@@ 114
Circle 114
Cou@@ 114
Dr@@ 114
Dun@@ 114
Falls 114
Former 114
Greatest 114
Ham@@ 114
Liberal 114
Mi@@ 114
No@@ 114
Nova 114
Panama 114
Reg@@ 114
Santiago 114
Sicily 114
Tam@@ 114
ag 114
aine 114
bordered 114
dated 114
driving 114
emergency 114
jobs 114
keyboard 114
lin@@ 114
millions 114
ni 114
ota 114
ranges 114
rating 114
rescue 114
resort 114
shares 114
soundtrack 114
substance 114
tion 114
tributary 114
(/O1999/O) 113
76 113
9.@@ 113
Antarctica 113
Berkeley 113
Cooper 113
Dakota 113
Hesse 113
IX 113
Leonese 113
Nation 113
Sierra 113
Simple 113
Smash 113
Sun@@ 113
VÃ 113
are@@ 113
ays 113
best-known 113
chair 113
cy@@ 113
drawn 113
enemies 113
entrance 113
equivalent 113
her@@ 113
inger 113
leg@@ 113
mal@@ 113
murdered 113
notably 113
publisher 113
sentenced 113
spots 113
subjects 113
tied 113
understand 113
usual 113
ó@@ 113
1852 112
1866 112
Aang 112
Bab@@ 112
Ben@@ 112
Dan@@ 112
Den@@ 112
Des@@ 112
Executive 112
Heinrich 112
JosÃ 112
Key 112
Population 112
Ryan 112
Soundgarden 112
Tal@@ 112
Thuringia 112
agency 112
ali 112
bomb 112
clay 112
decide 112
dish 112
divisions 112
ez 112
flooding 112
introduction 112
ken 112
laid 112
limit 112
networks 112
plus 112
powered 112
ranging 112
remove 112
rhythm 112
ridge 112
signature 112
sn@@ 112
stones 112
subdivision 112
unt@@ 112
wars 112
í@@ 112
,000 111
-based 111
Anglican 111
Black@@ 111
Costa 111
Dick 111
Edition 111
Luke 111
Mad@@ 111
Murray 111
Player 111
Ralph 111
Rhine 111
Ri@@ 111
Rob 111
Sheffield 111
Si@@ 111
Sim@@ 111
Warsaw 111
accounts 111
ail 111
ame 111
camera 111
crash 111
diseases 111
dragon 111
ears 111
ement 111
fan 111
generations 111
head@@ 111
horses 111
leadership 111
logic 111
nes 111
occupation 111
onic 111
prominent 111
questions 111
rapper 111
scholar 111
shift 111
suicide 111
weapon 111
yn@@ 111
(/O2005/O) 110
+@@ 110
1859 110
Anton 110
Avenue 110
Ga@@ 110
Gary 110
Management 110
Mis@@ 110
Piper 110
RAW 110
Those 110
UN 110
Undertaker 110
alcohol 110
anc@@ 110
boards 110
chamber 110
com@@ 110
contest 110
designated 110
documentary 110
enberg 110
eth@@ 110
franchise 110
gang 110
helping 110
instruction 110
ives 110
mineral 110
mode 110
pepper 110
preserved 110
restaurants 110
saint 110
semi-@@ 110
suggest 110
talks 110
temporary 110
ular 110
und@@ 110
weekly 110
window 110
wooden 110
Û 110
(/O2003/O) 109
160 109
1863 109
1884 109
90@@ 109
91 109
Au@@ 109
Avatar 109
Bart 109
Chakwal 109
Charlie 109
Culture 109
Gabriel 109
Gregory 109
Hudson 109
Keith 109
Land@@ 109
Mali 109
May@@ 109
Originally 109
Palm 109
Representatives 109
Ronald 109
Son 109
Stockholm 109
and\/or 109
ashi 109
businessman 109
crossed 109
fit 109
mor@@ 109
picked 109
plates 109
regularly 109
representing 109
rival 109
sections 109
spoke 109
stages 109
stronger 109
tissue 109
tourists 109
unlike 109
visual 109
widespread 109
è 109
40@@ 108
A.@@ 108
BCE 108
Comedy 108
Donald 108
Ev@@ 108
Gilbert 108
Hay@@ 108
Lam@@ 108
Maple 108
Marco 108
McCartney 108
Nature 108
Nile 108
Por@@ 108
Using 108
Win@@ 108
ards 108
birthday 108
blocked 108
coins 108
context 108
correct 108
disc 108
expression 108
farther 108
fun 108
gain 108
hotel 108
ji 108
lime 108
lÃ 108
org@@ 108
patterns 108
pitch 108
post-@@ 108
rapid 108
rows 108
singer-songwriter 108
subdivided 108
una 108
videos 108
worst 108
130 107
3D 107
A-@@ 107
Ang@@ 107
Barry 107
Beijing 107
Blackhawks 107
Bro@@ 107
Bulgaria 107
Cas@@ 107
Challenge 107
Classical 107
Due 107
ISO 107
Jo@@ 107
Knowles 107
Kur@@ 107
Laboratory 107
Nine 107
Nuclear 107
Out@@ 107
Pen@@ 107
Richmond 107
Saudi 107
Universe 107
Venus 107
ae@@ 107
ators 107
backing 107
browser 107
butter 107
cat@@ 107
chemist 107
courts 107
decades 107
defeats 107
ei 107
elling 107
ened 107
extratropical 107
ez@@ 107
filmed 107
ha@@ 107
iel@@ 107
ja 107
jump 107
ke@@ 107
measurement 107
neither 107
oma 107
overseas 107
paint 107
returns 107
ries 107
rope 107
shops 107
steam 107
strongly 107
thrown 107
toxic 107
vertical 107
(/O2007/O) 106
:00 106
AR@@ 106
Bou@@ 106
Bryan 106
Cour@@ 106
Croatian 106
Desert 106
JÃ 106
Kate 106
Ker@@ 106
Location 106
Mir@@ 106
Much 106
Neil 106
Ober@@ 106
Page 106
Rh@@ 106
Therefore 106
Trinity 106
Vol@@ 106
adi@@ 106
analog 106
autonomous 106
axis 106
divorced 106
don 106
drinking 106
drop 106
du@@ 106
encyclopedia 106
exact 106
fastest 106
frequency 106
grass 106
grounds 106
hip 106
hired 106
horror 106
installed 106
latter 106
liver 106
mice 106
otherwise 106
pol@@ 106
ready 106
rings 106
rit@@ 106
scholars 106
sel@@ 106
substances 106
sword 106
twin 106
za 106
Anastasia 105
Apollo 105
Cro@@ 105
Fall 105
Ferrari 105
Fin@@ 105
Gall@@ 105
Globe 105
Guitar 105
Isaac 105
Israeli 105
Je@@ 105
Joan 105
Legend 105
Lin@@ 105
Medical 105
Morgan 105
Movement 105
Mun@@ 105
Wolfgang 105
alliance 105
ballet 105
biological 105
bon@@ 105
bound 105
bre@@ 105
cello 105
cre@@ 105
disaster 105
drives 105
eb@@ 105
educated 105
eman 105
eta 105
inch 105
muscle 105
powder 105
sheep 105
supports 105
technical 105
tehsil 105
temple 105
thinks 105
ux 105
wa 105
í 105
1873 104
Abu 104
Album 104
Bay@@ 104
Card 104
Collins 104
DJ 104
Different 104
Famous 104
Hope 104
Lane 104
Lanka 104
Ludwig 104
Mosque 104
Observatory 104
Pap@@ 104
Rhône-Alpes 104
Sony 104
Sultan 104
Yugoslavia 104
ains 104
armies 104
aux 104
ax@@ 104
beating 104
channels 104
description 104
dollar 104
ening 104
experiments 104
factors 104
feathers 104
intelligence 104
ison 104
itis 104
jo 104
journey 104
messages 104
mont 104
operates 104
oss@@ 104
our@@ 104
ox@@ 104
permission 104
plot 104
policies 104
rat@@ 104
stem 104
talked 104
touch 104
1869 103
8,@@ 103
9,@@ 103
Amazon 103
Bundesliga 103
Camp 103
Dam@@ 103
Declaration 103
Fantasy 103
Kan@@ 103
Kirby 103
Lim@@ 103
Lion 103
Morris 103
Nickelodeon 103
Persia 103
Raymond 103
Retrieved 103
Shawn 103
Soccer 103
Tu@@ 103
UNESCO 103
UTC 103
Vis@@ 103
Vol 103
Windsor 103
Wright 103
Yellow 103
ath 103
blocks 103
categories 103
citizen 103
cloth 103
conquered 103
converted 103
den@@ 103
descent 103
draw 103
gases 103
glands 103
happy 103
heim 103
hurt 103
initially 103
input 103
ker@@ 103
lock 103
monastery 103
plural 103
rebellion 103
ron@@ 103
root 103
subspecies 103
teachers 103
testing 103
100@@ 102
60@@ 102
Alpes-Maritimes 102
Antarctic 102
Arch@@ 102
Art@@ 102
Bouches-du-Rh 102
Colombia 102
Craig 102
Current 102
Dog 102
Emirates 102
Further 102
Germans 102
Gray 102
Il@@ 102
Ka@@ 102
Ku@@ 102
Lar@@ 102
Mill@@ 102
Nag@@ 102
Ned 102
Prague 102
Santo 102
To@@ 102
Tre@@ 102
Wayne 102
activist 102
advantage 102
aga 102
arm@@ 102
broad 102
crowned 102
gardens 102
horn 102
indicate 102
initial 102
instance 102
intensity 102
massive 102
ok 102
owners 102
prince 102
producers 102
promote 102
saved 102
slide 102
tag 102
ute 102
wet 102
yan 102
zoo 102
ABC 101
AS@@ 101
Batman 101
Cabinet 101
Calvin 101
Comics 101
Days 101
Dean 101
Food 101
Gardens 101
Guide 101
Hyderabad 101
Jun@@ 101
Lucy 101
Marcus 101
Often 101
Online 101
Os@@ 101
ances 101
animation 101
ax 101
begun 101
breeding 101
burn 101
cal@@ 101
cats 101
contributions 101
eu@@ 101
four-@@ 101
graduate 101
hidden 101
hum@@ 101
iers 101
ities 101
modified 101
ning 101
oid 101
ops 101
phase 101
pr@@ 101
purple 101
quarterback 101
safe 101
spiritual 101
worms 101
ón 101
110 100
1836 100
1850 100
7,@@ 100
Alberta 100
Ant@@ 100
Bermuda 100
Cab@@ 100
Canton 100
Chuck 100
Der 100
Genus 100
Ice 100
Kor@@ 100
Midlands 100
Ob@@ 100
On@@ 100
Ottawa 100
Professional 100
Range 100
Report 100
S.@@ 100
Somerset 100
Sy@@ 100
Titan 100
affairs 100
agriculture 100
badly 100
bishop 100
dialect 100
el-@@ 100
ele 100
experienced 100
friendly 100
greatly 100
hor@@ 100
igny 100
ma@@ 100
machines 100
missing 100
och@@ 100
ologist 100
orbiting 100
pur@@ 100
rates 100
rop@@ 100
ros 100
rounds 100
ska 100
stable 100
thinking 100
trans@@ 100
12-@@ 99
1868 99
194@@ 99
20,000 99
Adolf 99
Child 99
Countess 99
Ernest 99
Europeans 99
Fiction 99
Hugh 99
IS@@ 99
Inca 99
MP 99
Malta 99
Newfoundland 99
Newton 99
Original 99
Pearl 99
Post 99
Studies 99
adventure 99
alive 99
all-@@ 99
carbonate 99
collected 99
credit 99
crimes 99
depends 99
dispute 99
do@@ 99
draft 99
false 99
heating 99
heir 99
hydroxide 99
ille 99
incorporated 99
lens 99
ologists 99
ores 99
owns 99
pen@@ 99
ports 99
quarter 99
rem@@ 99
si 99
visitors 99
yard 99
1840 98
AT@@ 98
Along 98
Dance 98
Esperanto 98
Friends 98
Fu@@ 98
Georg 98
Gi@@ 98
Heaven 98
Intelligence 98
Living 98
Lor@@ 98
Physics 98
Systems 98
US$ 98
Var@@ 98
amateur 98
ask 98
beauty 98
berry 98
clock 98
conquest 98
criticized 98
dec@@ 98
dem@@ 98
destroy 98
efforts 98
emb@@ 98
enh@@ 98
ensis 98
external 98
fairly 98
fleet 98
followers 98
high-@@ 98
ils 98
joint 98
metals 98
mil@@ 98
mines 98
orbital 98
oz@@ 98
psychology 98
rays 98
session 98
struck 98
tenth 98
tongue 98
traditions 98
understanding 98
violent 98
-sur-@@ 97
11@@ 97
1858 97
Any 97
Baker 97
Cre@@ 97
Currently 97
Cy@@ 97
Deep 97
Ed 97
Engineering 97
Gran@@ 97
Harris 97
Iceland 97
Independent 97
Information 97
Julian 97
Kaz@@ 97
Left 97
Limited 97
Mass@@ 97
Mos@@ 97
Nixon 97
Pin@@ 97
Rob@@ 97
SA 97
Saints 97
Serbian 97
So@@ 97
Thurgau 97
Tibet 97
Tro@@ 97
Ul@@ 97
Vegas 97
Warren 97
alis 97
artificial 97
bombing 97
businesses 97
chemicals 97
domain 97
dwarf 97
ean 97
fires 97
fre@@ 97
ide@@ 97
increasing 97
jet 97
loop 97
nose 97
oceans 97
oms 97
organised 97
osis 97
pinned 97
pointed 97
prefecture 97
protocol 97
pur 97
sa@@ 97
scenes 97
stripes 97
sur@@ 97
tions 97
traveling 97
ua 97
water@@ 97
well-@@ 97
04 96
1864 96
1940s 96
Action 96
Blood 96
Bran@@ 96
Career 96
Discovery 96
Do@@ 96
Dur@@ 96
Entry 96
Freedom 96
Gold@@ 96
Guy 96
Kin@@ 96
Kn@@ 96
Lightning 96
Mul@@ 96
Planet 96
Reserve 96
Rocky 96
Rugby 96
Stand 96
Surrey 96
Tan@@ 96
Tim@@ 96
Tyler 96
Very 96
blind 96
breaking 96
calling 96
cooked 96
dinosaurs 96
esh@@ 96
finishing 96
funeral 96
golden 96
historians 96
ick@@ 96
ip 96
ira 96
ked 96
lifetime 96
locomotive 96
magic 96
mental 96
monarch 96
oy 96
scales 96
strike 96
succeeds 96
ther@@ 96
to-@@ 96
ush@@ 96
wearing 96
1874 95
Aires 95
Alexandra 95
Alpes 95
Buenos 95
Che@@ 95
Eg@@ 95
Explorer 95
Extreme 95
Fernando 95
Flemish 95
Labour 95
Lebanon 95
Luther 95
Near 95
Noble 95
Others 95
Ravens 95
SPD 95
Sebastian 95
Sky 95
Studio 95
Ted 95
Theodore 95
USD 95
argued 95
arian 95
awa 95
bishops 95
boats 95
controversy 95
creates 95
debate 95
decade 95
describing 95
drinks 95
entitled 95
environmental 95
ert 95
grandson 95
hand@@ 95
hi 95
identical 95
ing-@@ 95
mainstream 95
median 95
molecular 95
ninth 95
ography 95
ose 95
ous@@ 95
oy@@ 95
ped 95
personality 95
px 95
quick 95
raw 95
remembered 95
representative 95
sciences 95
severe 95
sick 95
sporting 95
stein 95
ta@@ 95
theorem 95
walking 95
án 95
1830 94
1854 94
4,000 94
8,000 94
All-Star 94
Brother 94
Canal 94
Economic 94
Jamaica 94
KÃ 94
MVP 94
Medici 94
Motor 94
Post@@ 94
Race 94
Susan 94
Thursday 94
abolished 94
academic 94
ahead 94
angry 94
appearing 94
ast 94
bat 94
chapel 94
clouds 94
continents 94
destruction 94
distances 94
edit 94
heavily 94
housing 94
involves 94
ix@@ 94
launch 94
logo 94
occasionally 94
ode 94
operate 94
originated 94
pure 94
roc@@ 94
rooms 94
supplies 94
toward 94
voting 94
ye 94
1824 93
1844 93
192@@ 93
Almost 93
Antwerp 93
Cass@@ 93
Circuit 93
Classic 93
Edwards 93
Gil@@ 93
Helen 93
Indians 93
Kiss 93
Lotus 93
Machine 93
Med@@ 93
Mot@@ 93
Parker 93
Pink 93
Religion 93
Salt 93
Small 93
São 93
Tommy 93
ams 93
answer 93
az 93
bal@@ 93
column 93
communes 93
contrast 93
cop@@ 93
decides 93
eries 93
estimates 93
faced 93
fruits 93
governed 93
highway 93
iano 93
ification 93
illness 93
layers 93
meetings 93
nucleus 93
opens 93
planning 93
poly@@ 93
predators 93
proteins 93
putting 93
ration 93
reproduction 93
republic 93
require 93
so-called 93
varies 93
vocalist 93
voltage 93
war@@ 93
wor@@ 93
yn 93
Abraham 92
Alternative 92
Andy 92
Ari@@ 92
Ass@@ 92
Brighton 92
Buddhist 92
Calgary 92
Cemetery 92
ChÃ 92
Cornell 92
Dom@@ 92
Edgar 92
Ethiopia 92
Gra@@ 92
Grande 92
Hindenburg 92
Hun@@ 92
Luigi 92
Mol@@ 92
Mongolia 92
Pel@@ 92
Players 92
Regional 92
Review 92
Ron 92
Rural 92
ST@@ 92
Through 92
Ukrainian 92
Victor 92
Zoo 92
acres 92
ancestors 92
anniversary 92
ational 92
attempted 92
belonged 92
canceled 92
chapter 92
companion 92
conservative 92
defend 92
demand 92
eda 92
gay 92
ges 92
grade 92
grandfather 92
holes 92
hu@@ 92
hypothesis 92
icus 92
increases 92
ith@@ 92
leaf 92
meanings 92
pet 92
pope 92
promoted 92
promotion 92
publication 92
religions 92
resolution 92
ria 92
rubber 92
supporters 92
threatened 92
tur@@ 92
unable 92
united 92
vision 92
105 91
1801 91
1853 91
4:@@ 91
Arabian 91
Are 91
Atlas 91
CBS 91
Carlo 91
Design 91
Evil 91
FIA 91
Grameen 91
Kl@@ 91
Leonard 91
Let 91
Mongol 91
Pan 91
Pluto 91
Prefecture 91
Reich 91
Robin 91
US@@ 91
Use 91
Vic@@ 91
achieved 91
adaptation 91
ail@@ 91
ans@@ 91
breast 91
bringing 91
bronze 91
centers 91
ci@@ 91
conductors 91
conservation 91
counted 91
creatures 91
criminal 91
database 91
delivered 91
disorder 91
don@@ 91
effective 91
ense 91
erc@@ 91
fired 91
grave 91
hop 91
ier@@ 91
journal 91
mid 91
mill 91
multi-@@ 91
notation 91
oth@@ 91
radioactive 91
readers 91
replacing 91
scheme 91
seem 91
sees 91
sil@@ 91
sized 91
skater 91
skills 91
skull 91
statue 91
theories 91
tim@@ 91
tons 91
tourism 91
windows 91
101 90
140 90
1842 90
Air@@ 90
Aut@@ 90
Beethoven 90
Bristol 90
Campbell 90
Chase 90
Hume 90
HÃ 90
IN@@ 90
Leonardo 90
Lisa 90
Manitoba 90
Medieval 90
Mrs. 90
Ni@@ 90
Orlando 90
Personal 90
RAID 90
Slavic 90
Soul 90
Todd 90
USSR 90
Ubuntu 90
Under@@ 90
Venezuela 90
afternoon 90
aries 90
astronomers 90
ati 90
back@@ 90
boroughs 90
cache 90
carrying 90
celebrate 90
coalition 90
critic 90
dale 90
desktop 90
fifteen 90
flowing 90
habitat 90
hemisphere 90
ices 90
idi@@ 90
iko 90
inland 90
listing 90
loved 90
naval 90
oe 90
reactions 90
ree 90
residence 90
returning 90
sale 90
slaves 90
spin-off 90
stor@@ 90
talent 90
tape 90
topic 90
tor@@ 90
volcanoes 90
Ú 90
(/O2002/O) 89
00 89
01 89
1851 89
1856 89
Ball@@ 89
Brandenburg 89
Code 89
Dal@@ 89
Ep@@ 89
Get 89
Gh@@ 89
Go 89
Jose 89
Leopold 89
Lou@@ 89
Next 89
Normandy 89
Origin 89
Randy 89
Sen@@ 89
Thile 89
Tran@@ 89
UN@@ 89
Vendée 89
Victorian 89
Wel@@ 89
Wells 89
agricultural 89
arrives 89
artistic 89
attraction 89
bell 89
bin 89
cryptography 89
defeating 89
ed-@@ 89
ements 89
fair 89
guilty 89
junior 89
leg 89
manga 89
maps 89
non@@ 89
presenter 89
reacting 89
ref@@ 89
registered 89
rejected 89
relatives 89
retrograde 89
review 89
rid 89
somewhat 89
ten@@ 89
tie 89
1832 88
1841 88
27@@ 88
6.@@ 88
70@@ 88
Alb@@ 88
Bil@@ 88
Cities 88
Crusade 88
Easter 88
Flight 88
GP 88
Gate 88
Germanic 88
Governor-General 88
Guard 88
Harold 88
Katrina 88
Lev@@ 88
Nav@@ 88
Political 88
Sn@@ 88
Toyota 88
Wat@@ 88
Whit@@ 88
angles 88
ante 88
argument 88
ca@@ 88
cent@@ 88
clean 88
controversial 88
determine 88
enn@@ 88
equation 88
fourteen 88
gen 88
guide 88
hom@@ 88
horizontal 88
liberal 88
lose 88
memorial 88
meter 88
north-east 88
particle 88
pulled 88
random 88
relationships 88
rick 88
rotation 88
sailed 88
seeing 88
serial 88
ston 88
taste 88
threat 88
ti@@ 88
tournaments 88
wrestlers 88
ym@@ 88
000,000 87
125 87
1831 87
1849 87
193@@ 87
21st 87
35@@ 87
Aaron 87
Allied 87
Alps 87
Areas 87
Base 87
Burton 87
Business 87
Cardinal 87
Chad 87
Cos@@ 87
Cyrillic 87
Felix 87
Fred 87
Greeks 87
Hermann 87
Jurassic 87
Keynes 87
Mand@@ 87
Manuel 87
Nic@@ 87
Nicolas 87
Pedro 87
Perry 87
Perth 87
Pop@@ 87
Princeton 87
RGB 87
Speed 87
Trans@@ 87
Ty@@ 87
Up@@ 87
Versailles 87
Vladimir 87
Where 87
acids 87
acy 87
athletes 87
cave 87
cdot 87
cool 87
deals 87
download 87
ela 87
estate 87
exile 87
expressed 87
fights 87
form@@ 87
frame 87
hope 87
iting 87
lab@@ 87
locations 87
mammal 87
markets 87
minimum 87
mo 87
ome 87
patients 87
pink 87
potassium 87
prior 87
regime 87
respect 87
ress 87
romantic 87
secretary 87
settlers 87
sharing 87
supporting 87
ums 87
uss@@ 87
voices 87
1812 86
Aragon 86
Benoit 86
Boeing 86
Broadway 86
Chart 86
Claudius 86
Dante 86
Der@@ 86
Eve 86
Eventually 86
Gor@@ 86
Hom@@ 86
Jay 86
Lorenzo 86
Maz@@ 86
Revolutionary 86
Rudolf 86
Sean 86
Sou@@ 86
Ste@@ 86
Tasmania 86
Vampire 86
Version 86
Witch 86
accessed 86
ado 86
advice 86
algae 86
ancestor 86
astronomy 86
bas@@ 86
bill 86
breeds 86
briefly 86
budget 86
components 86
cotton 86
crops 86
crossing 86
dress 86
establish 86
fibers 86
firm 86
genetics 86
immunity 86
judges 86
la-@@ 86
lem@@ 86
les-@@ 86
nd@@ 86
opponent 86
ordinary 86
physician 86
planted 86
practical 86
radius 86
ram 86
replacement 86
rttemberg 86
smell 86
steps 86
stood 86
sun@@ 86
thermal 86
thirteen 86
turning 86
val@@ 86
weekend 86
wheat 86
1837 85
198@@ 85
Angle 85
Bos@@ 85
Bruins 85
Dubai 85
Fro@@ 85
Green@@ 85
Lachlan 85
Lucas 85
Lugano 85
Malcolm 85
Nigeria 85
Operation 85
Pass@@ 85
Rad@@ 85
Raj@@ 85
Res@@ 85
Rivers 85
Rock@@ 85
Slayer 85
Snow 85
XIV 85
accused 85
amm@@ 85
ass 85
ave 85
capable 85
contemporary 85
councils 85
def@@ 85
ear 85
editing 85
ender 85
etta 85
foundation 85
graphics 85
gre@@ 85
ine@@ 85
interface 85
itz 85
ls 85
mantle 85
measures 85
medals 85
polar 85
purchased 85
rats 85
riots 85
single-@@ 85
slave 85
successfully 85
task 85
th-@@ 85
transportation 85
vector 85
vegetables 85
wa@@ 85
watching 85
(/O2008/O) 84
500,000 84
Arm@@ 84
Basilica 84
Bat@@ 84
Bol@@ 84
Cologne 84
Crystal 84
D-@@ 84
Daily 84
Devon 84
Eagle 84
Floyd 84
Gallery 84
Georges 84
God@@ 84
Greg 84
Intercontinental 84
Isabella 84
Kir@@ 84
Lat@@ 84
Money 84
Montana 84
Pa@@ 84
Phil 84
Plot 84
Ren@@ 84
Roberto 84
Romeo 84
Sport 84
Tribal 84
Wallace 84
Websites 84
Weimar 84
Wood@@ 84
Xena 84
adapted 84
apply 84
assassinated 84
aya 84
bat@@ 84
binary 84
bridges 84
chromosomes 84
collapse 84
crashed 84
des@@ 84
distinguished 84
erman 84
ex-@@ 84
exposed 84
flood 84
grand 84
guns 84
iga 84
imperial 84
inf@@ 84
involving 84
istic 84
ith 84
legendary 84
off@@ 84
oon 84
package 84
pairs 84
por@@ 84
probe 84
reputation 84
ride 84
rising 84
seal 84
spirit 84
succession 84
theaters 84
toys 84
ure@@ 84
victims 84
whales 84
/O) 83
165 83
1843 83
1855 83
195@@ 83
22@@ 83
4.@@ 83
African-American 83
Athletic 83
Authority 83
Canterbury 83
Catholics 83
Chairman 83
Claude 83
Construction 83
Digital 83
Es@@ 83
Gospel 83
Gro@@ 83
Ken 83
Lancashire 83
Limburg 83
Maurice 83
Mod@@ 83
Mysterio 83
Physical 83
Railways 83
Roberts 83
SP@@ 83
Sauber 83
Scotia 83
Sega 83
Silva 83
Ten@@ 83
ack@@ 83
attempts 83
bark 83
bel 83
bert 83
breaks 83
cap@@ 83
charity 83
collections 83
colour 83
committed 83
duo 83
escaped 83
ex 83
exclusive 83
focused 83
ging 83
han 83
hide 83
ih@@ 83
itch 83
iy@@ 83
k-@@ 83
latest 83
mature 83
observations 83
pa 83
pat@@ 83
pitcher 83
probability 83
rated 83
sculpture 83
shield 83
slavery 83
smooth 83
snake 83
societies 83
sphere 83
stops 83
su 83
sum 83
sy@@ 83
theology 83
ven@@ 83
violinist 83
ware 83
yer 83
1,0@@ 82
1500 82
1847 82
B-@@ 82
Bah@@ 82
Bell@@ 82
Cardinals 82
Color 82
Concerto 82
Confederate 82
Confederation 82
Duchess 82
Essex 82
Eugene 82
Evolution 82
Johannes 82
Leafs 82
Macedonia 82
Nancy 82
Port@@ 82
Portland 82
Sil@@ 82
Sin@@ 82
Stock 82
Sudan 82
Sum@@ 82
Sunderland 82
Wings 82
affect 82
assigned 82
atmospheric 82
audio 82
ava 82
bases 82
bears 82
concrete 82
dam 82
decay 82
democracy 82
driven 82
dust 82
entering 82
eville 82
exhibition 82
fighter 82
gauge 82
ified 82
immigrants 82
inducted 82
internationally 82
ista 82
monarchy 82
nephew 82
optical 82
praised 82
prove 82
ques 82
recognize 82
ren 82
rep@@ 82
retirement 82
role-playing 82
roof 82
rot@@ 82
ruling 82
secure 82
sort 82
spectrum 82
swimming 82
symptoms 82
templates 82
(/O2000/O) 81
1804 81
1815 81
186@@ 81
1875 81
20-@@ 81
50,000 81
Award-winning 81
Bosnia 81
Burke 81
Chevrolet 81
Constantine 81
Danny 81
Domingo 81
Episode 81
Gabrielle 81
Gon@@ 81
Hard 81
Hen@@ 81
Jacob 81
Janeiro 81
Monte 81
Ry@@ 81
Services 81
Wolf 81
ables 81
afterwards 81
arrest 81
atus 81
ay-@@ 81
battles 81
black@@ 81
bul@@ 81
burning 81
cabinet 81
carries 81
celebration 81
competitions 81
cricket 81
crowd 81
danger 81
deck 81
diet 81
drum 81
edited 81
editions 81
efficiency 81
ests 81
etic 81
factor 81
fe@@ 81
ga 81
gradually 81
grandmother 81
honorary 81
improved 81
ional 81
ische 81
itions 81
legislature 81
les@@ 81
li 81
minority 81
net@@ 81
obtained 81
or-@@ 81
periodic 81
prepared 81
properly 81
pushed 81
puts 81
spend 81
telescope 81
telling 81
tt@@ 81
uck 81
uniform 81
unless 81
ves 81
wider 81
wish 81
zones 81
ë 81
1817 80
1\/@@ 80
36@@ 80
Andrea 80
Article 80
Baden 80
Bul@@ 80
Chelsea 80
Chemical 80
Chilean 80
Core 80
Debian 80
Delaware 80
Drama 80
Hanover 80
Ken@@ 80
Laura 80
Lav@@ 80
Liu 80
MM@@ 80
NASCAR 80
Nov@@ 80
Oslo 80
Paramount 80
Pont@@ 80
Sainte-@@ 80
Santos 80
Section 80
Sor@@ 80
Strauss 80
True 80
Will@@ 80
Work 80
ali@@ 80
apple 80
ar-@@ 80
ate@@ 80
burial 80
cantons 80
circular 80
contributed 80
convicted 80
cult 80
displayed 80
doctors 80
dos 80
dried 80
educational 80
erson 80
geographical 80
heated 80
hol@@ 80
isation 80
killer 80
lat@@ 80
mid@@ 80
mixing 80
noble 80
numbered 80
oda 80
olog@@ 80
pan@@ 80
part@@ 80
populated 80
progressive 80
rapidly 80
references 80
reserve 80
restored 80
rig@@ 80
seas 80
statistical 80
tornado 80
trams 80
understood 80
wil 80
120@@ 79
1791 79
1798 79
1846 79
2.0 79
200,000 79
2012 79
Aboriginal 79
Amadeus 79
Anglo-@@ 79
Bag@@ 79
Baldwin 79
Ball 79
Cent@@ 79
Cer@@ 79
Congo 79
Devil 79
División 79
Elder 79
Front 79
Giant 79
Hard@@ 79
Immunity 79
Indonesian 79
Larry 79
Lov@@ 79
MB 79
Mass 79
Melina 79
Mill 79
Not@@ 79
Rick 79
Rogers 79
Tat@@ 79
Villa 79
Waterloo 79
Weather 79
abandoned 79
absorbed 79
abuse 79
asking 79
balance 79
bars 79
beer 79
cemetery 79
ect 79
eh@@ 79
eliminated 79
ells 79
emperors 79
employees 79
expedition 79
extensive 79
farthest 79
iana 79
inae 79
industries 79
interests 79
ires 79
labels 79
laboratory 79
landscape 79
lar@@ 79
lessons 79
manner 79
none 79
oes 79
og 79
playwright 79
ratio 79
scheduled 79
sixteen 79
spaces 79
themes 79
ths 79
tu@@ 79
vary 79
viola 79
width 79
wore 79
worker 79
| 79
06 78
10,@@ 78
10.@@ 78
170 78
1821 78
189@@ 78
350 78
6,000 78
AN@@ 78
All-@@ 78
Bill@@ 78
Brandon 78
Constantinople 78
Da@@ 78
Helsinki 78
Hughes 78
Jazz 78
Julia 78
Karachi 78
Kids 78
Leader 78
Morocco 78
Nashville 78
Newcastle 78
PÃ 78
Stallone 78
Track 78
Trust 78
V. 78
Vil@@ 78
abad 78
advertising 78
ancy 78
ania 78
arrive 78
bach 78
belonging 78
biologist 78
boxer 78
char@@ 78
chord 78
concentrated 78
constellation 78
effort 78
explained 78
extinction 78
guitars 78
harbor 78
hunt 78
imp@@ 78
ish-@@ 78
landed 78
long@@ 78
lying 78
nor@@ 78
noticed 78
oll@@ 78
pen 78
platinum 78
radi@@ 78
reward 78
run@@ 78
shooting 78
signing 78
sitcom 78
sk 78
stretched 78
sulfate 78
surrender 78
teachings 78
thirty 78
tiny 78
ture 78
umb@@ 78
yp@@ 78
yr@@ 78
1820 77
1833 77
188@@ 77
7.@@ 77
Antilles 77
Baden-W 77
Bern 77
Bond 77
BrÃ 77
Contest 77
Copenhagen 77
Cow@@ 77
Delhi 77
Denver 77
Encyclopedia 77
Eng@@ 77
Jennifer 77
Lib@@ 77
Lines 77
Lulu 77
MA 77
Maxwell 77
Metroid 77
Micro@@ 77
Non-@@ 77
Officer 77
Pizza 77
Pole 77
Pulitzer 77
Rice 77
SE@@ 77
Sanskrit 77
Secret 77
Seoul 77
Slipknot 77
Slovak 77
Things 77
Wa@@ 77
Wall@@ 77
Water@@ 77
Ze@@ 77
ander 77
aur@@ 77
bit@@ 77
bombs 77
cam@@ 77
dinosaur 77
duties 77
efficient 77
enburg 77
enjoyed 77
exception 77
facing 77
flights 77
half-@@ 77
handle 77
indie 77
jo@@ 77
leagues 77
mag@@ 77
maintained 77
mans 77
mu@@ 77
naturally 77
neutral 77
onia 77
pal@@ 77
pastor 77
photographs 77
quit 77
shallow 77
sticks 77
studios 77
suitable 77
theatre 77
tram 77
triangle 77
wald 77
Ê 77
× 77
AS 76
Acts 76
Allies 76
Bra@@ 76
Cel@@ 76
Chi@@ 76
Cincinnati 76
Colin 76
Cromwell 76
Grant 76
Ho@@ 76
Ky@@ 76
Lan@@ 76
Lincolnshire 76
Log@@ 76
MP@@ 76
Martha 76
Metro 76
Mikhail 76
Mozilla 76
N. 76
Nebraska 76
Over@@ 76
RA@@ 76
Rey 76
Sem@@ 76
Server 76
Students 76
Thai 76
Theory 76
Tiberius 76
Without 76
acquired 76
aim 76
assembly 76
attracted 76
beaches 76
beans 76
bees 76
but@@ 76
ciphers 76
cocoa 76
competing 76
decline 76
deer 76
ete 76
falling 76
favor 76
institution 76
ition 76
lim@@ 76
manufacturer 76
naming 76
navy 76
neighborhood 76
nia 76
offensive 76
oi 76
pot@@ 76
recognition 76
revolt 76
riding 76
rises 76
rol@@ 76
shorts 76
sovereign 76
stat@@ 76
stroke 76
subsequent 76
travels 76
visiting 76
watches 76
zz@@ 76
ä 76
1809 75
187@@ 75
39@@ 75
Algeria 75
Beverly 75
Comp@@ 75
Control 75
Cornwall 75
Czechoslovakia 75
Derbyshire 75
Deutsche 75
Durham 75
Ec@@ 75
Edmonton 75
Fi@@ 75
Fischer 75
Grosso 75
Guinness 75
Hall@@ 75
Hawaiian 75
Herzegovina 75
Indianapolis 75
Lab@@ 75
Lem@@ 75
Liège 75
Marine 75
Masters 75
Mato 75
Mobile 75
Motors 75
Pete 75
Phil@@ 75
Picture 75
Pur@@ 75
Reagan 75
Rhodes 75
Rules 75
She@@ 75
Stitch 75
Syn@@ 75
Tuesday 75
Uses 75
Vesta 75
Warwickshire 75
Wyoming 75
_ 75
adventures 75
agu@@ 75
altitude 75
anda 75
aph@@ 75
attacking 75
ban@@ 75
bay 75
bel@@ 75
champions 75
concerned 75
conduct 75
dominant 75
eth 75
explain 75
flour 75
hear 75
ig 75
ingredients 75
latitude 75
lava 75
layout 75
molecule 75
odi@@ 75
oku 75
ols 75
percussion 75
primitive 75
publicly 75
qualified 75
ram@@ 75
receiving 75
rh@@ 75
row@@ 75
shapes 75
siege 75
sponsored 75
spr@@ 75
star@@ 75
structural 75
surgery 75
synthesis 75
temperate 75
tone 75
toy 75
ude 75
wire 75
â@@ 75
(/O1995/O) 74
07 74
11,@@ 74
15-@@ 74
Albany 74
Baba 74
CPU 74
Characters 74
Dol@@ 74
Dresden 74
Esc@@ 74
It@@ 74
Jackie 74
Jam@@ 74
Jean-@@ 74
Jer@@ 74
Jessica 74
Kil@@ 74
Kingston 74
Kon@@ 74
L'@@ 74
Musical 74
Never 74
Performance 74
Productions 74
Slovenia 74
South@@ 74
Thus 74
Tiger 74
Tsar 74
Turner 74
Valais 74
Valencia 74
Vista 74
Walker 74
Within 74
Wor@@ 74
WÃ 74
abilities 74
absolute 74
administered 74
akes 74
attend 74
aves 74
ba@@ 74
beef 74
chicken 74
comp@@ 74
courses 74
distinguish 74
drove 74
ences 74
esses 74
fee 74
fifty 74
fled 74
genes 74
grunge 74
gs 74
guards 74
hat 74
ido 74
ight 74
lap 74
maintain 74
mill@@ 74
och 74
ological 74
origins 74
passage 74
presidency 74
printing 74
providing 74
raced 74
rap@@ 74
rie 74
rub@@ 74
scoring 74
seemed 74
shells 74
sit 74
stopping 74
tribal 74
ule 74
valleys 74
vel@@ 74
whereas 74
wick 74
zh@@ 74
're 73
2000s 73
Alt@@ 73
Arsenal 73
Att@@ 73
Baltic 73
Blackpool 73
Burgundy 73
Campaign 73
Clar@@ 73
Continental 73
Data 73
Deputy 73
Eu@@ 73
FA 73
Flash 73
Fourth 73
Future 73
Global 73
Gul@@ 73
Hannibal 73
Henri 73
Hero 73
Hex 73
Lang@@ 73
Len@@ 73
Lloyd 73
Mang@@ 73
Marilyn 73
Meanwhile 73
Mega 73
Mess@@ 73
NCAA 73
Nash 73
Owen 73
Pic@@ 73
Pos@@ 73
Scale 73
Short 73
Ti@@ 73
Train 73
Trojan 73
Uncle 73
Waters 73
Watson 73
achieve 73
admitted 73
arrangement 73
atic 73
automatically 73
ban 73
ben@@ 73
birthplace 73
bo 73
bonds 73
bull 73
claws 73
communications 73
consisted 73
constitutional 73
copyright 73
doubles 73
dying 73
embedded 73
employed 73
eo 73
ep 73
equ@@ 73
ero 73
etti 73
fortress 73
incident 73
ited 73
juice 73
lers 73
limits 73
lion 73
lung 73
motorway 73
mÃ 73
not@@ 73
oshi 73
play@@ 73
ris 73
sample 73
settlements 73
shop 73
snakes 73
sperm 73
tests 73
thr@@ 73
velocity 73
vs. 73
zo 73
.5 72
0,000 72
1845 72
Agreement 72
Brett 72
Brit@@ 72
Bud@@ 72
But@@ 72
CC@@ 72
Cambrian 72
Command 72
Estonia 72
Evans 72
Flor@@ 72
Harbour 72
Hundred 72
Kenya 72
Lesser 72
Linda 72
Mam@@ 72
Marc@@ 72
Metal 72
Mich@@ 72
Midland 72
Mitchell 72
Monaco 72
Oc@@ 72
Olga 72
Plat@@ 72
Pon@@ 72
Presidential 72
Rel@@ 72
Shane 72
Staff 72
Stanford 72
Tech 72
Ther@@ 72
Tree 72
Tw@@ 72
anism 72
ank@@ 72
anna 72
asa 72
attract 72
aver@@ 72
broadcasts 72
buses 72
cargo 72
cer@@ 72
cit@@ 72
ck 72
collect 72
communist 72
customers 72
det@@ 72
ection 72
ener 72
experiences 72
go@@ 72
hel@@ 72
historically 72
honors 72
immune 72
insect 72
is-@@ 72
knows 72
magazines 72
manufacturing 72
march 72
mer@@ 72
mod@@ 72
nt 72
ony 72
patron 72
plains 72
practices 72
pregnant 72
ras 72
receives 72
remember 72
remote 72
scar@@ 72
second-@@ 72
sy 72
tal@@ 72
tend 72
throat 72
treat 72
urs 72
viewers 72
waiting 72
zi 72
,6@@ 71
102 71
1789 71
1792 71
1829 71
Alfonso 71
Animal 71
Arg@@ 71
Articles 71
Avon 71
Bird 71
Burma 71
Cave 71
Chamber 71
Cruz 71
Exchange 71
Glen 71
Gol@@ 71
Hand@@ 71
Hell 71
Historical 71
Memphis 71
Midwest 71
Olympiad 71
Phillip 71
Plains 71
Plant 71
Production 71
Rod@@ 71
Saf@@ 71
Sak@@ 71
Springfield 71
Sus@@ 71
Tra@@ 71
Trains 71
Troy 71
Wednesday 71
Yam@@ 71
acc@@ 71
alternate 71
approximate 71
arrival 71
at-@@ 71
aÃ 71
characterized 71
defended 71
diplomat 71
discussion 71
earthquakes 71
eldest 71
eration 71
eter 71
expert 71
feud 71
hitting 71
ial@@ 71
ien 71
ika 71
illy 71
ime 71
invaded 71
ising 71
larvae 71
mascot 71
meal 71
metre 71
monument 71
mouse 71
newer 71
oni 71
orchestral 71
ort@@ 71
ox 71
predicted 71
processors 71
railroad 71
recommended 71
rian 71
silk 71
south-east 71
taxes 71
thanks 71
ties 71
tive 71
tomb 71
trio 71
valuable 71
03 70
0s 70
1.2 70
1835 70
24,@@ 70
2:@@ 70
97@@ 70
Below 70
Berg@@ 70
Beyoncé 70
C-@@ 70
CEO 70
Cairo 70
Co. 70
Colonel 70
Commander 70
Dennis 70
Dob@@ 70
Empress 70
Generation 70
Hab@@ 70
Heat 70
Holocaust 70
Hunt 70
Hunter 70
Indo-European 70
Industrial 70
Judaism 70
Katie 70
Lakes 70
Mark@@ 70
Mik@@ 70
Mit@@ 70
Montgomery 70
Nu@@ 70
Piano 70
Politics 70
Pres@@ 70
Sag@@ 70
Sheppard 70
Spencer 70
Statistical 70
Volkswagen 70
Yankees 70
Zelda 70
administrator 70
aks 70
angular 70
anywhere 70
braille 70
cones 70
crosses 70
custom 70
debuted 70
depth 70
descendants 70
dialects 70
doctrine 70
dor@@ 70
dy 70
eland 70
encryption 70
essay 70
iles 70
jumping 70
justice 70
keeps 70
kernel 70
lev@@ 70
lover 70
matters 70
measuring 70
mus@@ 70
opinion 70
ord@@ 70
papers 70
parody 70
patent 70
pe 70
poker 70
post@@ 70
principles 70
recipes 70
repeated 70
retail 70
ris@@ 70
singular 70
sters 70
strange 70
struggle 70
switch 70
tic 70
topics 70
transmission 70
trilogy 70
tro@@ 70
ust 70
vacuum 70
vol@@ 70
Õ 70
1770 69
1776 69
1806 69
30,000 69
AM 69
Actor 69
Amy 69
Baja 69
Baroque 69
Brisbane 69
Bun@@ 69
Caucasus 69
Chemistry 69
Cole 69
Economy 69
Ecuador 69
Eurovision 69
Hir@@ 69
IT@@ 69
Jamie 69
Komodo 69
Lind@@ 69
Magic 69
Phillips 69
Plan 69
Plymouth 69
Punk 69
Rachel 69
Rhode 69
Roy 69
Scot@@ 69
Study 69
Well 69
Wesley 69
X-@@ 69
acoustic 69
aging 69
alls 69
busiest 69
canon 69
cellist 69
chapters 69
convention 69
decisions 69
economist 69
endorf 69
environments 69
eus 69
explains 69
faces 69
facto 69
feld 69
fin@@ 69
fundamental 69
fur@@ 69
genres 69
hearing 69
hence 69
homeless 69
ied 69
ink@@ 69
izing 69
loc@@ 69
marketing 69
merger 69
minus 69
non-profit 69
oro 69
oxidation 69
percentage 69
platforms 69
rell 69
restricted 69
shock 69
shooter 69
shoulder 69
shrine 69
skating 69
speaks 69
spiral 69
toured 69
tune 69
ulate 69
uniforms 69
ured 69
ust@@ 69
viewed 69
vo@@ 69
watched 69
,5@@ 68
8.@@ 68
Acc@@ 68
Adelaide 68
Advanced 68
Andreas 68
Azerbaijan 68
Bern@@ 68
Bir@@ 68
Blair 68
Broadcasting 68
CA@@ 68
Can 68
Churches 68
Cloud 68
Competition 68
Div@@ 68
Era 68
Fritz 68
Gettysburg 68
Harvey 68
Hinduism 68
Liberty 68
Link 68
Lords 68
Malay 68
Marc 68
Morning 68
Nathan 68
Nebula 68
O'@@ 68
Pascal 68
Rat@@ 68
Right 68
Shortly 68
Slam 68
Sm@@ 68
Southampton 68
Sweet 68
absence 68
administratively 68
alla 68
aps 68
archive 68
aug@@ 68
ault 68
aus 68
believes 68
bid 68
bs 68
campaigns 68
ceremonies 68
cha 68
coin 68
concerns 68
connecting 68
cy 68
cylinder 68
democratic 68
divides 68
dol@@ 68
doors 68
eats 68
ede 68
eruption 68
extent 68
familiar 68
fewer 68
floors 68
functional 68
golf 68
hausen 68
ibn 68
ichi 68
ination 68
interior 68
ladder 68
log 68
lord 68
mounted 68
nit@@ 68
occ@@ 68
ock@@ 68
ocks 68
pale 68
participated 68
relief 68
ry@@ 68
screenwriter 68
situations 68
specialized 68
speeds 68
theologian 68
(/O1996/O) 67
,4@@ 67
.S. 67
1600 67
Ashley 67
BA 67
Bedford 67
Blan@@ 67
CBE 67
Cav@@ 67
Clara 67
Cricket 67
Cross@@ 67
Cyrus 67
Danube 67
Dragon 67
Drive 67
Dundee 67
Figaro 67
Fil@@ 67
Franco 67
Greenland 67
Hyde 67
IA@@ 67
IC@@ 67
Ipswich 67
Jar@@ 67
Joey 67
Knut 67
NHC 67
Pall@@ 67
Piccadilly 67
Prussian 67
Rep@@ 67
Romance 67
SC@@ 67
Segunda 67
Shaw 67
Side 67
Thunder 67
Title 67
Torres 67
Vermont 67
Voldemort 67
Workers 67
Yu@@ 67
achi 67
add@@ 67
ager 67
app@@ 67
brass 67
centres 67
ched 67
coastline 67
connections 67
denominations 67
ders 67
dome 67
dominated 67
dorf 67
elder 67
elephant 67
eless 67
eling 67
elsewhere 67
enko 67
farmers 67
fear 67
finger 67
girlfriend 67
graphic 67
habitats 67
iel 67
insurance 67
isolated 67
itz@@ 67
ly-@@ 67
mention 67
millennium 67
momentum 67
monster 67
nest 67
nomination 67
oceanic 67
pit 67
prayers 67
quantity 67
ranking 67
rough 67
sacred 67
sending 67
servant 67
sheet 67
skyscraper 67
son@@ 67
soup 67
subway 67
tel@@ 67
tra@@ 67
tunnel 67
variations 67
varieties 67
volumes 67
wealth 67
wedding 67
zer@@ 67
23,@@ 66
37@@ 66
Admiral 66
Airways 66
Anaheim 66
BMW 66
Balochistan 66
Benedict 66
Boris 66
Buc@@ 66
Climate 66
Cont@@ 66
Dav@@ 66
Dover 66
GPL 66
Giuseppe 66
Guatemala 66
Hawks 66
Idol 66
Ing@@ 66
Intel 66
Kyneton 66
Mach@@ 66
Names 66
Negro 66
Nero 66
Niger 66
Opposition 66
Osaka 66
Pablo 66
Places 66
Presidents 66
Ridge 66
Scala 66
Schools 66
Set 66
Shirley 66
Siberia 66
Starting 66
Stephenie 66
TA 66
Teen 66
Transit 66
Viking 66
Woods 66
Yokohama 66
Zürich 66
aimed 66
annually 66
basin 66
beetles 66
butterflies 66
check 66
chest 66
climbing 66
complicated 66
component 66
consist 66
convicts 66
de-@@ 66
eng 66
ert@@ 66
explosion 66
express 66
extends 66
farms 66
fold 66
fortified 66
frac 66
ger@@ 66
heritage 66
hur@@ 66
inn@@ 66
itt@@ 66
iÄ 66
jersey 66
naked 66
north-west 66
noun 66
oot@@ 66
otes 66
ove 66
peaked 66
progress 66
revolutionary 66
sel 66
self 66
shipping 66
specimens 66
stomach 66
subsequently 66
subsidiary 66
tin@@ 66
transition 66
triple 66
uch@@ 66
ugg@@ 66
uta 66
victories 66
yards 66
É@@ 66
ér@@ 66
(/O1998/O) 65
-en-@@ 65
115 65
190@@ 65
Bachelor 65
Bar 65
Bloc 65
Bohemia 65
CDU 65
Cham@@ 65
Cher@@ 65
Chili 65
Christ@@ 65
Cit@@ 65
Clay 65
Cultural 65
Dawn 65
Dr 65
EU 65
Electronic 65
Fine 65
Flora 65
Jos@@ 65
Know 65
Mahler 65
Mes@@ 65
Miguel 65
Montenegro 65
Ner@@ 65
Norwich 65
Orson 65
PE@@ 65
Philosophy 65
Pichilemu 65
Portsmouth 65
Qing 65
Romantic 65
Rowling 65
Salisbury 65
Salvador 65
Serenity 65
Susanna 65
XVI 65
abbey 65
amongst 65
ann 65
aqu@@ 65
bottle 65
characteristic 65
clearly 65
collision 65
declares 65
default 65
deposits 65
destination 65
dot 65
dots 65
drawings 65
eau 65
elevation 65
ency 65
explored 65
flooded 65
ged 65
generated 65
grain 65
hosting 65
hub 65
lights 65
lizards 65
men@@ 65
mit@@ 65
muscles 65
ner@@ 65
nineteenth 65
olive 65
oul@@ 65
outs 65
ows 65
parliamentary 65
please 65
pm 65
promised 65
reform 65
relativity 65
representatives 65
sey 65
shoes 65
sight 65
sle@@ 65
sponsor 65
suddenly 65
sulfur 65
tales 65
terrorist 65
thread 65
tier 65
ton@@ 65
tre@@ 65
ult@@ 65
umm@@ 65
vapor 65
wal@@ 65
ward 65
winger 65
yo 65
.D. 64
09 64
1787 64
1803 64
1839 64
1:@@ 64
29@@ 64
3.5 64
AL@@ 64
Adult 64
Amherst 64
Andes 64
Antioch 64
Bismarck 64
Britten 64
Bruno 64
Canucks 64
Car 64
Caroline 64
Cast 64
Chin@@ 64
Collection 64
Complete 64
Democrat 64
Drake 64
Eight 64
Emily 64
Faculty 64
Gerald 64
Giants 64
Gimnasia 64
Grammar 64
HEADING 64
Head@@ 64
IS 64
Jesse 64
Juliet 64
Kenneth 64
Manila 64
Matilda 64
McLaren 64
Miranda 64
NATO 64
Obama 64
Ori@@ 64
Peoples 64
RO@@ 64
Reformation 64
Richter 64
Ruth 64
Savoy 64
Sher@@ 64
Sinn 64
Stor@@ 64
Tanzania 64
Territories 64
Tour@@ 64
Tul@@ 64
Vitamin 64
XP 64
Yosh@@ 64
accompanied 64
alists 64
archaeological 64
atory 64
auer 64
bal 64
bats 64
book@@ 64
brands 64
button 64
cel@@ 64
columns 64
combat 64
commanded 64
coup 64
dealing 64
du-@@ 64
enders 64
eâ 64
filling 64
founders 64
fried 64
gh@@ 64
iba 64
impossible 64
imprisoned 64
independently 64
ion-@@ 64
item 64
l'@@ 64
lasting 64
leather 64
lo 64
mail 64
mar 64
mask 64
min 64
moderate 64
monuments 64
mud 64
ned 64
occasions 64
owing 64
phenomenon 64
photos 64
pot 64
preferred 64
prices 64
ranks 64
referee 64
segments 64
separately 64
sings 64
slopes 64
south-west 64
spin 64
suspended 64
syndrome 64
tables 64
tar@@ 64
trials 64
ues 64
uma 64
usa 64
versus 64
wealthy 64
work@@ 64
wounded 64
zer 64
(/O1994/O) 63
(/O2009/O) 63
02 63
05 63
1.6 63
128 63
1788 63
1790 63
1813 63
1819 63
1834 63
Armenians 63
Artists 63
Attack 63
Beginning 63
Bis@@ 63
Bombay 63
Braille 63
Burnham 63
Chapter 63
Finance 63
Fish 63
Fisher 63
Fitzgerald 63
Grove 63
Harbor 63
Honda 63
IM@@ 63
Indies 63
Knights 63
Koror 63
Lancaster 63
Mickey 63
Ming 63
Mission 63
Mom@@ 63
Mrs 63
Oriental 63
Plan@@ 63
Prison 63
Rica 63
Run 63
Son@@ 63
Species 63
Stage 63
Stevens 63
Theater 63
Tottenham 63
Vatican 63
Wehrmacht 63
Werkelijke 63
Wikimedia 63
aching 63
agencies 63
aire 63
aise 63
astronomical 63
beaten 63
boiling 63
boxes 63
by@@ 63
communicate 63
consecutive 63
dense 63
dh@@ 63
dimensional 63
eagle 63
electromagnetic 63
elles 63
emp@@ 63
endangered 63
engaged 63
ente 63
error 63
experimental 63
fal@@ 63
forty 63
fÃ 63
geography 63
geological 63
healthy 63
indigenous 63
ining 63
interesting 63
kin@@ 63
lee 63
lift 63
mot@@ 63
nitrogen 63
ost 63
pets 63
pipes 63
portrait 63
punishment 63
rad@@ 63
reliable 63
representation 63
sculptor 63
segment 63
shelter 63
sim@@ 63
squ@@ 63
ster@@ 63
strategy 63
subfamily 63
sulfide 63
survival 63
tran@@ 63
tubes 63
v. 63
vegetation 63
viruses 63
.org 62
15,000 62
1795 62
1797 62
1805 62
68@@ 62
Andrews 62
Artemis 62
Bahrain 62
Bak@@ 62
Bavarian 62
Bonn 62
Bour@@ 62
Brittany 62
Buddha 62
Catarina 62
Description 62
Din@@ 62
Duncan 62
Einstein 62
Faith 62
Greenwich 62
Ground 62
Guru 62
How@@ 62
Istanbul 62
J.@@ 62
Leg@@ 62
Lob@@ 62
MTR 62
Madagascar 62
Market 62
Meowth 62
Miles 62
Milton 62
Model 62
Narnia 62
Nicol@@ 62
Nitro 62
PDF 62
Pad@@ 62
Philippe 62
Plata 62
Pocket 62
Reading 62
Rush 62
SA@@ 62
Sang@@ 62
Scots 62
Shim@@ 62
Te 62
Throughout 62
Timothy 62
Tristan 62
Tulsa 62
Voice 62
Volume 62
Yas@@ 62
abbreviation 62
ably 62
abroad 62
agents 62
airplane 62
allies 62
arena 62
ases 62
ater 62
autobiography 62
band@@ 62
berries 62
bing 62
borne 62
civilian 62
conversion 62
costs 62
crater 62
crisis 62
empty 62
erectus 62
essential 62
excellent 62
feeling 62
finals 62
grammar 62
grant 62
hanging 62
identify 62
indicates 62
isa 62
kingdoms 62
legally 62
lightning 62
load 62
makers 62
mes@@ 62
modern-day 62
offspring 62
pan 62
poets 62
protest 62
provincial 62
psychological 62
pupils 62
puppet 62
reforms 62
researchers 62
rest@@ 62
rev@@ 62
riv@@ 62
separates 62
smoking 62
snow@@ 62
spiders 62
stems 62
tasks 62
truth 62
ved 62
vertebrates 62
wiki 62
ère 62
ú@@ 62
(/O1997/O) 61
1827 61
22,@@ 61
220 61
3000 61
Ah@@ 61
Alpha 61
Attorney 61
Auburn 61
Azad 61
Bambi 61
Bog@@ 61
C.@@ 61
Chester 61
Clown 61
Cork 61
Crazy 61
DE@@ 61
Democrats 61
Economics 61
Erich 61
File 61
Fire@@ 61
Full 61
Galileo 61
Go-@@ 61
Helena 61
Hil@@ 61
Hiroshima 61
Hum@@ 61
I/O. 61
Jack@@ 61
Jud@@ 61
Ki@@ 61
LA@@ 61
Lad@@ 61
Lanarkshire 61
Libya 61
Mail 61
Meg@@ 61
Michel 61
Moses 61
Ou@@ 61
Ped@@ 61
Peppers 61
Powers 61
Religious 61
Riv@@ 61
Sahara 61
Sky@@ 61
Solomon 61
Stan@@ 61
Technical 61
Transportation 61
Truman 61
Verde 61
Why 61
XII 61
acks 61
ading 61
alt@@ 61
apparent 61
archipelago 61
assassination 61
athletics 61
aul@@ 61
autumn 61
bee 61
bending 61
brings 61
chancellor 61
chassis 61
chin 61
climb 61
counts 61
cryptographic 61
dig@@ 61
dishes 61
dressed 61
eck 61
ema 61
ential 61
ept@@ 61
esh 61
fel@@ 61
fever 61
fle@@ 61
fluoride 61
gam@@ 61
gift 61
governing 61
hind 61
ian-@@ 61
ic-@@ 61
igh@@ 61
ili@@ 61
induction 61
ingly 61
intense 61
ios 61
lady 61
ment@@ 61
migration 61
moral 61
neighbouring 61
nos 61
ographic 61
operator 61
orchestras 61
ori@@ 61
ories 61
oth 61
oto 61
packages 61
parameters 61
photographer 61
pil@@ 61
plat@@ 61
pleasure 61
pump 61
rear 61
reef 61
releasing 61
responsibility 61
rocket 61
roe 61
roller 61
ruins 61
sad 61
sch 61
se-@@ 61
separation 61
sequences 61
ses 61
shopping 61
spices 61
stolen 61
stra@@ 61
theoretical 61
ticket 61
twenty-@@ 61
ud 61
udes 61
unified 61
wheels 61
yg@@ 61
zy 61
Ö 61
ée 61
Ach@@ 60
Aub@@ 60
Balukas 60
Banks 60
Belinda 60
CO@@ 60
Cameroon 60
Card@@ 60
Cayce 60
Clarke 60
Cyprus 60
Dev@@ 60
Duck 60
Environment 60
Est@@ 60
Finals 60
Flames 60
Frost 60
Glacier 60
Glarus 60
HMS 60
Hortons 60
IBM 60
Int@@ 60
Ish@@ 60
Jericho 60
Jet 60
Josh 60
Jul@@ 60
KG 60
Kel@@ 60
Kom@@ 60
Lahore 60
Leicester 60
Leon@@ 60
Ma 60
Marvel 60
Naval 60
Ot@@ 60
Pat 60
Plain 60
Platinum 60
Powell 60
Rain@@ 60
Rupert 60
Satan 60
Shin@@ 60
Shire 60
Sid@@ 60
Speedway 60
Tales 60
Type 60
Wik@@ 60
Winnipeg 60
Yale 60
appropriate 60
ball@@ 60
boarding 60
bow 60
centered 60
chen 60
cleaning 60
colours 60
concluded 60
continuous 60
cuisine 60
cutting 60
defensive 60
deputy 60
developers 60
discoveries 60
distinctive 60
divorce 60
ecting 60
electronics 60
eleventh 60
enne 60
eon 60
fare 60
heaven 60
hist@@ 60
ho@@ 60
hotels 60
hr@@ 60
ication 60
ider 60
ieu 60
infected 60
je 60
lighting 60
loan 60
manufactured 60
medi@@ 60
membership 60
mes 60
ministers 60
na@@ 60
ng 60
oli 60
olo 60
planes 60
proxy 60
ratings 60
reigning 60
rush 60
saffron 60
samples 60
scattered 60
sensitive 60
sexually 60
shirt 60
sing@@ 60
six-@@ 60
spines 60
terrestrial 60
tobacco 60
traits 60
twentieth 60
u-@@ 60
verb 60
wat@@ 60
wind@@ 60
.C. 59
08@@ 59
1800s 59
1810 59
1811 59
1825 59
1838 59
Abel 59
Actress 59
Ana 59
Armstrong 59
Basil 59
Bass 59
Bates 59
Boy@@ 59
Bundestag 59
Cell 59
Clarence 59
Classification 59
Commissioner 59
Cosworth 59
Crawford 59
Dist@@ 59
E-@@ 59
Eisenstein 59
FO@@ 59
Films 59
Flair 59
Fra 59
Fun@@ 59
Galaxy 59
GameCube 59
Gene 59
Gotha 59
IOC 59
Jab@@ 59
Kuwait 59
Kyoto 59
Leon 59
Li 59
Liszt 59
Locarno 59
Maj@@ 59
Manager 59
Mare 59
Marina 59
Michelangelo 59
Papua 59
Program 59
Rab@@ 59
Roll 59
Scientific 59
Serv@@ 59
Sprint 59
Strong 59
Tem@@ 59
Toro 59
Tun@@ 59
TÃ 59
Ut@@ 59
Viv@@ 59
Vo@@ 59
anger 59
athlete 59
beg@@ 59
bred 59
bri@@ 59
cameras 59
cast@@ 59
collapsed 59
concerto 59
corn 59
corners 59
diary 59
differential 59
displays 59
duke 59
eg 59
elephants 59
emen 59
equations 59
everyday 59
feast 59
festivals 59
fill 59
flux 59
gar@@ 59
gran@@ 59
hydro@@ 59
iTunes 59
ideal 59
iki 59
inal 59
index 59
len 59
losses 59
mechanism 59
offering 59
ovich 59
parallelism 59
partners 59
pent@@ 59
plateau 59
pocket 59
poles 59
politicians 59
pret@@ 59
prints 59
prot@@ 59
quarks 59
referring 59
scores 59
shoot 59
sit@@ 59
spice 59
springs 59
steep 59
sville 59
throw 59
tz@@ 59
uki 59
ume 59
utt@@ 59
wool 59
és 59
-to-@@ 58
1.1 58
1.8 58
1/@@ 58
1814 58
1818 58
30-@@ 58
32@@ 58
48@@ 58
Adobe 58
Albania 58
Alexandre 58
Anton@@ 58
Barnes 58
Based 58
Belfast 58
Cul@@ 58
Dee 58
Diamond 58
FOX 58
Fair 58
Fal@@ 58
Farm 58
Fleet 58
Golf 58
Haven 58
Haz@@ 58
Hed@@ 58
Historic 58
IAUC 58
IPCC 58
Inn 58
Justin 58
Lilo 58
Liv@@ 58
Lorraine 58
MS@@ 58
Mitch 58
O'Connor 58
Off 58
Outside 58
Pit@@ 58
Popular 58
Rain 58
Ran@@ 58
Rebellion 58
Riding 58
Sophia 58
Titus 58
Towns 58
Trail 58
Unit 58
Van@@ 58
Winston 58
Writers 58
ZÃ 58
abortion 58
anth@@ 58
approval 58
arch 58
aspects 58
ature 58
blade 58
bush 58
cash 58
chromosome 58
collecting 58
compact 58
compilation 58
controller 58
cord 58
criticism 58
define 58
dev@@ 58
digits 58
dimensions 58
din 58
directions 58
disputed 58
eck@@ 58
eclipse 58
elled 58
encouraged 58
enjoy 58
estimate 58
etto 58
fiber 58
filming 58
fitted 58
flash 58
freshwater 58
grams 58
hoped 58
inj@@ 58
intercourse 58
inv@@ 58
lio 58
loves 58
low-@@ 58
med@@ 58
mills 58
ming 58
ministry 58
mud@@ 58
ners 58
new@@ 58
notice 58
openly 58
organisation 58
partially 58
performers 58
pie 58
pipe 58
pregnancy 58
proclaimed 58
promise 58
pronunciation 58
prophet 58
provisional 58
rifle 58
saving 58
scholarship 58
so@@ 58
solve 58
specially 58
squares 58
stadt 58
syn@@ 58
teaches 58
temples 58
tested 58
throwing 58
tit@@ 58
tos 58
touring 58
tours 58
tract 58
translates 58
translations 58
twins 58
underwear 58
ush 58
vice 58
warnings 58
wer@@ 58
yt@@ 58
18-@@ 57
450 57
57@@ 57
A3@@ 57
AD@@ 57
Adventure 57
Anti-@@ 57
Aqu@@ 57
Beautiful 57
Belarus 57
Bet@@ 57
Budapest 57
CH@@ 57
Cop@@ 57
Das 57
Davies 57
Echidna 57
Eleanor 57
FM 57
G-@@ 57
Gam@@ 57
Gang 57
Hera 57
Hindus 57
Institution 57
LP 57
Leslie 57
Lima 57
Livingstone 57
Ltd. 57
Lynn 57
Marsh 57
Mind 57
Monica 57
Neolithic 57
Nicole 57
NÃ 57
O. 57
OM 57
Ox@@ 57
Pac@@ 57
Parma 57
Paul@@ 57
Peak 57
Pil@@ 57
Presidency 57
Room 57
Saddam 57
Shinto 57
Starr 57
Stuttgart 57
Swan 57
Turks 57
Uruguay 57
Vel@@ 57
Wake 57
Wy@@ 57
aan 57
acronym 57
acute 57
affair 57
alia 57
anarchist 57
arc@@ 57
ark 57
assault 57
aut 57
bb@@ 57
beats 57
beneath 57
bes 57
broadcasting 57
ce@@ 57
circles 57
civilians 57
cook 57
defending 57
dictator 57
differently 57
distributions 57
double-@@ 57
een 57
effectively 57
establishment 57
ester 57
fallen 57
fathers 57
floods 57
focuses 57
freed 57
funnel 57
galaxy 57
gang@@ 57
geographic 57
ib 57
ily 57
influences 57
inhabited 57
instrumental 57
interval 57
legislative 57
limestone 57
ll@@ 57
mercury 57
mun@@ 57
my@@ 57
nic@@ 57
numbering 57
odon 57
onne 57
ont 57
peaks 57
penalty 57
pers 57
pine 57
plac@@ 57
plaintext 57
playoff 57
poison 57
protons 57
purchase 57
racial 57
ral 57
rap 57
relation 57
reporter 57
respected 57
rolling 57
sem@@ 57
sin 57
skeleton 57
socialist 57
stri@@ 57
suburbs 57
suite 57
sunlight 57
supporter 57
symphony 57
tale 57
tenor 57
thrash 57
trouble 57
trumpet 57
vessels 57
ès 57
(/O194@@ 56
(/O1992/O) 56
1/O) 56
135 56
1784 56
69@@ 56
AFC 56
Ara@@ 56
Arms 56
Bed@@ 56
Bh@@ 56
Blake 56
Bradshaw 56
Burgess 56
Calendar 56
Carroll 56
Chronicles 56
Coldplay 56
Concert 56
Constable 56
Countries 56
Cuban 56
Dame 56
Dodd 56
Earths 56
Ell@@ 56
Ellen 56
Fa@@ 56
Fran@@ 56
Gur@@ 56
Happy 56
Heights 56
I-@@ 56
Isles 56
Johns 56
Jubilee 56
Jules 56
King@@ 56
Kol@@ 56
Mercedes 56
Myanmar 56
North@@ 56
OBE 56
Oakland 56
Odyssey 56
PPV 56
Prot@@ 56
Pul@@ 56
Pun@@ 56
R.@@ 56
Rein@@ 56
Sacred 56
Sophie 56
Stra@@ 56
Sunni 56
Timor 56
Top@@ 56
Tyne 56
Ultimate 56
Vit@@ 56
Zanzibar 56
ache 56
algorithms 56
apartment 56
apping 56
asc@@ 56
aud@@ 56
berger 56
biography 56
canal 56
charter 56
closing 56
colon@@ 56
compositions 56
cone 56
contestants 56
countryside 56
dAzur 56
disorders 56
earning 56
fairy 56
flew 56
fontsize 56
forcing 56
fr@@ 56
friendship 56
furniture 56
fusion 56
ility 56
infrastructure 56
ingham 56
inherited 56
instant 56
invention 56
junction 56
key@@ 56
knife 56
kÃ 56
licence 56
licensed 56
likes 56
m. 56
marries 56
mothers 56
motto 56
museums 56
naturalist 56
nav@@ 56
nerve 56
ort 56
ough@@ 56
ours 56
patient 56
pos@@ 56
posts 56
poverty 56
presents 56
pri@@ 56
primes 56
protocols 56
re-elected 56
reacts 56
sam@@ 56
sat@@ 56
schedule 56
sends 56
sequels 56
seriously 56
shaft 56
shrubs 56
smoke 56
stamp 56
suburban 56
tank 56
targets 56
territorial 56
threw 56
tin 56
transcription 56
transit 56
tre 56
ty@@ 56
upgraded 56
veteran 56
wer 56
widow 56
yl 56
ôte 56
103 55
1816 55
1822 55
4/O) 55
750 55
9\/@@ 55
Abbott 55
Airbender 55
Anglo-Saxon 55
Aztec 55
Bahamas 55
Basque 55
Bologna 55
Brunswick 55
Calcio 55
Celsius 55
Cle@@ 55
Conservatory 55
Curtis 55
Def@@ 55
Des 55
Discography 55
Emma 55
Everton 55
Eye 55
Garfield 55
Genesis 55
Give 55
Good@@ 55
Halo 55
Hart@@ 55
Haydn 55
Honduras 55
Industry 55
Letters 55
MIT 55
MW 55
Minneapolis 55
Moh@@ 55
Nik@@ 55
Ow@@ 55
Penguin 55
Principal 55
Proms 55
RE@@ 55
Rac@@ 55
Rib@@ 55
Rosa 55
Rou@@ 55
Sagan 55
Sant@@ 55
Som@@ 55
Stalin 55
Sul@@ 55
Tale 55
Treasury 55
U-@@ 55
Valera 55
Walloon 55
Wind@@ 55
Working 55
Zack 55
accidentally 55
advance 55
airs 55
alized 55
amino 55
assistance 55
ately 55
ation@@ 55
bet 55
beta 55
bicycle 55
corporation 55
cos@@ 55
coverage 55
cycles 55
dam@@ 55
debt 55
diabetes 55
dium 55
diverse 55
downtown 55
duc@@ 55
ech 55
eds 55
ems 55
eria 55
expand 55
generate 55
ho 55
ician 55
imaginary 55
increasingly 55
injuries 55
iser 55
itive 55
jail 55
lunar 55
mac@@ 55
masters 55
monks 55
mutual 55
nen 55
non 55
outbreak 55
ownership 55
phot@@ 55
phylum 55
possibility 55
pound 55
presentation 55
prizes 55
programme 55
reproduce 55
reptiles 55
retain 55
sec@@ 55
sells 55
sen@@ 55
servers 55
short@@ 55
slang 55
storyline 55
surname 55
swe@@ 55
synthetic 55
technologies 55
termed 55
theatrical 55
transmitted 55
tunnels 55
twelfth 55
uck@@ 55
uke 55
variable 55
variant 55
ve@@ 55
voyage 55
ws 55
zinc 55
,9@@ 54
-shaped 54
16-@@ 54
1707 54
1826 54
4.5 54
40,000 54
Again 54
Allan 54
Alonso 54
Angela 54
Angelico 54
Arab@@ 54
Augusta 54
Ayers 54
B.C. 54
Bears 54
Belt 54
Berg 54
Body 54
Bradley 54
Bremen 54
Brun@@ 54
Bulgarian 54
Cant@@ 54
Caspian 54
Chang 54
Charter 54
Comet 54
Corn@@ 54
Dro@@ 54
E.@@ 54
Elisabeth 54
F-@@ 54
FRS 54
Ferr@@ 54
Fle@@ 54
Fraser 54
Handel 54
Hat@@ 54
Josef 54
Kazakhstan 54
Kle@@ 54
Large 54
Lenzburg 54
Liberation 54
Lombardy 54
Low 54
ME@@ 54
Mask 54
Nirvana 54
Norris 54
Norton 54
Og@@ 54
Pas@@ 54
Primary 54
Prior 54
Results 54
Rhe@@ 54
S-@@ 54
S\/@@ 54
Samus 54
Secretary-General 54
Socrates 54
Sport@@ 54
Sr. 54
Still 54
Suite 54
Ward 54
Way@@ 54
Wing 54
Wit@@ 54
Wonder 54
XS 54
Yunus 54
abstract 54
affects 54
airing 54
aking 54
aud 54
babies 54
bean 54
bearing 54
beings 54
bombings 54
calcium 54
cardamom 54
challenged 54
childrens 54
citrus 54
comments 54
concern 54
cyclist 54
decorated 54
desire 54
differ 54
dist@@ 54
distinction 54
diversity 54
diving 54
duty 54
earn 54
edible 54
ees 54
emotional 54
exercise 54
explanation 54
feeding 54
fil@@ 54
folklore 54
gun@@ 54
hardcore 54
hood 54
icon 54
immediate 54
install 54
int 54
integrated 54
libraries 54
linear 54
massacre 54
masses 54
merchant 54
mountainous 54
oa 54
ook 54
option 54
ord 54
otic 54
pro 54
protests 54
radar 54
raising 54
realizes 54
servants 54
ship@@ 54
soprano 54
strengthening 54
suffering 54
suit 54
trust 54
ub 54
uch 54
valid 54
variation 54
wal 54
web@@ 54
whale 54
www.@@ 54
ín 54
(/O1993/O) 53
,8@@ 53
-8,5 53
0.5 53
1802 53
185@@ 53
38@@ 53
AI@@ 53
Abdul 53
Alba 53
Anglia 53
Animals 53
Arn@@ 53
Artist 53
Ast@@ 53
Atari 53
Aur@@ 53
Basin 53
Bec@@ 53
Block 53
Bod@@ 53
Branch 53
Bus@@ 53
Chal@@ 53
Change 53
Cohen 53
Cra@@ 53
Curitiba 53
Defence 53
Denis 53
Dolphin 53
Euro@@ 53
Everett 53
Fiat 53
Fly 53
Freak 53
Gellar 53
Gener@@ 53
Genocide 53
Gri@@ 53
H.@@ 53
Haifa 53
Historically 53
Hon@@ 53
Horn 53
Jac@@ 53
Jon@@ 53
Joss 53
Jungle 53
Kellner 53
Krist@@ 53
Lead 53
Leone 53
León 53
Lyon 53
Magn@@ 53
Marge 53
Metallica 53
Milwaukee 53
NE@@ 53
Nacional 53
Naz@@ 53
Notable 53
OpenOffice.org 53
Or 53
Oxfordshire 53
Palau 53
Paradise 53
Rafael 53
Released 53
Rot@@ 53
Squ@@ 53
Steel 53
Stories 53
Sul 53
Threat 53
Ton@@ 53
Turkic 53
Ulong 53
Vari@@ 53
Various 53
Wide 53
Worcestershire 53
and/or 53
arg@@ 53
arithmetic 53
beck 53
bond 53
calculated 53
conc@@ 53
conf@@ 53
container 53
copied 53
counter@@ 53
curse 53
curve 53
cuts 53
dictionary 53
dream 53
drops 53
eller 53
emann 53
eness 53
entity 53
enzyme 53
exc@@ 53
ext@@ 53
funds 53
hanged 53
hometown 53
honey 53
investigation 53
investment 53
involvement 53
ished 53
lavender 53
loans 53
manages 53
marble 53
missionary 53
moths 53
necessarily 53
newest 53
of-@@ 53
oke 53
omy@@ 53
oria 53
oud 53
perennial 53
pig 53
ple 53
practiced 53
premiered 53
publications 53
rez 53
rier 53
sharks 53
short-lived 53
sits 53
sitting 53
soils 53
span 53
spending 53
statements 53
strain 53
uda 53
unitary 53
universal 53
upcoming 53
volunteers 53
worse 53
yth@@ 53
zina 53
· 53
è@@ 53
'll 52
1.4 52
115@@ 52
320 52
Active 52
AndrÃ 52
Archer 52
Archipelago 52
Ash 52
Basic 52
Berry 52
Bourbon 52
Byron 52
Capitol 52
Carnegie 52
Cassini 52
Chamberlain 52
Ci@@ 52
Come 52
Donkey 52
Equ@@ 52
Fat 52
Finally 52
Franc@@ 52
Fund 52
Generally 52
Geoffrey 52
Gy@@ 52
Had@@ 52
Hann@@ 52
Has@@ 52
Heart@@ 52
Holmes 52
Hubble 52
Iv@@ 52
Jets 52
Joel 52
Johnston 52
Killer 52
Kit@@ 52
Lak@@ 52
Lavigne 52
MLB 52
Magnus 52
Max@@ 52
McC@@ 52
Morrison 52
Murphy 52
Nat@@ 52
Net@@ 52
Occupied 52
P.@@ 52
PC@@ 52
Palestine 52
Preston 52
Rav@@ 52
Run@@ 52
Senegal 52
Seth 52
Sichuan 52
Sugar 52
T-@@ 52
Taluka 52
Test 52
Triassic 52
Upon 52
Vale 52
Varley 52
Vie@@ 52
Vietnamese 52
Viva 52
XIII 52
amed 52
anti@@ 52
anz@@ 52
arguments 52
au-@@ 52
billiards 52
borrowed 52
boss 52
cent 52
ceremonial 52
chains 52
chambers 52
clan 52
combining 52
comm@@ 52
complexity 52
crystal 52
curved 52
dances 52
delta 52
disappeared 52
drew 52
empires 52
fabric 52
finale 52
fire@@ 52
five-@@ 52
fix 52
flags 52
forever 52
funding 52
gap 52
humanity 52
ills 52
ine-@@ 52
installation 52
integer 52
intelligent 52
interpretation 52
iter 52
kes 52
kids 52
kil@@ 52
ler@@ 52
log@@ 52
luxury 52
mad@@ 52
opponents 52
osaurs 52
pap@@ 52
pel@@ 52
philosophers 52
philosophical 52
pizza 52
precipitation 52
pull 52
rains 52
reads 52
realized 52
regent 52
rer 52
ress@@ 52
rod 52
runner 52
sail 52
sandy 52
significantly 52
sole 52
solutions 52
sseldorf 52
stamps 52
sudden 52
summary 52
supplied 52
sustained 52
switched 52
tissues 52
trough 52
updated 52
urus 52
vitamin 52
yâ 52
1,500 51
180@@ 51
8/O) 51
A&M 51
AOL 51
Adrian 51
Airbus 51
Ananke 51
Angels 51
Anjou 51
Arc@@ 51
Ax@@ 51
B.@@ 51
Barb@@ 51
Bennett 51
Brahms 51
Churchill 51
Citrus 51
Copper 51
Cru@@ 51
D'@@ 51
D.@@ 51
Dhabi 51
Dorothy 51
Ducks 51
ER 51
Ely 51
Esp@@ 51
Europa 51
Ever@@ 51
Fair@@ 51
Frances 51
Gaius 51
Georg@@ 51
Georgian 51
Gerhard 51
Glenn 51
Goals 51
Grover 51
Hannah 51
Hav@@ 51
Hell@@ 51
Holly 51
Important 51
Italians 51
Lama 51
Mansfield 51
Mathematics 51
Mim@@ 51
Nottingham 51
Off@@ 51
Pisa 51
Protocol 51
Railroad 51
Ret@@ 51
Robson 51
Rosso 51
Rub@@ 51
Scandinavian 51
Scientists 51
Seal 51
Sha@@ 51
Similar 51
Spe@@ 51
Stock@@ 51
Tchaikovsky 51
Til@@ 51
Tir@@ 51
Traditionally 51
Twin 51
Universit@@ 51
Vengeance 51
Warrior 51
Wer@@ 51
Yucatán 51
aar 51
ader 51
agg@@ 51
aku 51
ald 51
amo 51
and-@@ 51
ashes 51
assumed 51
atta 51
batter 51
bold 51
boy@@ 51
butterfly 51
carnivorous 51
challenges 51
chip 51
ciphertext 51
commissioned 51
continuing 51
corresponding 51
counter 51
creature 51
currents 51
defines 51
depend 51
descended 51
detail 51
diagram 51
dian 51
dissipated 51
ere@@ 51
eruptions 51
establishing 51
fitness 51
folded 51
forecasts 51
fran@@ 51
freight 51
geology 51
gifts 51
glacier 51
grouped 51
icism 51
ige 51
ike 51
inia 51
ishes 51
jaw 51
je@@ 51
kangaroo 51
legislation 51
lighter 51
long-term 51
m-@@ 51
methane 51
mig@@ 51
moist 51
monthly 51
nel 51
nuts 51
ook@@ 51
oper@@ 51
oring 51
pawn 51
petroleum 51
pioneer 51
prepare 51
preserve 51
pun@@ 51
rag@@ 51
recovery 51
reducing 51
remnants 51
rist@@ 51
scripts 51
sector 51
significance 51
sin@@ 51
sou@@ 51
specified 51
strengthen 51
suspension 51
teenager 51
tentacles 51
thermodynamics 51
timber 51
topped 51
tra 51
trucks 51
umi 51
underneath 51
ups 51
uss 51
visits 51
wears 51
wik@@ 51
win@@ 51
wolf 51
woods 51
yst@@ 51
ñ@@ 51
109 50
113@@ 50
117@@ 50
AIDS 50
Architecture 50
Bang 50
Bernstein 50
Biblical 50
Blu@@ 50
Booker 50
Box 50
Brussels 50
CE@@ 50
Call 50
Carol 50
Catalan 50
Catholicism 50
Certain 50
Chang@@ 50
Cindy 50
Companion 50
Conservation 50
Coventry 50
Dep@@ 50
Diana 50
Donna 50
Drivers 50
FBI 50
Feature 50
Features 50
Fol@@ 50
Fran 50
Ful@@ 50
Granada 50
Gun@@ 50
Harding 50
Heinz 50
Humans 50
Igor 50
Index 50
Jeremy 50
Jinnah 50
Kas@@ 50
Kid 50
Kosovo 50
Kreis 50
Lisbon 50
Marino 50
Maroon 50
Massacre 50
Namur 50
Nev@@ 50
Nickel 50
Ono 50
Origins 50
Passion 50
Pom@@ 50
Pride 50
RAM 50
Rabbit 50
Raffles 50
Sacramento 50
Scene 50
Senators 50
Singh 50
Sox 50
TC 50
Tav@@ 50
Tennis 50
Tudor 50
User 50
View 50
Virtual 50
Wellington 50
XI 50
Zimbabwe 50
addresses 50
agan 50
ails 50
aker 50
algebra 50
ands 50
arsenic 50
ashed 50
baked 50
brief 50
buttons 50
cacao 50
cavalry 50
circuits 50
clients 50
comet 50
considerable 50
coordinates 50
counting 50
damages 50
dealt 50
decrease 50
dy@@ 50
eur 50
finance 50
fingers 50
finite 50
formats 50
fungi 50
funny 50
greenhouse 50
igan 50
imprisonment 50
iodine 50
ister 50
itas 50
km@@ 50
las 50
los 50
nam@@ 50
nice 50
nitrate 50
nobility 50
numerals 50
nurse 50
off-@@ 50
ogs 50
omin@@ 50
onwards 50
organize 50
owski 50
ped@@ 50
placing 50
pointing 50
pornography 50
promoting 50
protagonist 50
psych@@ 50
ray 50
read@@ 50
referendum 50
revenge 50
reverse 50
somewhere 50
supreme 50
tar 50
teenage 50
towers 50
trapped 50
twist 50
ulation 50
ump 50
yc@@ 50
å@@ 50
.A. 49
1536 49
1763 49
1777 49
1794 49
179@@ 49
1828 49
1890s 49
47@@ 49
7/O) 49
Auto 49
BahÃ 49
Bouches-du-Rhône 49
Bronze 49
Bundes@@ 49
Burns 49
CS@@ 49
Carson 49
Cart@@ 49
Chitral 49
Clare 49
Corsica 49
Danielle 49
Dou@@ 49
Dub@@ 49
Ear@@ 49
Eros 49
Feder@@ 49
Fletcher 49
Fur@@ 49
GP2 49
Gandhi 49
Gard@@ 49
Ghost 49
Hak@@ 49
Hem@@ 49
Hendrix 49
Hilton 49
Icelandic 49
JPG 49
Jake 49
Klaus 49
Kyle 49
Lud@@ 49
McClane 49
Nam@@ 49
Navarre 49
Newport 49
Panic 49
Proc@@ 49
PrÃ 49
Quartet 49
RA 49
RC 49
Reef 49
Reformed 49
Rev@@ 49
S/@@ 49
Sac@@ 49
Saskatchewan 49
Sec@@ 49
Serie 49
Shar@@ 49
Staffordshire 49
Stefan 49
Syrian 49
Table 49
Toledo 49
Tourism 49
Tru@@ 49
Twelve 49
Web@@ 49
Webster 49
Wildlife 49
aches 49
adj@@ 49
agrees 49
airports 49
anymore 49
aquatic 49
ares 49
as-@@ 49
att 49
backs 49
box@@ 49
camp@@ 49
carrier 49
concepts 49
delivery 49
dependent 49
diagnosed 49
discuss 49
e\/@@ 49
ected 49
ensure 49
facts 49
foot@@ 49
fri@@ 49
giants 49
grey 49
har 49
hon@@ 49
ilia 49
infections 49
inho 49
inst@@ 49
intellectual 49
intensive 49
involve 49
ipp@@ 49
iva 49
kas 49
km2 49
landing 49
law@@ 49
libretto 49
loosely 49
lu@@ 49
manganese 49
matrix 49
medium-sized 49
mild 49
nearest 49
northernmost 49
oj@@ 49
oll 49
ope 49
opportunity 49
ounds 49
pack 49
paste 49
peppers 49
phases 49
poll@@ 49
pork 49
postage 49
prisoner 49
publish 49
radical 49
railways 49
register 49
requirements 49
rescued 49
rolled 49
sar 49
sley 49
slope 49
soci@@ 49
spl@@ 49
squid 49
sson 49
the-@@ 49
then-@@ 49
ther 49
threads 49
ton-@@ 49
tor 49
truck 49
uni 49
upset 49
vegetable 49
wards 49
warming 49
weigh 49
worm 49
ø@@ 49
'm 48
.4 48
1.3 48
108 48
1782 48
240 48
43@@ 48
5000 48
67@@ 48
AT 48
Ahmad 48
Alexand@@ 48
Alvin 48
Arist@@ 48
Armed 48
Auguste 48
BSD 48
Bali 48
Bart@@ 48
Batt@@ 48
Boxing 48
Brooks 48
Burg@@ 48
Burkina 48
CM 48
Canyon 48
Cao 48
Cecil 48
Counties 48
Eagles 48
Earthquake 48
East@@ 48
FIDE 48
Faso 48
Female 48
Fey 48
Fields 48
François 48
Furby 48
Giza 48
Gods 48
Heidelberg 48
Herschel 48
Higher 48
Hiro@@ 48
Hur@@ 48
IPA 48
Introduction 48
Kab@@ 48
Lil 48
Lions 48
Lithuanian 48
Lonely 48
Lutheran 48
Merc@@ 48
Mesopotamia 48
Micronesia 48
Mughal 48
NFC 48
NT@@ 48
Nagorno-Karabakh 48
Nice 48
Northampton 48
Od@@ 48
Organisation 48
Orion 48
Penguins 48
Polo 48
RAF 48
Ray@@ 48
Recent 48
Reichstag 48
Richards 48
Sad@@ 48
Senior 48
Shore 48
Sisters 48
Snape 48
Style 48
Titsingh 48
Training 48
Travelcard 48
Trent 48
Unter@@ 48
Ven@@ 48
W.@@ 48
Walk 48
Wang 48
Wimbledon 48
Woody 48
X-Men 48
aca 48
aea 48
ancestry 48
aris 48
aside 48
aspect 48
best-selling 48
ble@@ 48
boot 48
bubbles 48
burg@@ 48
bushranger 48
cathedrals 48
cell@@ 48
ces 48
chy 48
colspan 48
comprises 48
confidence 48
craft 48
cross@@ 48
crustaceans 48
defenceman 48
dropping 48
edges 48
eding 48
elementary 48
enforcement 48
essays 48
eum 48
facility 48
fault 48
fed 48
fertile 48
flute 48
forth 48
full-length 48
gn@@ 48
graph 48
hospitals 48
hyper@@ 48
icons 48
imm@@ 48
ishing 48
iÅ 48
kan@@ 48
kov 48
ku 48
lan 48
lemon 48
let@@ 48
lip@@ 48
ller 48
logical 48
magical 48
malaria 48
manage 48
manuscript 48
mas@@ 48
moth 48
motor@@ 48
myth 48
narrator 48
onian 48
oons 48
ouse 48
partial 48
photography 48
phrases 48
pop@@ 48
posted 48
pounds 48
preparation 48
projection 48
protects 48
puck 48
push 48
qualify 48
real-time 48
resistant 48
rey 48
rol 48
settings 48
sex@@ 48
shadow 48
shots 48
shrimp 48
specimen 48
stand-up 48
streams 48
uh@@ 48
ul-@@ 48
uranium 48
uro 48
uv@@ 48
wan 48
washed 48
yu 48
-de@@ 47
1779 47
190 47
5:@@ 47
6/O) 47
60,000 47
7.5 47
Amritsar 47
Auckland 47
Away 47
Bash 47
Beg@@ 47
Being 47
Bo 47
Bolivia 47
Bow@@ 47
Bush@@ 47
Canary 47
Castro 47
Chan@@ 47
Cherokee 47
Christina 47
Conservatoire 47
Constance 47
Cri@@ 47
Dei 47
Diamonds 47
Dodgers 47
Dumbo 47
EC 47
Edwin 47
Elgar 47
English-speaking 47
Everything 47
Fac@@ 47
Face 47
Fall@@ 47
Fel@@ 47
Fighting 47
Gameplay 47
Gibson 47
Gill@@ 47
Gir@@ 47
Grand@@ 47
Ham 47
Hampton 47
Hayez 47
Hertfordshire 47
Hop@@ 47
Ill@@ 47
Karen 47
Kirk 47
Kun@@ 47
Lag@@ 47
Lambert 47
Lang 47
Led 47
Lemon 47
Lil@@ 47
Lit@@ 47
LiÃ 47
Mardan 47
Meteorological 47
Movies 47
N.@@ 47
Nadu 47
Nas@@ 47
Nights 47
Nikolai 47
Norwood 47
Oasis 47
Phelps 47
Pier@@ 47
Pierce 47
Plateau 47
Poly@@ 47
Punjabi 47
Purple 47
Reich@@ 47
Return 47
Rich@@ 47
Rick@@ 47
SE 47
Sardinia 47
Sassanid 47
Sgt. 47
Shock 47
Suzuki 47
Take 47
Tate 47
Teams 47
Titans 47
Tong 47
Tot@@ 47
Tracy 47
Turk@@ 47
Ultraman 47
Vega 47
Well@@ 47
Whale 47
Winchester 47
Word 47
achievement 47
albedo 47
alised 47
animator 47
any@@ 47
ape 47
athletic 47
attendance 47
bag 47
barrier 47
benefits 47
bounded 47
builder 47
bunker 47
candidates 47
carved 47
celebrity 47
chi@@ 47
cited 47
clusters 47
co-founder 47
comics 47
composing 47
confusion 47
consoles 47
convert 47
count@@ 47
crab 47
crop 47
cycling 47
difficulty 47
dolphins 47
dre@@ 47
edits 47
entertainer 47
enz@@ 47
esp@@ 47
eu 47
exposure 47
factories 47
frequent 47
gers 47
glucose 47
graduating 47
gum 47
horns 47
ight@@ 47
introduce 47
ione 47
itation 47
itor 47
lesser 47
lit 47
locally 47
locks 47
membrane 47
mirror 47
missions 47
mistake 47
mood 47
nasal 47
nominations 47
ough 47
oun@@ 47
oves 47
partnership 47
personnel 47
pin@@ 47
planetary 47
prefer 47
prehistoric 47
premiere 47
pupil 47
rab@@ 47
remainder 47
resurrection 47
rid@@ 47
rivalry 47
rocky 47
sailing 47
sand@@ 47
sburg 47
select 47
sought 47
spirits 47
surprise 47
tanks 47
teau 47
test@@ 47
tight 47
trav@@ 47
tuberculosis 47
turtle 47
vic@@ 47
victim 47
westward 47
wildlife 47
wood@@ 47
-up 46
1,7@@ 46
111 46
119@@ 46
14-@@ 46
Accessed 46
Alicia 46
Animation 46
Ares 46
Armor 46
Austria-Hungary 46
Bac@@ 46
Bald 46
Bengali 46
Benson 46
Betty 46
Billie 46
CC 46
CD@@ 46
CM@@ 46
Call@@ 46
Capcom 46
Charizard 46
Cox 46
Creation 46
Curie 46
Disc 46
Double 46
Dylan 46
EA 46
FI@@ 46
Forum 46
FranÃ 46
Gay 46
Glory 46
Gunnedah 46
Hague 46
Half 46
Harlem 46
Hewitt 46
Highland 46
Hispaniola 46
Ich@@ 46
Internationale 46
Julie 46
LE@@ 46
Ladakh 46
Law@@ 46
Les@@ 46
Located 46
Male 46
Mecca 46
Mi 46
Municipal 46
Must@@ 46
Nak@@ 46
Naomi 46
Nepal 46
Novel 46
Oblast 46
PA 46
Pant@@ 46
Pepper 46
Perm 46
Pir@@ 46
Plate 46
Playstation 46
Private 46
Punch 46
Radi@@ 46
Rainbow 46
Resident 46
Rod 46
Sabres 46
Saxon 46
Scar@@ 46
Silver@@ 46
Sing@@ 46
Sir@@ 46
Sons 46
Spurgeon 46
Sullivan 46
Sylvia 46
Tab@@ 46
Tin 46
Vauxhall 46
Vin@@ 46
Vocals 46
Was@@ 46
Week 46
Wessex 46
Wilma 46
Worcester 46
Yerevan 46
accessible 46
adds 46
alpine 46
amp 46
appeal 46
apples 46
bi 46
click 46
concertos 46
consumer 46
cont@@ 46
cooler 46
cooling 46
crest 46
declaration 46
declined 46
deliver 46
demanded 46
developments 46
discovers 46
disks 46
div@@ 46
divide 46
doubt 46
dragons 46
dro@@ 46
ects 46
engineers 46
ently 46
experts 46
fa@@ 46
gathering 46
gir@@ 46
gland 46
granddaughter 46
hara 46
igh 46
illustrated 46
inheritance 46
ired 46
irs 46
jÃ 46
kar 46
kel 46
keyboards 46
knocked 46
knowing 46
l-@@ 46
lane 46
ld@@ 46
lined 46
linguistic 46
lips 46
loud 46
lungs 46
managing 46
mistress 46
monk 46
motorcycle 46
mp@@ 46
mut@@ 46
namely 46
nov@@ 46
oak 46
old@@ 46
ondo 46
oz 46
perception 46
persuaded 46
pet@@ 46
possession 46
processed 46
qualifying 46
quarters 46
quoted 46
recipient 46
rip@@ 46
rite 46
rob@@ 46
rodents 46
rolls 46
rotating 46
s\/@@ 46
sessions 46
sheets 46
sman 46
stating 46
stretch 46
sup@@ 46
syrup 46
teen 46
tension 46
terminus 46
thirty-@@ 46
trademark 46
tramway 46
trap 46
tribute 46
turn@@ 46
unofficial 46
unsuccessful 46
uring 46
wells 46
winters 46
witch 46
ze@@ 46
zen 46
ão 46
ün@@ 46
,3@@ 45
118 45
175 45
1807 45
184@@ 45
25th 45
330 45
33@@ 45
34@@ 45
77@@ 45
A.D. 45
AC@@ 45
Aff@@ 45
Animated 45
Antoine 45
Augustine 45
Auschwitz 45
Avery 45
Back@@ 45
Bastille 45
Bonaparte 45
Brad 45
Bretagne 45
Bron@@ 45
Buckinghamshire 45
CPUs 45
Cann@@ 45
Cha@@ 45
Characteristics 45
Chil@@ 45
Cinderella 45
Colony 45
Constantin 45
Cran@@ 45
Croydon 45
Da 45
Date 45
DiBiase 45
Dup@@ 45
Edith 45
Erin 45
Eton 45
Ey@@ 45
Fab@@ 45
Fan@@ 45
Fen@@ 45
Flowers 45
Freud 45
Gas 45
Gran 45
HammerFall 45
Hastings 45
Heathrow 45
Hopkins 45
Inf@@ 45
Islamabad 45
Iz@@ 45
JBL 45
Jes@@ 45
Jur@@ 45
Kiss@@ 45
Kra@@ 45
Laws 45
Leigh 45
Mad 45
Mall 45
Mandarin 45
Mind@@ 45
Mut@@ 45
Neville 45
Nordic 45
Oak 45
Occitan 45
Opus 45
PS@@ 45
Pak 45
Paterson 45
Peach 45
Plautus 45
Points 45
Poseidon 45
Premiership 45
RC@@ 45
Reed 45
Reward 45
Ricardo 45
Rig@@ 45
Rovers 45
SR 45
SS@@ 45
Seg@@ 45
Sergei 45
Sex 45
Shanghai 45
Similarly 45
Simone 45
Sims 45
Spice 45
Stern 45
Stirling 45
Student 45
Sup@@ 45
Tag@@ 45
Tando 45
Tang@@ 45
Tel 45
Telescope 45
Tet@@ 45
Thor@@ 45
Thr@@ 45
Tou@@ 45
Township 45
Trav@@ 45
Twilight 45
Units 45
Vezina 45
Von 45
Want 45
Weber 45
Wilde 45
Worlds 45
Writing 45
ZIP 45
Zambia 45
achievements 45
acre 45
advisory 45
allied 45
ambassador 45
ask@@ 45
aurus 45
aâ 45
belly 45
blow 45
brick 45
burgh 45
by-@@ 45
cartoons 45
chin@@ 45
chorus 45
combustion 45
commentary 45
commission 45
contracts 45
coral 45
corporate 45
crystals 45
cul@@ 45
decoration 45
deserts 45
differs 45
disambiguation 45
disputes 45
draws 45
eing 45
electoral 45
elite 45
eral 45
estuary 45
evergreen 45
exp@@ 45
far@@ 45
federation 45
feelings 45
floating 45
flu@@ 45
genome 45
globe 45
grades 45
guests 45
ham@@ 45
han@@ 45
handheld 45
harder 45
herbs 45
honour 45
ict@@ 45
ify 45
ind 45
infantry 45
iodide 45
isch 45
jan 45
ju@@ 45
knee 45
labeled 45
learns 45
lifestyle 45
melody 45
merely 45
metallic 45
mother@@ 45
nan@@ 45
ne-@@ 45
nutrients 45
oath 45
observation 45
occasional 45
oils 45
omes 45
oping 45
oux 45
palm 45
past@@ 45
pel 45
physically 45
plasma 45
portrayed 45
pres@@ 45
priests 45
propaganda 45
quartet 45
rant 45
receiver 45
remake 45
removing 45
renowned 45
ret 45
retreat 45
revival 45
rivals 45
sberg 45
shades 45
shelf 45
spider 45
spy 45
static 45
swim 45
tab@@ 45
terminal 45
tha 45
thoughts 45
thunderstorms 45
tough 45
tragedy 45
trunk 45
typ@@ 45
ulus 45
warriors 45
weakening 45
ères 45
1.0 44
122 44
123 44
145 44
147 44
1764 44
1778 44
24th 44
3\/@@ 44
46@@ 44
5/O) 44
7,000 44
ATP 44
Aber@@ 44
Acting 44
Af@@ 44
Am 44
Angel@@ 44
Apostles 44
Ark 44
Ath@@ 44
Barn@@ 44
Barrier 44
Bath 44
Berkshire 44
Biology 44
Bot@@ 44
Breton 44
Brugg 44
Camden 44
Canberra 44
Cancer 44
Cardiff 44
Cartoon 44
Chiefs 44
Choice 44
Co 44
Coleman 44
DO@@ 44
DVDs 44
Darling 44
Daytona 44
Dig@@ 44
Dum@@ 44
Dwight 44
EMI 44
End@@ 44
Eva 44
Example 44
Exile 44
Females 44
Fish@@ 44
Franks 44
Gates 44
Gaul 44
Gerard 44
Giro 44
Governments 44
Grav@@ 44
HE@@ 44
Hector 44
Helmut 44
Hindi 44
IM 44
Insane 44
Isolde 44
Joshua 44
Joyce 44
Kangaroo 44
Kirk@@ 44
Klein 44
Kornberg 44
Kot@@ 44
Lea 44
Lip@@ 44
Ltd 44
Lun@@ 44
Made 44
Marriage 44
Marshal 44
Marx 44
Metis 44
Mick 44
Molecular 44
Mort@@ 44
Motion 44
Municipality 44
Murree 44
Mystery 44
Need 44
Nem@@ 44
Nigerian 44
Nothing 44
Nukem 44
Oil 44
Open@@ 44
Opeth 44
Outer 44
Parish 44
Past@@ 44
Penny 44
Peters 44
PhD 44
Play@@ 44
Playing 44
Please 44
Programme 44
Qur 44
R.D. 44
RFC 44
Rapid 44
Roc@@ 44
Rommel 44
Ron@@ 44
Ross@@ 44
ST 44
Sau@@ 44
Stade 44
Stre@@ 44
Talk 44
Tunisia 44
Whig 44
Winners 44
Wol@@ 44
Worth 44
accurate 44
adas 44
adjacent 44
af 44
aja 44
aliens 44
ammonia 44
anes 44
announcement 44
anta 44
apparently 44
asting 44
attractions 44
auto 44
beds 44
behalf 44
benefit 44
bet@@ 44
bonus 44
boro 44
cav@@ 44
celebrations 44
clarinet 44
coached 44
coined 44
competitive 44
considerably 44
controlling 44
cookies 44
cub@@ 44
cubic 44
dancers 44
destinations 44
detect 44
developer 44
directing 44
directors 44
ecosystem 44
eighteenth 44
ental 44
equally 44
ersch@@ 44
etc./O. 44
ethanol 44
explore 44
ferry 44
firing 44
fraud 44
gates 44
grav@@ 44
heroes 44
hiding 44
ieux 44
inter-@@ 44
ionist 44
iss 44
iti 44
itting 44
kan 44
lem 44
locked 44
loose 44
loses 44
loyal 44
man-made 44
mb@@ 44
minimal 44
mov@@ 44
nar@@ 44
ogenic 44
oids 44
ometer 44
onn@@ 44
optera 44
orb@@ 44
orial 44
pants 44
peaceful 44
performs 44
phones 44
postal 44
praise 44
princely 44
princess 44
productions 44
proven 44
psychologist 44
publishes 44
puzzle 44
quad@@ 44
quotation 44
rabbit 44
reader 44
remnant 44
resting 44
restore 44
restrictions 44
rides 44
rode 44
sapiens 44
secular 44
seek 44
settle 44
shuttle 44
sled 44
sociology 44
spar@@ 44
stown 44
stuck 44
sty@@ 44
surfaces 44
tan@@ 44
til@@ 44
tires 44
trail 44
trailer 44
transformed 44
ump@@ 44
underwater 44
vast 44
walks 44
wan@@ 44
wrapped 44
wrestled 44
ç@@ 44
ör@@ 44
* 43
00-@@ 43
104 43
116@@ 43
1768 43
1772 43
1786 43
1900s 43
2.2 43
22nd 43
25,000 43
256 43
30th 43
45@@ 43
5.5 43
55@@ 43
56@@ 43
80,000 43
9/O) 43
AG 43
Administrative 43
Aschenbach 43
Assistant 43
Aston 43
Aud@@ 43
Axis 43
Baghdad 43
Barack 43
Bass@@ 43
Bayreuth 43
Bear@@ 43
Besides 43
Ble@@ 43
Bradford 43
Buxton 43
Byrne 43
Carnival 43
Casals 43
Chiba 43
Communications 43
Crow@@ 43
Disneyland 43
Dj@@ 43
Document 43
Dorset 43
Dra@@ 43
Ds 43
Dumas 43
Ech@@ 43
Emmanuel 43
Eurasia 43
Ext@@ 43
Foster 43
Gab@@ 43
German@@ 43
Gloucester 43
Gloucestershire 43
Got 43
Halifax 43
Harper 43
Hermione 43
Housing 43
Huxley 43
IR@@ 43
IRC 43
Iberian 43
Indo-@@ 43
Inner 43
Jacqueline 43
Jeanne 43
Kah@@ 43
KÅ 43
Males 43
McK@@ 43
NH@@ 43
NT 43
Nan@@ 43
Nin@@ 43
Nish@@ 43
Oak@@ 43
Ost@@ 43
Pak@@ 43
Pius 43
Ple@@ 43
Posse 43
Protestants 43
Provinces 43
Recently 43
Record 43
Reference 43
Release 43
Rings 43
Safety 43
Salem 43
Sandra 43
Santander 43
Saxe-@@ 43
SchÃ 43
Sexual 43
Sodium 43
Stockport 43
Sug@@ 43
Sz@@ 43
Tang 43
Teatro 43
Theodor 43
Thirty 43
Thousand 43
Tonight 43
Toy 43
Twenty-@@ 43
Us 43
Vikings 43
WB 43
Weekly 43
Wilbur 43
Wine 43
XV 43
Yass 43
Yes 43
a.m. 43
aboard 43
absinthe 43
aces 43
afraid 43
aj 43
anchor 43
anga 43
audiences 43
aware 43
axes 43
beak 43
bec@@ 43
bil@@ 43
body@@ 43
breathing 43
configuration 43
convinced 43
cow 43
cup@@ 43
cure 43
deaf 43
des-@@ 43
dessert 43
detailed 43
devoted 43
diplomatic 43
discover 43
divine 43
earth@@ 43
ective 43
edo 43
edy 43
eff@@ 43
email 43
ent-@@ 43
exiled 43
extending 43
famously 43
fi@@ 43
first-person 43
fortune 43
freely 43
fuels 43
galaxies 43
gender 43
glacial 43
grand@@ 43
harm 43
helium 43
ibility 43
ifer 43
inclinations 43
ingredient 43
inspiration 43
interaction 43
interference 43
ire@@ 43
iz 43
lasts 43
lenses 43
lith@@ 43
liv@@ 43
lov@@ 43
macro@@ 43
madrigals 43
mall 43
mol@@ 43
navigation 43
ng@@ 43
nie 43
nik 43
nodes 43
opinions 43
orth@@ 43
overhead 43
payment 43
phil@@ 43
poorly 43
pra@@ 43
prec@@ 43
precise 43
presidents 43
raid 43
rebel 43
rectangular 43
red-@@ 43
resembles 43
resident 43
revised 43
scre@@ 43
sermon 43
shirts 43
sign@@ 43
sleeping 43
soy 43
sponsors 43
sted 43
stretches 43
suffer 43
suggesting 43
tam@@ 43
tehsils 43
thesis 43
tiger 43
top-@@ 43
truly 43
unt 43
unusually 43
vascular 43
vers@@ 43
verses 43
vin 43
vir@@ 43
virtual 43
vis@@ 43
vy 43
wound 43
Ö@@ 43
ía 43
13-@@ 42
1783 42
1793 42
183@@ 42
1860s 42
300,000 42
Ajax 42
Alberto 42
Alessandro 42
Amanda 42
André 42
Angola 42
Aqua 42
Aslan 42
Augsburg 42
BDD 42
Babylon 42
Beau@@ 42
Bes@@ 42
Book@@ 42
Bridg@@ 42
CP@@ 42
Camille 42
Cheshire 42
Commerce 42
Deb@@ 42
Eisenhower 42
Eleven 42
Emperors 42
FL@@ 42
Fielding 42
Firefly 42
Fox@@ 42
Fra@@ 42
Gem@@ 42
Ghana 42
Gibraltar 42
Gilgit 42
Given 42
Goethe 42
Griffin 42
GrÃ 42
Guam 42
Gut@@ 42
HL 42
HTML 42
Hartford 42
Hassan 42
ICRC 42
IP@@ 42
Jhelum 42
Johan 42
Junction 42
Karnataka 42
Kart 42
Kos@@ 42
Langston 42
Lasker 42
Lie@@ 42
MI@@ 42
Macquarie 42
Mast@@ 42
Mid@@ 42
Miley 42
Mills 42
NO@@ 42
NS@@ 42
Nab@@ 42
Nicaragua 42
Now@@ 42
Organ@@ 42
Palestinian 42
Penn@@ 42
Piedmont 42
Po 42
Recordings 42
Rhea 42
Rochester 42
Round 42
SO@@ 42
SPL 42
Sah@@ 42
Secondary 42
Skating 42
Skipper 42
Solo 42
Stat@@ 42
Stratus 42
T.@@ 42
Tehran 42
Than 42
Thur@@ 42
Tokugawa 42
Trinidad 42
Tut@@ 42
UFC 42
Ulster 42
Vacheron 42
Warwick 42
Wear 42
Wi@@ 42
Willis 42
Yamamoto 42
Younger 42
Zer@@ 42
adaptive 42
aded 42
adjective 42
advertisement 42
agus 42
alien 42
ame@@ 42
anim@@ 42
argue 42
arians 42
asses 42
asts 42
auc@@ 42
aws 42
bacterial 42
bacterium 42
battery 42
beam 42
bir@@ 42
builds 42
cap 42
celestial 42
certified 42
ch-@@ 42
chner 42
condemned 42
conspiracy 42
consumption 42
contestant 42
conventional 42
correctly 42
cri@@ 42
dairy 42
definitions 42
delayed 42
della 42
derives 42
direct-to-video 42
discussed 42
distribute 42
domesticated 42
dramatic 42
dynamic 42
dynamics 42
edi@@ 42
eper 42
etc 42
ettes 42
eva 42
expelled 42
export 42
extend 42
eys 42
fake 42
farmer 42
fore 42
full-time 42
gar 42
gathered 42
graves 42
halfway 42
hereditary 42
hormone 42
igo 42
illing 42
inos 42
ips 42
ision 42
iya 42
jury 42
kidnapped 42
licenses 42
lizard 42
maintenance 42
may@@ 42
melting 42
merging 42
mos@@ 42
n. 42
neighbors 42
neutrons 42
nobleman 42
nude 42
obvious 42
odd 42
oko 42
omb@@ 42
omet@@ 42
ond 42
oot 42
organizing 42
ourt 42
paying 42
pedal 42
photo 42
ples 42
pools 42
portions 42
pray 42
privately 42
pro-@@ 42
profile 42
pu@@ 42
qin 42
quet 42
ras@@ 42
recipe 42
recovered 42
regarding 42
remix 42
rounded 42
salts 42
scandal 42
sentences 42
sep@@ 42
sequ@@ 42
shores 42
slip@@ 42
slower 42
speeches 42
sq 42
sworn 42
tails 42
ual 42
ulated 42
ushi 42
vent@@ 42
vest@@ 42
warrior 42
ytes 42
(/O195@@ 41
106 41
112 41
117 41
143 41
1603 41
1750 41
1880s 41
400,000 41
5\/@@ 41
80s 41
Alber@@ 41
Ald@@ 41
Aristotle 41
Basel 41
Beirut 41
Browns 41
Cad@@ 41
Canon 41
Cantor 41
Carmen 41
Ce@@ 41
Chapman 41
Chun 41
Claudio 41
Covent 41
Crete 41
Domestic 41
Dre@@ 41
Düsseldorf 41
EM@@ 41
Earth@@ 41
Election 41
Estates 41
Estonian 41
Fahrenheit 41
Figure 41
Fleetwood 41
Gim@@ 41
Gom@@ 41
Gone 41
Gray@@ 41
H-@@ 41
Hammond 41
Heath 41
Hedgehog 41
Herod 41
Hill@@ 41
Hit@@ 41
Hits 41
Honor 41
IRA 41
Ida 41
Interior 41
Jesuit 41
Johor 41
Karajan 41
Key@@ 41
Koh@@ 41
L.@@ 41
Legacy 41
Leicestershire 41
MPs 41
Marquess 41
Messenger 41
Miz@@ 41
Monkey 41
Oilers 41
PO@@ 41
Pag@@ 41
Parks 41
Ph. 41
Phantom 41
Prov@@ 41
Put@@ 41
Raf@@ 41
Richardson 41
Ride 41
Rol@@ 41
Roman@@ 41
Rouge 41
Search 41
Shah@@ 41
Sharks 41
Sho@@ 41
Shropshire 41
Siberian 41
Sign 41
Single 41
Song@@ 41
Speaker 41
Stamford 41
Stan 41
Steelers 41
Store 41
Stro@@ 41
Sunshine 41
Tehsils 41
Toulouse 41
V-@@ 41
VHS 41
Vernon 41
Vida 41
Vilnius 41
Vlad 41
Walton 41
Wario 41
Warriors 41
Website 41
Zeppelin 41
Zeta 41
ady 41
alg@@ 41
alto 41
angel 41
apped 41
armor 41
asted 41
attributed 41
automatic 41
autonomy 41
banana 41
bling 41
bubble 41
burg-@@ 41
buying 41
bÃ 41
cab@@ 41
candy 41
captivity 41
cereal 41
chef 41
claiming 41
climates 41
coll@@ 41
comparison 41
compatible 41
compl@@ 41
controllers 41
credits 41
d'Ivoire 41
daytime 41
designers 41
develops 41
din@@ 41
discipline 41
dynasties 41
electro@@ 41
enta 41
equals 41
eti 41
fa 41
fac@@ 41
first-@@ 41
flesh 41
formations 41
fox 41
funded 41
geometric 41
gy@@ 41
handled 41
hectares 41
hex@@ 41
hm 41
hollow 41
hrer 41
ials 41
ianism 41
icle 41
ifies 41
inations 41
indoor 41
inflation 41
integers 41
interviews 41
iv 41
jurist 41
kidney 41
knight 41
len@@ 41
linguistics 41
liquids 41
machinery 41
magma 41
messaging 41
mir@@ 41
modification 41
neighbor 41
neighboring 41
ogn@@ 41
oki 41
oos 41
ored 41
orn@@ 41
osh@@ 41
painters 41
parameter 41
paths 41
portable 41
potato 41
princes 41
procedure 41
profession 41
re-released 41
regard 41
reigned 41
renewable 41
reserved 41
rider 41
rif@@ 41
rons 41
sat 41
seasonal 41
secretly 41
sens@@ 41
sh 41
shade 41
shark 41
shrub 41
simultaneously 41
skill 41
solids 41
sous-@@ 41
spreading 41
statues 41
stays 41
stripe 41
surrendered 41
survey 41
tailed 41
teenagers 41
tens 41
tes@@ 41
tol@@ 41
tomato 41
trips 41
tz 41
ug 41
ules 41
undergraduate 41
underside 41
unhappy 41
ury 41
warfare 41
water-@@ 41
(/O1987/O) 40
0.1 40
1.9 40
107 40
1796 40
1808 40
2.6 40
29th 40
4000 40
50th 40
Aj@@ 40
Alien 40
Allison 40
Anatomy 40
Ariel 40
Aude 40
Autom@@ 40
BC@@ 40
Baden-Württemberg 40
Beth 40
Boer 40
Bon 40
Boulogne 40
Brig@@ 40
Bry@@ 40
Calabria 40
Caliphate 40
Cards 40
Carey 40
Cats 40
Cay@@ 40
Choi 40
Chopin 40
Claire 40
Clement 40
Conquest 40
Constitutional 40
Corner 40
Corsican 40
Cotton 40
Crash 40
Cycl@@ 40
Derek 40
Dh@@ 40
Disco 40
Dodge 40
Dutchess 40
Dáil 40
Ele@@ 40
Elephant 40
Eliza 40
Euro 40
Exp@@ 40
FSF 40
Falcons 40
Fat@@ 40
Fife 40
GNOME 40
Guar@@ 40
Guardian 40
Guin 40
Gw@@ 40
HD 40
Haf@@ 40
Halle 40
Hat 40
Having 40
Hello 40
High@@ 40
Household 40
Hunza 40
Hurricanes 40
IC 40
Ike 40
Infantry 40
Ingrid 40
Iraqi 40
Jena 40
Jorge 40
Kakadu 40
Kul@@ 40
Kurdish 40
Kö@@ 40
Lac@@ 40
Layfield 40
Lebanese 40
Letter 40
Linkin 40
MS 40
Macintosh 40
Madame 40
Magnetic 40
Mans 40
March@@ 40
Mason 40
Maur@@ 40
Messiah 40
Ministers 40
Nagar 40
Nun@@ 40
Oh@@ 40
Oliveira 40
Op 40
PS 40
Pack 40
Phot@@ 40
Prop@@ 40
RC4 40
Regular 40
Representative 40
RhÃ 40
Rus@@ 40
Russians 40
Rutherford 40
Shepherd 40
Short-beaked 40
Shuttle 40
Silent 40
Slovenian 40
Smith@@ 40
Southwest 40
Spec@@ 40
Spot 40
Sutton 40
TNA 40
Tahiti 40
Thief 40
Tigers 40
Tok@@ 40
Tolkien 40
Toy@@ 40
Tric@@ 40
Tsu@@ 40
Vall@@ 40
Yankovic 40
Zagreb 40
aba 40
adi 40
agn@@ 40
aines 40
al. 40
alleged 40
ames 40
anian 40
architectural 40
ardo 40
arid 40
arrondissement 40
asp@@ 40
asse 40
assist 40
audi@@ 40
bers 40
beside 40
bowl 40
bra@@ 40
broadcaster 40
bromide 40
bun@@ 40
cape 40
carriage 40
civilizations 40
clocks 40
comb@@ 40
combines 40
competitors 40
comprising 40
concentrate 40
conclusion 40
consistent 40
construct 40
contender 40
cou@@ 40
cour@@ 40
cu@@ 40
customs 40
dan@@ 40
decimal 40
delegates 40
diocese 40
dit 40
duchy 40
easternmost 40
eighteen 40
encies 40
eson 40
etz@@ 40
ew 40
extensively 40
faculty 40
flavors 40
frames 40
gains 40
gross 40
harsh 40
heavyweight 40
hÃ 40
icker 40
ift 40
imb@@ 40
indicated 40
infinite 40
innings 40
ishi 40
itter 40
lb 40
lip 40
lithium 40
marrow 40
nationwide 40
nocturnal 40
noise 40
odor 40
ons@@ 40
ornis 40
ounded 40
pancakes 40
partition 40
photograph 40
pigs 40
pilgrimage 40
platypus 40
poll 40
pollution 40
prefectures 40
prop@@ 40
prophets 40
proprietary 40
publishers 40
quantities 40
reinforced 40
resignation 40
restoration 40
rich@@ 40
sac 40
school@@ 40
sect 40
shed 40
simplified 40
smart 40
sovereignty 40
speaker 40
spray 40
squad 40
stal@@ 40
start@@ 40
stealing 40
stra 40
stre@@ 40
subdivisions 40
te-@@ 40
tel 40
temporarily 40
tes-d 40
than@@ 40
therapy 40
transformation 40
travelled 40
trend 40
tributaries 40
uel 40
um-@@ 40
urr@@ 40
vital 40
yes 40
zed 40
(/O1991/O) 39
,0@@ 39
,7@@ 39
0N 39
1066 39
17-@@ 39
1730 39
1774 39
195 39
27th 39
280 39
49@@ 39
60s 39
90s 39
AES 39
AP 39
Add@@ 39
Adv@@ 39
Amber 39
And@@ 39
Associated 39
Avalanche 39
Azores 39
BMI 39
Barbirolli 39
Bayern 39
Belle 39
Bernhard 39
Big@@ 39
Break@@ 39
Buren 39
Burmese 39
By@@ 39
CDs 39
CH 39
CSU 39
Carbon 39
Cassius 39
Ceres 39
Cherry 39
Cin@@ 39
Cla@@ 39
Clarkson 39
Cody 39
Crist@@ 39
DR 39
Daddy 39
Daleks 39
Devils 39
Dhaka 39
Diemen 39
Diesel 39
Dow@@ 39
Dut@@ 39
Dy@@ 39
Earthsea 39
Eth@@ 39
Evelyn 39
Fedora 39
Fellow 39
Ferguson 39
Fiji 39
Flyers 39
Frank@@ 39
Gallagher 39
Gand@@ 39
Gob@@ 39
Guild 39
Hag@@ 39
Hardcore 39
Harmon@@ 39
Hearst 39
Heroes 39
Hershey 39
Holiday 39
Ibn 39
Inc@@ 39
Inside 39
Ja@@ 39
Jennings 39
Jo 39
Kensington 39
Kerala 39
Labrador 39
Lance 39
Laz@@ 39
Legion 39
Leto 39
Light@@ 39
M.@@ 39
Majesty 39
Make 39
Mansehra 39
Marcel 39
Marvin 39
McCarthy 39
Methodist 39
Milk 39
Moss 39
Nara 39
Noel 39
Nonstop 39
Northamptonshire 39
Oceania 39
Paper 39
Paraguay 39
Pietro 39
Poems 39
Poles 39
Porrentruy 39
Portable 39
Publishing 39
Ranger 39
Regis 39
Rhythm 39
Riverside 39
Ruby 39
SC 39
Schumacher 39
Shia 39
Siegfried 39
Sign@@ 39
Sikh 39
Simmons 39
Soci@@ 39
Sol 39
Somalia 39
Something 39
Sovereign 39
Stevenson 39
Sturt 39
Survey 39
Syracuse 39
Tal 39
Tekken 39
Template 39
Terrier 39
ThÃ 39
Tournament 39
Tracks 39
Trial 39
Tyson 39
Va@@ 39
Valois 39
Verdi 39
Vid@@ 39
Vir@@ 39
Weird 39
Wiltshire 39
Zuko 39
alization 39
amba 39
amus 39
architects 39
ario 39
assuming 39
athers 39
atsu 39
aur 39
aux-@@ 39
avia 39
award-winning 39
bell@@ 39
bitter 39
black-@@ 39
bre 39
break@@ 39
busy 39
cartoonist 39
ceiling 39
cheap 39
cho@@ 39
commentator 39
consonants 39
constantly 39
converts 39
creative 39
deeper 39
detected 39
difficulties 39
digit 39
dissolve 39
donated 39
down@@ 39
ections 39
eh 39
elastic 39
enormous 39
entries 39
eps 39
eri 39
esia 39
ev 39
explosive 39
fifteenth 39
finishes 39
frequencies 39
ful@@ 39
glaciers 39
gospel 39
gravitational 39
handball 39
harvested 39
humid 39
humidity 39
humor 39
hunters 39
idal 39
idd@@ 39
inated 39
iner 39
inge 39
interchange 39
interrupted 39
ipping 39
isotopes 39
ken@@ 39
light-@@ 39
lions 39
manuscripts 39
marking 39
measurements 39
menu 39
mere 39
mu 39
murders 39
nica 39
nster 39
occasion 39
ogen@@ 39
ograph 39
olic 39
opol@@ 39
orous 39
outstanding 39
oya 39
patch 39
permanently 39
pies 39
plan@@ 39
pos 39
pour 39
rail@@ 39
rainbow 39
react 39
reflected 39
ring@@ 39
ruined 39
rum 39
sculptures 39
shoe 39
show@@ 39
sometime 39
sport@@ 39
stand@@ 39
standings 39
strand 39
strict 39
strikes 39
sup2 39
superhero 39
taxonomy 39
then@@ 39
tornadoes 39
trace 39
treason 39
tÃ 39
ulcers 39
urine 39
uro@@ 39
vacation 39
vent 39
wireless 39
withdrew 39
worried 39
ê@@ 39
+2 38
.2 38
127 38
1492 38
151 38
1780 38
230 38
2x 38
6\/@@ 38
7\/@@ 38
Aberdeenshire 38
Andre@@ 38
Astronomical 38
Axel 38
Bail@@ 38
Ballet 38
Band@@ 38
Beat@@ 38
Boleyn 38
Boulevard 38
Brah@@ 38
Bremgarten 38
Brook@@ 38
Bus 38
Cambodia 38
Cand@@ 38
Candice 38
Charlemagne 38
Chesapeake 38
Chev@@ 38
Cho@@ 38
Choir 38
Classics 38
Clunes 38
Conn@@ 38
DA@@ 38
Damage 38
Darfur 38
Destiny 38
Deutsch@@ 38
Di 38
Duff 38
Dukes 38
Dumbledore 38
Egyptians 38
Ellis 38
Elvis 38
Engines 38
Enix 38
Enterprise 38
Et@@ 38
Exeter 38
Fianna 38
Fifth 38
Firestone 38
Franck 38
Fri@@ 38
Gas@@ 38
Gent@@ 38
Giorgio 38
Glass 38
Goo@@ 38
Hanna-Barbera 38
Hawk 38
Hesiod 38
Hillary 38
Horton 38
Hou@@ 38
Hour 38
Hurwicz 38
Hyundai 38
ITV 38
Imag@@ 38
Juno 38
K-@@ 38
KC@@ 38
Katara 38
Katherine 38
Kenny 38
Kiev 38
Kill@@ 38
Level 38
Lic@@ 38
Lom@@ 38
Lorenz 38
Lug@@ 38
Maggie 38
Maira 38
Mamm@@ 38
Match 38
Math@@ 38
Midsummer 38
Mighty 38
Milky 38
Miss@@ 38
Mix@@ 38
Monster 38
Morley 38
Moy@@ 38
Mozambique 38
Nath@@ 38
Nicaea 38
Pand@@ 38
Patricia 38
Pauline 38
Pick@@ 38
Pikmin 38
Pre-@@ 38
Provincia 38
PyrÃ 38
RT@@ 38
Rat 38
Recording 38
Regent 38
Revolt 38
Ric@@ 38
Rich 38
Rule 38
Runner 38
Schw@@ 38
Scout 38
Sep@@ 38
Seymour 38
Shade 38
Sidney 38
Sig@@ 38
Sofia 38
Straits 38
Sv@@ 38
Tad@@ 38
Tagore 38
Tay@@ 38
Telegraph 38
Thing 38
U2 38
UCI 38
Unfortunately 38
Vor@@ 38
Werner 38
Whisenhunt 38
Willie 38
Window 38
Yoshi 38
acht 38
agreements 38
anas 38
anatomy 38
anch@@ 38
anning 38
apes 38
astr@@ 38
aye 38
baking 38
basil 38
batt@@ 38
bomber 38
browsers 38
burns 38
chant 38
chard 38
choral 38
cinema 38
clockwise 38
coloured 38
communion 38
composite 38
consensus 38
considering 38
contents 38
crashes 38
cru@@ 38
decorative 38
deleted 38
denomination 38
dians 38
dipole 38
distant 38
documentation 38
dough 38
eled 38
enabled 38
encourage 38
eric@@ 38
es-Atlantiques 38
esâ 38
exit 38
fall@@ 38
feminist 38
filter 38
friction 38
fu@@ 38
gloves 38
gra@@ 38
granite 38
hem 38
heter@@ 38
him@@ 38
holder 38
ht 38
iat@@ 38
ies@@ 38
imes 38
isms 38
izes 38
kins 38
labour 38
lamp 38
leton 38
lich 38
lifted 38
ling@@ 38
lis 38
literal 38
loaded 38
loads 38
long-running 38
lowered 38
mad 38
mas 38
modern@@ 38
modes 38
natur@@ 38
nau 38
nicknames 38
noodles 38
observatory 38
oft 38
oga 38
omys 38
operators 38
opter@@ 38
oriented 38
orum 38
ott@@ 38
ously 38
oval 38
parasites 38
pasteurized 38
peaking 38
phs 38
pod 38
polo 38
quartets 38
refugees 38
regiments 38
regulations 38
rel 38
renal 38
ridges 38
ritual 38
rov@@ 38
rumors 38
sed 38
shut 38
signatures 38
similarity 38
sink 38
sorts 38
southernmost 38
strategic 38
stretching 38
strips 38
suc@@ 38
sufficient 38
surgeon 38
tes 38
toilet 38
trusted 38
tuna 38
typhoon 38
ulating 38
usion 38
vessel 38
vi 38
viol@@ 38
vit@@ 38
walked 38
weed 38
weighs 38
whilst 38
witz 38
workshop 38
z-@@ 38
zel 38
zon 38
ß 38
ê 38
(/O193@@ 37
-d@@ 37
.3 37
1-2 37
1.7 37
1200 37
13,@@ 37
1400 37
1660 37
1749 37
1757 37
1773 37
1775 37
2.4 37
25-@@ 37
42@@ 37
6:@@ 37
8.5 37
ACT 37
Achilles 37
Adri@@ 37
Aer@@ 37
Afterwards 37
Agriculture 37
Apart 37
Applied 37
Archive 37
Australians 37
Aviv 37
BS 37
Bergen 37
Berwickshire 37
Beyond 37
Bla@@ 37
Bret 37
Broken 37
Bronx 37
Bury 37
Carl@@ 37
Cash 37
Champ@@ 37
Ciudad 37
Crime 37
Crosby 37
DA 37
DES 37
Dalai 37
Deer 37
Directors 37
Dudley 37
Edo 37
Emm@@ 37
Escape 37
Esch@@ 37
Far 37
Fitz@@ 37
Forever 37
FrÃ 37
GA 37
Gel@@ 37
German-speaking 37
Gore 37
Gucci 37
Hamlet 37
Heavy 37
Herald 37
Hereford 37
Hoffman 37
Hoh@@ 37
Holloway 37
IN 37
Into 37
Invasion 37
Iw@@ 37
Jaguar 37
Jeffrey 37
Jonas 37
Kamp@@ 37
Kill 37
Klingon 37
Laing 37
Laos 37
Lars 37
Laubach 37
Lay@@ 37
Less 37
LeÃ 37
Lod@@ 37
Macbeth 37
Maharashtra 37
Mallory 37
Maritime 37
Marne 37
McDonald 37
Mem@@ 37
Minute 37
Mohammed 37
Municipalities 37
Myr@@ 37
Named 37
Natur@@ 37
Niagara 37
Non@@ 37
Nord@@ 37
Numbers 37
Ny@@ 37
OR 37
Olaf 37
Opel 37
Parade 37
Parkes 37
Picasa 37
Pirates 37
Plaza 37
Porto 37
Pow@@ 37
Previn 37
Publications 37
Python 37
RIAA 37
Rapids 37
Rattle 37
Reginald 37
Register 37
Reichs@@ 37
Restoration 37
Rhineland-Palatinate 37
Rinpoche 37
Rip@@ 37
Rookie 37
Rotterdam 37
Roy@@ 37
Rum@@ 37
SS-@@ 37
Saga 37
Said 37
Saint-Denis 37
Saxony-Anhalt 37
Screaming 37
Set@@ 37
Shop 37
Silla 37
Simba 37
Sites 37
Slash 37
Sparta 37
Spectrum 37
Spielberg 37
SummerSlam 37
TE@@ 37
Tea 37
Thant 37
Theme 37
Thomson 37
Tort@@ 37
Trujillo 37
Tyrol 37
Um@@ 37
Ursula 37
Uruguayan 37
Uttar 37
Vaughan 37
Vision 37
WA 37
WTA 37
Wak@@ 37
Was 37
Wave 37
Wichita 37
Wittgenstein 37
Ya@@ 37
Zh@@ 37
abi 37
administrators 37
ahn 37
alcoholic 37
am-@@ 37
aming 37
arrow 37
arrows 37
asing 37
associate 37
bills 37
blindness 37
bluegrass 37
botanist 37
burnt 37
captures 37
cas@@ 37
cha@@ 37
cin@@ 37
circumstances 37
citizenship 37
colonists 37
compression 37
convict 37
cooled 37
creators 37
criminals 37
da@@ 37
debris 37
demands 37
demolished 37
demonstrated 37
destroying 37
disabled 37
dorsal 37
duck 37
e-like 37
eas@@ 37
eer 37
ego 37
elect 37
elev@@ 37
elevated 37
ento 37
epidemic 37
er\/@@ 37
ership 37
etics 37
evangelist 37
eve 37
examination 37
exclusively 37
fail 37
faithful 37
feels 37
fer 37
folds 37
fourteenth 37
gent@@ 37
grapes 37
gy 37
hair@@ 37
halves 37
hammer 37
handles 37
harvest 37
heading 37
holidays 37
hunter 37
iding 37
iff 37
indeed 37
informal 37
invade 37
isch@@ 37
istan 37
itism 37
itt 37
jaws 37
judicial 37
kick 37
kir@@ 37
lamps 37
lesbian 37
lieutenant 37
liqu@@ 37
logarithmic 37
magn@@ 37
manufacturers 37
margin 37
marketed 37
melan@@ 37
mond 37
mushrooms 37
mythological 37
niece 37
nis 37
ns@@ 37
num@@ 37
obtain 37
one@@ 37
optics 37
options 37
participate 37
performer 37
permitted 37
plant@@ 37
pollen 37
predecessor 37
prevented 37
prevents 37
rebels 37
reduction 37
reflects 37
reformed 37
rely 37
remarkable 37
respective 37
richest 37
rup@@ 37
san 37
scope 37
searching 37
sedimentary 37
semen 37
shoots 37
shortest 37
side-@@ 37
simplest 37
slight 37
succeed 37
suits 37
survives 37
teamed 37
theological 37
thermodynamic 37
thyroid 37
township 37
traction 37
traders 37
uan 37
un-@@ 37
unclear 37
upper-level 37
uri 37
ux@@ 37
var 37
voters 37
wait 37
warmer 37
welding 37
y-sur-@@ 37
y\/@@ 37
yeast 37
zoologist 37
(/O19@@ 36
.6 36
/O@@ 36
0.2 36
09@@ 36
1,6@@ 36
116 36
1602 36
1771 36
1781 36
2,4@@ 36
205 36
23rd 36
2\/@@ 36
4.4 36
64@@ 36
AA 36
AP@@ 36
AR 36
Additional 36
Aeschylus 36
Ard@@ 36
Atomic 36
Bailey 36
Bamberg 36
Bash@@ 36
Bath@@ 36
Baz@@ 36
Beeton 36
Belize 36
BeyoncÃ 36
Blessed 36
Bonnie 36
Brain 36
Cabell 36
Caldwell 36
Cambridgeshire 36
Chel@@ 36
Cherubino 36
Chiapas 36
Chronicle 36
Coach 36
Cons@@ 36
Coun@@ 36
Creative 36
Crowley 36
Dietrich 36
Dildo 36
Domenico 36
Domin@@ 36
Dreams 36
ET 36
English-language 36
Etruscan 36
Expl@@ 36
FR@@ 36
Flame 36
Form@@ 36
Freeman 36
Furbies 36
Germanicus 36
Gou@@ 36
Goulburn 36
Griffith 36
Guillaume 36
HBO 36
Hampden 36
Hay 36
Hayes 36
Heter@@ 36
Ho 36
Hos@@ 36
Hovell 36
Husserl 36
Impact 36
Iroquois 36
Islanders 36
Jim@@ 36
Joint 36
Kap@@ 36
Karakoram 36
Kathleen 36
Kent@@ 36
Keys 36
Kik@@ 36
Kilmarnock 36
Kohl 36
Liam 36
Linspire 36
Literary 36
Logan 36
Low@@ 36
Lucca 36
MT@@ 36
Madras 36
Mall@@ 36
Mao 36
Maxim 36
Meaning 36
Memory 36
Mersey 36
Mic@@ 36
Molotov 36
Mond@@ 36
Monument 36
Morse 36
NME 36
NOAA 36
NY@@ 36
Nearly 36
Normal 36
Nur@@ 36
Oman 36
Operating 36
PBS 36
PR@@ 36
Pharaoh 36
Pioneer 36
Played 36
Poe 36
Pohjola 36
Pomerania 36
Prem@@ 36
Pretoria 36
Psych@@ 36
Rag@@ 36
Raiders 36
Rath@@ 36
Regiment 36
Remix 36
Reynolds 36
Roma 36
Rudolph 36
Ruhr 36
Russ@@ 36
SDS 36
SR@@ 36
SV 36
Saffir-Simpson 36
Sara 36
Scuderia 36
Sev@@ 36
Shak@@ 36
Siege 36
Source 36
Stebbins 36
Subtropical 36
Tap@@ 36
Than@@ 36
Thayil 36
Tikal 36
Tire 36
Titania 36
Traditional 36
Tribune 36
USS 36
Unions 36
Universities 36
Unix 36
Users 36
Utrecht 36
V8 36
VA 36
Ve@@ 36
Violin 36
Winner 36
Wool@@ 36
Words 36
Wyn@@ 36
XL@@ 36
Yamato 36
YouTube 36
acidic 36
addressed 36
adoption 36
akers 36
answered 36
applies 36
ara@@ 36
astronaut 36
attacker 36
aving 36
bod@@ 36
bour@@ 36
bran@@ 36
brighter 36
bush@@ 36
cadmium 36
calculate 36
capitals 36
carriages 36
caves 36
clean@@ 36
cobalt 36
comparable 36
cons@@ 36
contribution 36
cryptanalysis 36
decreases 36
demo 36
denied 36
dialogue 36
dimension 36
dip@@ 36
dirt 36
dog@@ 36
dom 36
dom@@ 36
dri@@ 36
dual 36
dubbed 36
dys@@ 36
e-up 36
emerged 36
encountered 36
epic 36
epoch 36
esis 36
eton 36
execute 36
exploration 36
f-@@ 36
fails 36
flavored 36
fraction 36
funk 36
ga@@ 36
gig@@ 36
gotten 36
grandmaster 36
gren 36
gri@@ 36
guru 36
handling 36
happening 36
hem@@ 36
hob@@ 36
hook 36
hybrid 36
iae 36
ice@@ 36
icity 36
igu@@ 36
illon 36
implemented 36
inda 36
informed 36
intermediate 36
ionary 36
iu 36
jin 36
kinetic 36
lateral 36
legions 36
lengths 36
loyalty 36
luck 36
m/O. 36
mathematicians 36
mbar 36
merge 36
metric 36
mic@@ 36
missed 36
monarchs 36
nationalist 36
nett 36
neuro@@ 36
nos@@ 36
numeral 36
oba 36
occurring 36
ocytes 36
ongo 36
oog@@ 36
ophile 36
ophone 36
ophy@@ 36
oured 36
overs 36
panel 36
participants 36
pass@@ 36
peanut 36
populous 36
portal 36
posed 36
posthumous 36
preacher 36
proposal 36
psychiatrist 36
punctuation 36
rain@@ 36
recover 36
red@@ 36
remin@@ 36
rent 36
repair 36
republican 36
requests 36
respond 36
revol@@ 36
rio 36
sed@@ 36
selenium 36
seller 36
she@@ 36
similarities 36
spectators 36
spinal 36
starch 36
sten@@ 36
striking 36
sts 36
summit 36
survivors 36
symphonies 36
tectonic 36
tering 36
thro@@ 36
tonnes 36
totally 36
tram@@ 36
trick 36
tus 36
ually 36
uba 36
valence 36
vampire 36
van@@ 36
varied 36
viewing 36
vill@@ 36
vol 36
was@@ 36
weaker 36
wr@@ 36
ó 36
(/O1986/O) 35
-1 35
.1 35
000@@ 35
00s 35
1,2@@ 35
1,5@@ 35
1100 35
129 35
144 35
150,000 35
1598 35
1658 35
1759 35
1799 35
1985-@@ 35
1986-@@ 35
2007-@@ 35
21-@@ 35
3,6@@ 35
3/O) 35
35,000 35
74@@ 35
9,000 35
Abb@@ 35
Alexei 35
Amalthea 35
Angelo 35
Annie 35
Annual 35
Argent@@ 35
Baader 35
Background 35
Backlash 35
Balkan 35
Basil@@ 35
Beatrice 35
Bella 35
Benelux 35
Bianca 35
Bin@@ 35
Bit@@ 35
Bowser 35
Built 35
Butler 35
Ca 35
Campus 35
Cath@@ 35
Cayman 35
Centauri 35
Chan 35
Chocolate 35
Colombian 35
Comman@@ 35
Conductor 35
Coptic 35
Cowboys 35
Creed 35
Danzig 35
Degree 35
Drenthe 35
EPs 35
Eis@@ 35
Elbe 35
Enlightenment 35
Erie 35
F.@@ 35
FF 35
Factor 35
Fag@@ 35
Fight 35
Financial 35
Finn@@ 35
Flam@@ 35
Flying 35
Form 35
Forth 35
Friend 35
Giotto 35
Gladman 35
Gutenberg 35
Hades 35
Hahn 35
Haute-@@ 35
Have 35
Hellenistic 35
Herman 35
Hi@@ 35
Hole 35
Honey 35
Il 35
Indi@@ 35
Inverness 35
Irene 35
Ismail 35
JR 35
Jak 35
Jedi 35
Jeff@@ 35
Judgment 35
Jum@@ 35
Kav@@ 35
Laur@@ 35
Laurent 35
Lester 35
Lu 35
Lucerne 35
Lyn@@ 35
MCM@@ 35
Maker 35
Mari@@ 35
Marion 35
Maynard 35
Melissa 35
Merit 35
Milkweed 35
Mult@@ 35
Muri 35
Myers 35
Nolan 35
Notre-Dame 35
Om@@ 35
Orig@@ 35
Parliamentary 35
Pers@@ 35
Pilate 35
Pilot 35
Planck 35
Playboy 35
Policy 35
Prepar@@ 35
Priest 35
Pyr@@ 35
Que@@ 35
Rest@@ 35
Resurrection 35
Ric 35
Rodrigo 35
Romanesque 35
Ryder 35
Sally 35
Scandinavia 35
Schmidt 35
Seasons 35
Sesame 35
Sham@@ 35
Shi@@ 35
Short@@ 35
Smoot 35
Solid 35
Someone 35
Spider-Man 35
Structural 35
Superior 35
Taoiseach 35
Teng@@ 35
Toscanini 35
Turin 35
Turn@@ 35
Valentine 35
Veda 35
Vik@@ 35
Vulcan 35
Wan 35
Wash@@ 35
Wis@@ 35
Wolves 35
ZoneAlarm 35
abdomen 35
ace@@ 35
ached 35
advertisements 35
aer@@ 35
agne 35
aldo 35
alisation 35
aller 35
aluminium 35
aman 35
anchors 35
approached 35
arc 35
aru 35
ather@@ 35
attending 35
azi 35
bamboo 35
bass@@ 35
bot 35
cancelled 35
cardiac 35
careful 35
casual 35
catal@@ 35
chil@@ 35
chlorine 35
chronic 35
clause 35
cliff 35
coaster 35
coasts 35
combine 35
comeback 35
constituent 35
cork 35
criticised 35
cultivated 35
cut@@ 35
defender 35
desired 35
digging 35
dinner 35
dir@@ 35
doctorate 35
documented 35
dra@@ 35
dramas 35
eable 35
eley 35
emat@@ 35
erosion 35
ession 35
eto 35
etus 35
eux 35
extensions 35
f. 35
fast@@ 35
fermentation 35
fertility 35
ffs 35
fi 35
fishermen 35
flown 35
frog 35
fs 35
fun@@ 35
gaining 35
gem@@ 35
ghost 35
gi 35
ginger 35
great-@@ 35
grinding 35
guidelines 35
hash 35
herb 35
honored 35
hummingbird 35
hypertension 35
ian-American 35
ianus 35
iger 35
ight-@@ 35
iker 35
implementation 35
iness 35
innocent 35
ipe 35
iri@@ 35
isotope 35
liber@@ 35
line-up 35
lithosphere 35
lon 35
long-@@ 35
longitude 35
maid 35
maple 35
mating 35
microscope 35
militia 35
miners 35
mint 35
mist@@ 35
mysterious 35
nan 35
no-@@ 35
ogo 35
oka 35
oles 35
omi 35
ongs 35
ono 35
ool 35
opa 35
opus 35
originating 35
osphere 35
ower 35
pi 35
pirate 35
poisoning 35
port@@ 35
portraits 35
preceding 35
preservation 35
printer 35
pronounce 35
protecting 35
pseud@@ 35
py 35
pylori 35
quar@@ 35
qui 35
quiet 35
rad 35
rang@@ 35
reggae 35
removal 35
reopened 35
retained 35
ril 35
scar 35
screenplay 35
seals 35
secret@@ 35
seeking 35
seven-@@ 35
shi 35
shogunate 35
shor@@ 35
skiing 35
solstice 35
solved 35
spite 35
stit@@ 35
summers 35
supposedly 35
tag@@ 35
tak@@ 35
tax@@ 35
telecommunications 35
textile 35
thickness 35
tickets 35
tilt 35
top@@ 35
touches 35
transparent 35
tundra 35
turbine 35
turtles 35
ucci 35
ultimately 35
underlying 35
vet 35
villain 35
ving 35
viral 35
vitamins 35
wanting 35
wax 35
whatever 35
whit@@ 35
wires 35
wisdom 35
wishes 35
wives 35
ycl@@ 35
1,4@@ 34
1,8@@ 34
1,9@@ 34
118@@ 34
149 34
1547 34
156 34
166 34
1700 34
1755 34
1769 34
1823 34
192 34
2/O) 34
2014 34
27,@@ 34
3.7 34
3x 34
66@@ 34
800,000 34
Agrippina 34
Albans 34
Albrecht 34
Antony 34
Arabs 34
Arach@@ 34
Aramaic 34
Author 34
Autonomous 34
Bach@@ 34
Bedfordshire 34
Benny 34
Better 34
Birds 34
Borat 34
Botswana 34
Brady 34
Brand 34
Bé@@ 34
CW 34
Caliph 34
Case 34
Catalonia 34
Champagne 34
Chicken 34
Chu@@ 34
Cobb 34
Cock@@ 34
Coming 34
Conc@@ 34
Conrad 34
Crescent 34
Cruella 34
Del 34
Drew 34
Dru@@ 34
Dry 34
Dunkirk 34
Ek@@ 34
Eris 34
Everest 34
Falling 34
Faust 34
Folk 34
Freddie 34
GRUB 34
Gallen 34
Gazette 34
German-@@ 34
Ghulam 34
Giacomo 34
Gili 34
Gillard 34
Gondwana 34
Guil@@ 34
Guthrie 34
Habitat 34
Habsburg 34
Hale 34
Hash@@ 34
Haunted 34
Hot@@ 34
Hotspur 34
IA 34
IE@@ 34
Interactive 34
Io 34
Journey 34
Judas 34
Judy 34
Keenan 34
Khal@@ 34
Kub@@ 34
Kum@@ 34
Kurdistan 34
Kw@@ 34
Lap@@ 34
Lass@@ 34
Let@@ 34
Lionel 34
Luna 34
Lü@@ 34
MO@@ 34
Maltese 34
Maluku 34
Manson 34
Mary@@ 34
Minardi 34
Miramax 34
Mirpur 34
Mitsubishi 34
Monsters 34
Motherwell 34
NS 34
Num@@ 34
OH 34
Orkney 34
Os 34
Packers 34
Pact 34
Panthers 34
Peruvian 34
Peterborough 34
Philippine 34
Plato 34
Poanes 34
Pok@@ 34
Potassium 34
Prayer 34
Presley 34
Price 34
Protection 34
Providence 34
Quart@@ 34
Rasputin 34
Raz@@ 34
Rebecca 34
Republicans 34
Resolution 34
Rican 34
Roll@@ 34
Roses 34
Row@@ 34
SF 34
SM@@ 34
SN@@ 34
Sailor 34
Saxe-Coburg 34
Say 34
Sharon 34
Shig@@ 34
Singer 34
Sporting 34
Srinagar 34
Step@@ 34
Stephanie 34
Stoke 34
Stones 34
Stu@@ 34
Subdivisions 34
Terminal 34
Transylvania 34
Trials 34
Umayyad 34
Urawa 34
Vera 34
Wah@@ 34
Wiki 34
Wisdom 34
Wonderland 34
Xavier 34
Zurzach 34
aa 34
abortions 34
acker 34
actively 34
ador 34
ailed 34
anal 34
antibodies 34
apa 34
attorney 34
audition 34
aÅ 34
barium 34
bei 34
bells 34
ben 34
bill@@ 34
ble 34
bos@@ 34
breakfast 34
brush 34
buff@@ 34
carefully 34
celebrities 34
cho 34
clade 34
clergy 34
cles 34
coaches 34
coefficient 34
com 34
commercials 34
coronation 34
couples 34
cycl@@ 34
deepest 34
deities 34
deletion 34
designing 34
dirty 34
disability 34
disco 34
disturbed 34
dock 34
dozen 34
drought 34
e-mail 34
eastward 34
ecological 34
electrified 34
emotions 34
employment 34
encoding 34
eni 34
equipped 34
flats 34
fluids 34
fract@@ 34
framework 34
fronts 34
fund 34
gothic 34
grains 34
grandchildren 34
gÃ 34
handed 34
harmful 34
harp 34
hymn 34
hymns 34
ially 34
iced 34
icky 34
icles 34
id-@@ 34
ifying 34
iller 34
impressed 34
impressive 34
improving 34
infant 34
infrared 34
init@@ 34
interpreted 34
intr@@ 34
irrigation 34
ital 34
itary 34
itic 34
ition@@ 34
jud@@ 34
ka@@ 34
kar@@ 34
keeper 34
kit 34
laureate 34
lav@@ 34
left-wing 34
ley@@ 34
lif@@ 34
lik@@ 34
listen 34
live-action 34
loading 34
loom 34
mal 34
mania 34
manor 34
masturbation 34
meg@@ 34
mel 34
mic 34
molluscs 34
multipl@@ 34
mythical 34
nick 34
nights 34
nitric 34
norm@@ 34
northward 34
nut 34
oan 34
ologies 34
ool@@ 34
opposing 34
orn 34
ound 34
outdoors 34
p.m. 34
perspective 34
pilots 34
portals 34
pose 34
pressed 34
prestigious 34
pride 34
principality 34
proportion 34
provider 34
pulmonary 34
py@@ 34
rematch 34
ripe 34
robot 34
saints 34
salad 34
schism 34
seating 34
sellers 34
shogun 34
silent 34
sixteenth 34
som@@ 34
somebody 34
spends 34
splitting 34
stud 34
submarine 34
suff@@ 34
surprised 34
suspected 34
synonym 34
tactics 34
teens 34
telegraph 34
thinner 34
throws 34
tidal 34
tracked 34
uals 34
ugs 34
uo 34
urb@@ 34
uted 34
virtually 34
voluntary 34
wake 34
wall@@ 34
warn 34
washing 34
wise 34
witches 34
withdraw 34
y-le-@@ 34
yÅ 34
zen@@ 34
ás 34
(/O1988/O) 33
(/O1989/O) 33
0.000 33
0E 33
1/2 33
185 33
2,500 33
235 33
3/@@ 33
70,000 33
87@@ 33
A1 33
Address 33
Aladdin 33
Alban 33
Albion 33
Alfa 33
Approximately 33
Athena 33
Audio 33
August@@ 33
Aw@@ 33
BBC@@ 33
BR 33
Bari 33
Beauty 33
Boo@@ 33
Botvinnik 33
Bowie 33
Byrd 33
CBBC 33
Cabin 33
Campania 33
Carlisle 33
Ch 33
Charing 33
Charleston 33
Chem@@ 33
Clyde 33
Communes 33
Complex 33
Corinthians 33
Crisis 33
Cum@@ 33
Cusco 33
Cycle 33
Def 33
Did 33
Distribution 33
Divine 33
Dont 33
Down@@ 33
ES 33
Edison 33
Emp@@ 33
Empires 33
Environmental 33
Epistle 33
Euston 33
Farm@@ 33
Fe 33
Fellowship 33
Finlay 33
Firth 33
Free@@ 33
Fres@@ 33
Game@@ 33
Gear 33
Geographic 33
Gib@@ 33
Gottfried 33
Grade 33
Groening 33
Haitian 33
Hang@@ 33
Hend@@ 33
Henderson 33
Hertha 33
Himachal 33
Himalayan 33
Hip@@ 33
Holl@@ 33
Hood 33
Hoover 33
Hussein 33
IO@@ 33
IT 33
Irvine 33
Isabel 33
Ital@@ 33
Ji@@ 33
John@@ 33
Jol@@ 33
Judge 33
Just@@ 33
K.@@ 33
Kalan 33
Kamakura 33
Kindle 33
Kojiki 33
Kre@@ 33
Kuiper 33
Kush 33
Lanc@@ 33
Languages 33
Leningrad 33
Lif@@ 33
Liga 33
Lingu@@ 33
MRT 33
Maccabees 33
Macedon 33
Mack@@ 33
Marcos 33
Maximilian 33
Mend@@ 33
Met 33
Minas 33
Mir 33
Mongols 33
Mormon 33
NC@@ 33
NES 33
Napoleonic 33
Newark 33
Norte 33
Nottinghamshire 33
Ole 33
Outstanding 33
Overijssel 33
P-@@ 33
Pandora 33
Paralympic 33
Parts 33
Pashto 33
Persians 33
Ph.D. 33
Polk 33
Porter 33
Principality 33
Progress 33
Provence 33
Py@@ 33
Reverend 33
Rid@@ 33
Rihanna 33
Roch@@ 33
Rog@@ 33
Roh@@ 33
Sand 33
Sandy 33
Schumann 33
Senna 33
Seville 33
Shel@@ 33
Sister 33
Spac@@ 33
Stravinsky 33
Sub 33
Taiwanese 33
Tank 33
Tart@@ 33
Tasman 33
Tig@@ 33
Tod 33
Too 33
Tramway 33
Ts@@ 33
V6 33
Velvet 33
Vers@@ 33
Warcraft 33
Wend@@ 33
Were 33
Womens 33
Wozzeck 33
Yemen 33
activists 33
aggressive 33
aira 33
ake@@ 33
alternating 33
anne 33
annes 33
antimony 33
array 33
artwork 33
ased 33
asia 33
aters 33
authentication 33
banjo 33
be-@@ 33
behaviour 33
believers 33
bol@@ 33
bony 33
branded 33
bushrangers 33
caf@@ 33
calculations 33
call@@ 33
cart@@ 33
certification 33
cham@@ 33
chili 33
cio 33
class@@ 33
climbed 33
clos@@ 33
cocaine 33
coconut 33
coli 33
collaboration 33
colon 33
coloring 33
combinations 33
competitor 33
comune 33
convent 33
corruption 33
costume 33
crabs 33
cross-@@ 33
dea 33
depths 33
dio 33
discontinued 33
discovering 33
dolphin 33
drowned 33
elect@@ 33
eli 33
enclosed 33
ennes 33
ensions 33
enstein 33
enti@@ 33
enza 33
eph@@ 33
eron 33
es\/@@ 33
esa 33
esch@@ 33
escu 33
esian 33
everywhere 33
ews 33
fate 33
favorable 33
fet@@ 33
fin 33
fins 33
flat@@ 33
focal 33
forty-@@ 33
foundations 33
free-@@ 33
frozen 33
gan 33
generals 33
grace 33
gradient 33
guy 33
hai 33
half-brother 33
headquartered 33
hl 33
hyd@@ 33
iev@@ 33
iform 33
inorganic 33
invades 33
ionism 33
ios@@ 33
iri 33
isse 33
iving 33
jar 33
jer@@ 33
lab 33
laboratories 33
lam@@ 33
laps 33
letting 33
lia 33
logarithm 33
lor@@ 33
lovers 33
markings 33
meiosis 33
melodic 33
missile 33
monasteries 33
mult@@ 33
nom@@ 33
north@@ 33
nuclei 33
oct@@ 33
ods 33
ooks 33
orts 33
osaur 33
ott 33
overthrow 33
own@@ 33
phosphorus 33
pirates 33
plague 33
ple@@ 33
pods 33
predatory 33
printers 33
prodigy 33
programmer 33
rants 33
rect@@ 33
reddish 33
resolved 33
rested 33
reunited 33
sailors 33
san@@ 33
sent@@ 33
smallpox 33
south-eastern 33
spikes 33
spiny 33
stability 33
stole 33
strÃ 33
tap@@ 33
tem@@ 33
thor@@ 33
trac@@ 33
trop@@ 33
ull 33
utility 33
ver 33
wel@@ 33
west-@@ 33
whis@@ 33
wil@@ 33
xes 33
yas 33
yro@@ 33
Ó 33
à@@ 33
är@@ 33
(/O192@@ 32
.7 32
113 32
138 32
1785 32
18,@@ 32
19-@@ 32
2001-@@ 32
20s 32
210 32
216 32
800@@ 32
AM@@ 32
Aarau 32
Act@@ 32
Adrastea 32
Agrippa 32
Aguilera 32
Alison 32
Alm@@ 32
Amar@@ 32
Arezzo 32
Armani 32
Aurora 32
Autumn 32
Bam@@ 32
Bartók 32
Bathurst 32
Bertrand 32
Biden 32
Bohemian 32
Braun 32
Brawn 32
Bö@@ 32
Bü@@ 32
Cars 32
Ces@@ 32
Chand@@ 32
Chrysler 32
Château 32
Clan 32
Co-operative 32
Compl@@ 32
Connor 32
Crit@@ 32
Cyclone 32
Dana 32
Danes 32
Dmitri 32
Dod@@ 32
Dominic 32
Doug 32
Dow 32
Downs 32
Dragons 32
Dürer 32
Eb@@ 32
Ein@@ 32
Eli@@ 32
Elliott 32
Emergency 32
Essjay 32
Expedition 32
Fear 32
Fir@@ 32
Franco-Prussian 32
Futurama 32
GB 32
Gaz@@ 32
HIV 32
Hog@@ 32
Hogan 32
Hunger 32
Huntsville 32
Hydrogen 32
Indy 32
Inv@@ 32
Jav@@ 32
Job 32
Joy 32
Judah 32
KDE 32
Kaw@@ 32
Kes@@ 32
Ket@@ 32
Kow@@ 32
Landkreis 32
Larix 32
Layer 32
Learning 32
Livingston 32
Livorno 32
Loc@@ 32
Lot@@ 32
Lou 32
Lub@@ 32
Lynch 32
M-@@ 32
Madeleine 32
Mae 32
Making 32
Mandaeans 32
Manning 32
Marseille 32
Marty 32
Mean 32
Mercy 32
MiG-@@ 32
Midnight 32
Mikoto 32
Mont 32
Mou@@ 32
Moving 32
Mysore 32
Namli 32
Net 32
Olivier 32
Olympians 32
Perfect 32
Peugeot 32
Piquet 32
Play 32
Pompey 32
Pops 32
RT 32
Ram 32
Rang@@ 32
Rap@@ 32
Rawalpindi 32
Resort 32
Rheinfelden 32
Romulus 32
Rouen 32
Royals 32
Rubinstein 32
Rust@@ 32
SF@@ 32
SM 32
SP 32
Saint-Martin-@@ 32
Save 32
Schwerin 32
Scouts 32
Sex@@ 32
Sheikh 32
Siena 32
Snake 32
Sob@@ 32
Southwestern 32
Spanish-@@ 32
Stowe 32
Taliban 32
Tripoli 32
Turn 32
Twitter 32
Ulrich 32
Vas@@ 32
Vend@@ 32
Vent@@ 32
Vog@@ 32
Welcome 32
Whittier 32
Wiener 32
Woodrow 32
Zo@@ 32
absent 32
acceleration 32
acceptable 32
acclaim 32
acet@@ 32
ad-@@ 32
adem@@ 32
aft 32
age@@ 32
aken 32
altar 32
ambulance 32
anic 32
annon 32
antiquity 32
appointment 32
approaches 32
arin 32
armored 32
arriving 32
asso 32
aton 32
attractive 32
aunt 32
aviation 32
ayer 32
backwards 32
bananas 32
beginnings 32
blog 32
bombed 32
bon 32
bore 32
borg 32
bow@@ 32
bud@@ 32
campuses 32
castles 32
centimetres 32
cephalopods 32
cheaper 32
chim@@ 32
chips 32
ci 32
cle@@ 32
closure 32
commercially 32
comprehensive 32
conflicts 32
consciousness 32
crip@@ 32
crushed 32
daylight 32
decreased 32
deposit 32
distr@@ 32
ducks 32
e.@@ 32
edes 32
edia 32
ega 32
emaker 32
encrypted 32
enia 32
enk@@ 32
enna 32
enton 32
enz 32
equilibrium 32
erected 32
exceptions 32
explorers 32
explosions 32
feedback 32
forecast 32
forum 32
fragments 32
frogs 32
frontier 32
gi@@ 32
gin 32
glove 32
gold@@ 32
grandparents 32
grid 32
gro@@ 32
gusts 32
halls 32
harmony 32
hed@@ 32
hei 32
hler 32
hu 32
hunger 32
hunted 32
ialism 32
icate 32
icking 32
identification 32
ient 32
ili 32
immigration 32
imo 32
imposed 32
inian 32
invertebrates 32
iver 32
izer 32
journalism 32
joystick 32
ju 32
jumped 32
jumps 32
kal@@ 32
lawsuit 32
laying 32
light@@ 32
linking 32
lob@@ 32
managers 32
manufacture 32
mem@@ 32
memories 32
microscopic 32
motors 32
nas 32
nberg 32
nez 32
nickel 32
nobles 32
north-western 32
nur@@ 32
occupies 32
ogram 32
oline 32
oo-@@ 32
ophiles 32
outdoor 32
oven 32
owa 32
penal 32
perc@@ 32
perihelion 32
person@@ 32
phenomena 32
popularly 32
possess 32
predator 32
pref@@ 32
promises 32
quick@@ 32
rabbits 32
raids 32
raz@@ 32
realm 32
recognizes 32
reflecting 32
relating 32
reporting 32
romance 32
ser 32
short-@@ 32
shÅ 32
sop@@ 32
sor@@ 32
spinning 32
stairs 32
stedt 32
step@@ 32
storing 32
subcontinent 32
sul@@ 32
sâ 32
tablets 32
tern@@ 32
tetrapods 32
textiles 32
thallium 32
theorems 32
theorist 32
threats 32
torch 32
trance 32
treasure 32
tumor 32
unions 32
utes 32
uts 32
val 32
venomous 32
venture 32
venue 32
venues 32
watershed 32
wid@@ 32
witchcraft 32
wyn 32
yar 32
&@@ 31
.0 31
/ORGANIZATION. 31
11,000 31
11-@@ 31
121 31
1502 31
1625 31
1688 31
1746 31
1758 31
178@@ 31
2002-@@ 31
250,000 31
3.0 31
85@@ 31
8\/@@ 31
Aar@@ 31
Actors 31
Agnes 31
Allah 31
Amateur 31
Anatolia 31
Angl@@ 31
Angus 31
Anim@@ 31
Aran@@ 31
Arbor 31
Archduke 31
Arlington 31
Asiatic 31
BR@@ 31
Baird 31
Balk@@ 31
Banda 31
Barenboim 31
Behind 31
Bennington 31
Bertha 31
Bhutan 31
Blind 31
Boh@@ 31
Bordeaux 31
Béla 31
Caes@@ 31
Calder 31
Cavendish 31
Cedar 31
Chap@@ 31
Chart@@ 31
Christoph 31
Chron@@ 31
Clank 31
Co-@@ 31
Cob@@ 31
Coffee 31
Colon@@ 31
Cott@@ 31
Cowra 31
DE 31
Dag@@ 31
Damn 31
Dat@@ 31
Depending 31
Diary 31
Dirty 31
Doctrine 31
Eil@@ 31
Emanuel 31
Encryption 31
Encyclopædia 31
Euler 31
Eurasian 31
Evangelical 31
Falkland 31
Fender 31
Fermat 31
Ferry 31
Fighter 31
Franconia 31
Frankenstein 31
Gad@@ 31
Galicia 31
Galilee 31
Gateway 31
Gato 31
Gerry 31
Giles 31
Gos@@ 31
Grieg 31
Groß@@ 31
Guest 31
Gödel 31
Hannover 31
Hazara 31
Helene 31
Hig@@ 31
Highlands 31
Holman 31
Honolulu 31
Honours 31
Hooker 31
Hours 31
Huygens 31
I.@@ 31
II@@ 31
ISA 31
Ignacio 31
Jew 31
Jewitt 31
Judd 31
Kaiser 31
Kak@@ 31
Kannada 31
Keane 31
Kell@@ 31
Kelsey 31
Kendrick 31
Kim@@ 31
Kozlov 31
LAN 31
Ladies 31
Lands 31
Laredo 31
Lawless 31
Leagues 31
Look 31
Macropus 31
Mainz 31
Marathon 31
Mariana 31
Minh 31
Mirza 31
Moines 31
Mongolian 31
Monty 31
Moody 31
Moon@@ 31
Mowgli 31
Mt. 31
Mé@@ 31
NSDAP 31
Naismith 31
Namibia 31
Natasha 31
Nationwide 31
Nest@@ 31
Nord 31
O'Brien 31
Olympia 31
Omar 31
Oper@@ 31
Ott@@ 31
PA@@ 31
Pakistans 31
Partition 31
Patterson 31
Pav@@ 31
Perc@@ 31
Perhaps 31
Polynesia 31
Pref@@ 31
Presbyterian 31
Prescott 31
Qatar 31
Question 31
Quintana 31
RKO 31
RS 31
Rah@@ 31
Rams 31
Randolph 31
Ratchet 31
Raven 31
Redwall 31
Rhee 31
Riemann 31
River@@ 31
Rocket 31
Rodney 31
Saint-Pierre-@@ 31
Samoa 31
Savage 31
Saw@@ 31
Sawyer 31
Saxe-Weimar 31
Say@@ 31
Schubert 31
Shawnee 31
Shi 31
Ship@@ 31
Sinclair 31
Smithsonian 31
Smokey 31
Socratic 31
Sop@@ 31
Squad 31
Started 31
Stop 31
Strat@@ 31
Stratford 31
Sur 31
Swabia 31
Tah@@ 31
Taxonomy 31
Theremin 31
Thistle 31
Tib@@ 31
Tol@@ 31
Trevor 31
Trojans 31
Truth 31
Typical 31
Typically 31
Ulm 31
Uzbekistan 31
V10 31
VC 31
Val 31
Valuable 31
Versions 31
Visual 31
Vs 31
Wade 31
Wanderers 31
Watch 31
Whis@@ 31
Wilmington 31
Wolf@@ 31
Woodstock 31
Wu 31
XX 31
__ 31
accepts 31
acclaimed 31
acle 31
acles 31
aeus 31
airplanes 31
alt 31
amar@@ 31
amon 31
ancourt 31
anner 31
annexed 31
annuals 31
answers 31
arches 31
ard-@@ 31
arius 31
assisted 31
astic 31
asylum 31
aver 31
aying 31
barely 31
beetle 31
believing 31
bes@@ 31
bordering 31
brackish 31
burger 31
caps 31
capturing 31
cardinal 31
catching 31
chem@@ 31
cher@@ 31
chick@@ 31
chor@@ 31
classics 31
closes 31
comb 31
comets 31
commerce 31
compass 31
compressed 31
conferences 31
contr@@ 31
conv@@ 31
criteria 31
dan 31
dawn 31
decisive 31
deg@@ 31
dell 31
dem 31
depicted 31
deposed 31
depot 31
devil 31
dic@@ 31
disc@@ 31
dolls 31
dramatist 31
ebr@@ 31
ecology 31
ector 31
educ@@ 31
eight-@@ 31
elaborate 31
electr@@ 31
elo 31
embassy 31
enda 31
endor@@ 31
err@@ 31
etting 31
evacuation 31
evangelical 31
flee 31
flexible 31
forts 31
garage 31
geisha 31
graphical 31
gymnastics 31
had@@ 31
hardt 31
harmonica 31
healing 31
hee 31
hilly 31
horse@@ 31
hr 31
ia-@@ 31
iah 31
iat 31
icas 31
icist 31
icks 31
icted 31
ignored 31
ikon 31
illus 31
illustrations 31
illustrator 31
implement 31
improvement 31
inghem 31
inn 31
inter 31
intervals 31
interviewed 31
intestine 31
iop@@ 31
irc@@ 31
it-@@ 31
itors 31
ively 31
jects 31
kilometre 31
kl@@ 31
lad@@ 31
lawn 31
lays 31
lecturer 31
lic@@ 31
lineage 31
lish 31
lobsters 31
lords 31
maintains 31
membranes 31
merchants 31
metaphor 31
metro 31
moisture 31
multiplication 31
nam 31
nectar 31
ny@@ 31
occupying 31
ofen 31
olf@@ 31
omy 31
ood 31
optional 31
padd@@ 31
papal 31
patents 31
pers@@ 31
ph 31
pit@@ 31
pland 31
po 31
point@@ 31
postulate 31
prefix 31
preparing 31
prostitution 31
protective 31
pulp 31
pushing 31
que@@ 31
quest 31
rah 31
rape 31
re-election 31
readings 31
regardless 31
resemble 31
resign 31
resource 31
retire 31
revisions 31
ridae 31
ried 31
right-handed 31
riot 31
rookie 31
rowing 31
sav@@ 31
saxophone 31
seventeen 31
severely 31
shelters 31
shoulders 31
sights 31
similarly 31
sixty 31
skaya 31
smith 31
soda 31
spawned 31
spherical 31
staying 31
steal 31
subset 31
suggestion 31
sulfuric 31
surrounds 31
symmetric 31
symmetry 31
systematic 31
tab 31
tal 31
targeted 31
tered 31
thal@@ 31
thriller 31
tow@@ 31
trad@@ 31
treatments 31
twinned 31
twisted 31
ubs 31
unification 31
unrelated 31
urban@@ 31
us-@@ 31
valued 31
vandalism 31
var@@ 31
vice-@@ 31
ville-@@ 31
virgin 31
wavelength 31
weights 31
yal 31
ène 31
ð@@ 31
0/O) 30
1,000,000 30
146 30
1460 30
1610 30
1612 30
1685 30
1725 30
1728 30
1744 30
1753 30
2.8 30
260 30
270 30
29.@@ 30
365 30
4,8@@ 30
50-@@ 30
550 30
6/@@ 30
65@@ 30
89@@ 30
9.5 30
Aborigines 30
Achievement 30
Afrikaans 30
Alpine 30
Andorra 30
Antigua 30
Arc 30
Ascension 30
Astro@@ 30
Aviation 30
Aziz 30
BS@@ 30
Bast@@ 30
Beer 30
Bernardino 30
Blanc 30
Bombardier 30
Brixton 30
Brunei 30
Bulgakov 30
Burn@@ 30
Caligula 30
Camilla 30
Campo 30
Cantonese 30
Casey 30
Charts 30
Cheese 30
Chlor@@ 30
Claudia 30
Cli@@ 30
Comic 30
Communion 30
Como 30
Conan 30
Concord 30
Conf@@ 30
Cool 30
Cordillera 30
Cowboy 30
Critics 30
Cry 30
Cybermen 30
Côte 30
Dalmatians 30
Darmstadt 30
Database 30
Dead@@ 30
Dera 30
Develop@@ 30
Dial@@ 30
Dogs 30
Dorian 30
EP@@ 30
Ella 30
Eminem 30
Erz@@ 30
Eur@@ 30
Fabian 30
Fern@@ 30
Ferrara 30
Fla@@ 30
Flores 30
Fou@@ 30
Frisian 30
GC@@ 30
Galerius 30
Gan@@ 30
Gerais 30
Gig@@ 30
Gn@@ 30
Guns 30
Gö@@ 30
Görlitz 30
HAL 30
Half-Life 30
Hamlin 30
Hank 30
Harriet 30
Henn@@ 30
Hes@@ 30
Howe 30
Hummingbird 30
IB@@ 30
Inuit 30
Italia 30
Jasper 30
Jay-Z 30
Kash@@ 30
Kath@@ 30
Kaulitz 30
Kind@@ 30
Kingdoms 30
Ko 30
Kwun 30
LI@@ 30
Laden 30
Lah@@ 30
Lanark 30
Lindsay 30
Linus 30
Lucius 30
MHz 30
Mahal 30
Matthews 30
Mayan 30
Medi@@ 30
Medina 30
Mid-@@ 30
Moldova 30
Monarch 30
Monte@@ 30
Mumbai 30
Musicians 30
NWA 30
NY 30
Nassau 30
Nigel 30
Noah 30
Notre 30
Observ@@ 30
Oceanic 30
Oh 30
Oldham 30
Oracle 30
Ordovician 30
Oval 30
Overall 30
Oz@@ 30
Paso 30
Performing 30
Pian@@ 30
Picasso 30
Pier 30
Plac@@ 30
Plas@@ 30
Polish-Lithuanian 30
Post-@@ 30
Publishers 30
Reform 30
Requiem 30
Rising 30
Rita 30
Rotten 30
Rud@@ 30
Sami 30
Sanc@@ 30
Scott@@ 30
Sergio 30
Severn 30
Ship 30
Silesia 30
Silverstone 30
Sint-@@ 30
Sokka 30
Soviets 30
Spears 30
Split 30
Staunton 30
Swahili 30
TO@@ 30
TS 30
TV@@ 30
Thatcher 30
Thom@@ 30
Tina 30
Tit@@ 30
Titan@@ 30
Tobago 30
Tours 30
Triangle 30
Trio 30
UC@@ 30
Uganda 30
Ultra 30
Unicode 30
Viscount 30
Wald@@ 30
Whitehall 30
Wins 30
Wistert 30
Yan@@ 30
Yok@@ 30
Yon@@ 30
Yuan 30
Yuk@@ 30
Zam@@ 30
abundant 30
acceptance 30
accurately 30
actresses 30
agi 30
air-@@ 30
airlines 30
aling 30
amusement 30
antennae 30
anÃ 30
appoint 30
apprentice 30
approaching 30
arcade 30
ardi 30
asis 30
atch@@ 30
aths 30
avian 30
ayan 30
azu 30
backed 30
bandwidth 30
baseman 30
batting 30
behaviors 30
besides 30
bio 30
biologists 30
biomes 30
bison 30
blue-@@ 30
botanical 30
botany 30
buffalo 30
bullet 30
burst 30
cali@@ 30
calm 30
cared 30
categor@@ 30
ceramic 30
chan@@ 30
circumference 30
colonization 30
colorful 30
completion 30
conditional 30
conducts 30
consort 30
conventions 30
crocodile 30
darker 30
decree 30
deeply 30
deity 30
demonstrate 30
deser@@ 30
developmental 30
disappear 30
dismissed 30
dly 30
dt 30
duchies 30
dug 30
ease 30
eger 30
ellan@@ 30
emphasis 30
enas 30
ende 30
endemic 30
endi 30
endurance 30
eners 30
enstadt 30
entities 30
eption 30
equality 30
erie 30
escapes 30
esville 30
eternal 30
etro@@ 30
evacuated 30
expressions 30
extr@@ 30
extracted 30
fan@@ 30
fauna 30
feared 30
feeds 30
fib@@ 30
fif@@ 30
fission 30
flame 30
flip@@ 30
footage 30
fu 30
full-@@ 30
g-@@ 30
gal@@ 30
gale 30
gallery 30
harmonic 30
helpful 30
heresy 30
hij@@ 30
hopes 30
icy 30
ident@@ 30
ignor@@ 30
improvements 30
integral 30
integrity 30
iques 30
isl@@ 30
islav 30
iter@@ 30
itta 30
izz@@ 30
joke 30
kilograms 30
lang 30
led@@ 30
legacy 30
legitimate 30
marching 30
marsupial 30
mart@@ 30
mass/O. 30
matic 30
metamorphic 30
midnight 30
miss@@ 30
modules 30
monetary 30
mus 30
nal 30
nat@@ 30
nemat@@ 30
neurons 30
neutron 30
nudity 30
objective 30
octopus 30
oding 30
ois@@ 30
ologically 30
oop 30
oratorio 30
ovce 30
ow-@@ 30
phen@@ 30
pist@@ 30
placement 30
poisonous 30
politically 30
powdered 30
pp@@ 30
press@@ 30
produc@@ 30
profit 30
programmers 30
pul@@ 30
qualities 30
rav@@ 30
reproductive 30
reservoir 30
residential 30
resorts 30
rigid 30
rology 30
ropes 30
roses 30
round@@ 30
rus 30
sack 30
sacrifice 30
sandstone 30
satellites 30
secured 30
sensory 30
sham 30
sharps 30
shifted 30
siblings 30
silicon 30
stake 30
steals 30
stock@@ 30
suborder 30
sultan 30
superior 30
supermarket 30
swamp 30
symbol@@ 30
tang@@ 30
telescopes 30
ten-@@ 30
terrible 30
texture 30
th-century 30
thal 30
thicker 30
thirteenth 30
thy 30
tide 30
toes 30
tones 30
trainer 30
tree-@@ 30
tub@@ 30
tul@@ 30
turbines 30
two-thirds 30
uncertainty 30
unk 30
usable 30
ushing 30
vaccines 30
veterans 30
vocabulary 30
vÃ 30
welfare 30
wetlands 30
wi 30
wo 30
wolves 30
wom@@ 30
womens 30
ône 30
(/O196@@ 29
,000,000 29
,500 29
-et-@@ 29
13,000 29
1519 29
1766 29
1850s 29
1870s 29
1997-@@ 29
2,0@@ 29
28th 29
4.2 29
5.1 29
7/@@ 29
:30 29
AHL 29
Additionally 29
Aeg@@ 29
Ahmed 29
Ale@@ 29
Alf@@ 29
Alsace 29
Aphrodite 29
Arrow 29
Australopithecus 29
Balance 29
Bantu 29
Barium 29
Beck 29
Bee 29
Believe 29
Biological 29
Black-@@ 29
Bott@@ 29
Boyd 29
Brandy 29
Brave 29
Bride 29
Browne 29
Bull@@ 29
Burnside 29
Candidates 29
Capitals 29
Carmel 29
Casaya 29
Chambers 29
Changes 29
Chichester 29
Chin 29
Chola 29
Christine 29
Combat 29
Commercial 29
Contemporary 29
Controversy 29
Conv@@ 29
Cook@@ 29
Corv@@ 29
Curse 29
DIA 29
Dale 29
Dar 29
Davy 29
Det@@ 29
Domitian 29
Dong 29
Electro@@ 29
Elijah 29
Elimination 29
Emerson 29
Epping 29
Erwin 29
Euclidean 29
Eyes 29
Faroe 29
Few 29
Fing@@ 29
Flav@@ 29
Fleming 29
Fried@@ 29
Fuj@@ 29
Fuji 29
Fuk@@ 29
Fulham 29
Funk 29
Féin 29
Gang@@ 29
Gap 29
Gis@@ 29
Goat 29
Gould 29
Grandmaster 29
Graves 29
Gregg 29
Gren@@ 29
Grig@@ 29
Hack@@ 29
Hand 29
Hansen 29
Hate 29
Haut@@ 29
Hermes 29
Himalayas 29
Hogwarts 29
Horde 29
Hound 29
Hyper@@ 29
IV@@ 29
Indo-Aryan 29
Ins@@ 29
Instant 29
Irving 29
Isla 29
Jacksonville 29
Jap@@ 29
Jenna 29
Jet@@ 29
Jill 29
Jor@@ 29
Kant 29
Khowar 29
Kolding 29
Konietzko 29
Kyi 29
Latter-day 29
Laurence 29
Leakey 29
Legislative 29
Leh@@ 29
Levy 29
Liberia 29
Lily 29
Linnaeus 29
Lis@@ 29
Lubbock 29
Lut@@ 29
Luton 29
Lyndon 29
MA@@ 29
Manor 29
Mant@@ 29
Marlborough 29
Mathematical 29
Matrix 29
Mayo 29
Meher 29
Memories 29
Meyer 29
Mina 29
Moe 29
Mog@@ 29
Mov@@ 29
Mu 29
Mustafa 29
Namco 29
Nevertheless 29
None 29
Normally 29
Northumberland 29
Offenbach 29
Pakistan@@ 29
Palak 29
Pep@@ 29
Petro@@ 29
Pill@@ 29
Pitt 29
Plastic 29
Portman 29
Portrait 29
Prato 29
Predators 29
Principles 29
Prokofiev 29
Protector 29
Quarter 29
Quest 29
Quran 29
Ramadan 29
Related 29
Relations 29
Robot 29
Rocks 29
Roth@@ 29
Salaam 29
Sargent 29
Satellite 29
Sax@@ 29
Screen 29
Seconds 29
Seine 29
Serial 29
Severus 29
Sorai 29
Sorbian 29
Soul@@ 29
Southeastern 29
Spike 29
Staat@@ 29
Stri@@ 29
Structure 29
Succession 29
Techn@@ 29
Temp@@ 29
Territorial 29
Thule 29
Tosh 29
Traffic 29
Tribe 29
URL 29
Umaga 29
Uran@@ 29
Venezuelan 29
Ville 29
Villeneuve 29
Vinci 29
Voivodeship 29
Wes@@ 29
Wife 29
Wiley 29
Willem 29
Yak@@ 29
Zero 29
a. 29
a.@@ 29
adu 29
advisor 29
affecting 29
afford 29
ais@@ 29
al\/@@ 29
allo 29
ally-@@ 29
ander@@ 29
ane@@ 29
ankle 29
announcer 29
apper 29
arth 29
associations 29
atives 29
ator@@ 29
atti 29
avel@@ 29
ayed 29
bad@@ 29
banknotes 29
batteries 29
big@@ 29
boiled 29
bok 29
brightness 29
brow@@ 29
brÃ 29
cage 29
casting 29
chlor@@ 29
circa 29
ck@@ 29
coding 29
colleagues 29
complained 29
completing 29
conceived 29
connectors 29
conquer 29
consequence 29
continuously 29
copying 29
cos 29
costumes 29
cra@@ 29
cruise 29
cube 29
cultivars 29
cyan 29
deadly 29
demon 29
digestion 29
disqualification 29
disturbance 29
dont 29
duet 29
ein 29
els@@ 29
ely-@@ 29
employs 29
enbach 29
encounter 29
enrolled 29
essentially 29
ever@@ 29
evi 29
eviÄ 29
exhibitions 29
exports 29
extant 29
eze 29
feudal 29
filed 29
fir@@ 29
fits 29
flask 29
foothills 29
foreskin 29
frost 29
ft. 29
galleries 29
gameplay 29
gather 29
geneticist 29
goats 29
govern 29
gues 29
hats 29
helicopter 29
high@@ 29
highlands 29
homeland 29
hot@@ 29
hypo@@ 29
ibo 29
ici@@ 29
icing 29
ific@@ 29
iformes 29
ights 29
ilo 29
implies 29
inactive 29
incarnation 29
industri@@ 29
infects 29
inflammation 29
informally 29
institute 29
interactions 29
interfaces 29
interrupt 29
ionists 29
ior 29
ireann 29
iron@@ 29
isi 29
ive-@@ 29
judgment 29
ket 29
ket@@ 29
landmark 29
landscapes 29
lear@@ 29
lins 29
listening 29
lus 29
magenta 29
math@@ 29
monitor 29
mul@@ 29
musket 29
nationally 29
nebula 29
non-governmental 29
nucle@@ 29
obsidian 29
occupy 29
ograph@@ 29
ographer 29
ometers 29
onda 29
ongoing 29
origami 29
orius 29
pad 29
panels 29
participation 29
pathogens 29
pedestrian 29
pez 29
pins 29
plankton 29
pling 29
pouch 29
precisely 29
presently 29
psychedelic 29
psychiatric 29
pyro@@ 29
pÃ 29
questioned 29
quote 29
rack 29
rainforest 29
rainy 29
rebuilding 29
recreational 29
recurring 29
reefs 29
reflect 29
replication 29
requested 29
requiring 29
responsibilities 29
reunification 29
revived 29
riders 29
rine 29
rituals 29
rk 29
rot 29
rous 29
sac@@ 29
sar@@ 29
saturated 29
schemes 29
second-largest 29
senses 29
shepherd 29
shocked 29
shutouts 29
sia 29
sightings 29
skilled 29
solvent 29
souls 29
specialist 29
specification 29
starter 29
steady 29
sten 29
stom@@ 29
sty 29
substantial 29
suffix 29
suh@@ 29
superscalar 29
sur-Mer 29
surge 29
symbolic 29
tabl@@ 29
taller 29
tears 29
tly 29
touching 29
transform 29
ts@@ 29
tuning 29
uchi 29
uel@@ 29
ulates 29
ultimate 29
unfinished 29
uninhabited 29
update 29
uprising 29
uster 29
uy@@ 29
vagina 29
veg@@ 29
vibr@@ 29
vo 29
warned 29
wash 29
wasps 29
welcome 29
wn 29
yed 29
yon 29
ysis 29
zzo 29
zÃ 29
ß@@ 29
ï@@ 29
'd 28
've 28
-and-@@ 28
-l 28
114 28
142 28
1485 28
1509 28
1513 28
1582 28
1619 28
1620 28
1648 28
1662 28
1762 28
2,5@@ 28
2/@@ 28
2003-@@ 28
2005-@@ 28
2009-@@ 28
2018 28
300@@ 28
5,0@@ 28
AN 28
AU 28
Adam@@ 28
Aegean 28
Agent 28
Agu@@ 28
Allahyar 28
Amor 28
Anal@@ 28
Analysis 28
Anders 28
Andr@@ 28
Anth@@ 28
Arad 28
BAFTA 28
BM@@ 28
BREL 28
Baden-Powell 28
Barbie 28
Baxter 28
Bibliography 28
Birth 28
Bomb@@ 28
Borneo 28
Bru@@ 28
Buchanan 28
Buck@@ 28
Busch 28
Butcher 28
CIA 28
Camb@@ 28
Campeche 28
Capablanca 28
Cargo 28
Carme 28
Carr@@ 28
Carthage 28
Chandler 28
Character 28
Chittagong 28
Citizens 28
Clapton 28
Cler@@ 28
Cornish 28
Crossing 28
Cruiserweight 28
DP 28
DS@@ 28
Dalek 28
Daxter 28
Delacour 28
Doom 28
Dys@@ 28
EN@@ 28
ESPN 28
Eduard 28
Electrical 28
Enfield 28
Esgrima 28
Evening 28
Exhibition 28
Eyre 28
FS 28
Fairfax 28
Faithful 28
Flat 28
Flower 28
Formation 28
Fortune 28
Frog 28
GFDL 28
GM 28
GP@@ 28
Gau@@ 28
Genetics 28
Genoa 28
Glendale 28
Gorg@@ 28
Greens 28
Grow 28
Guj@@ 28
Gyeong@@ 28
Hach@@ 28
Haynes 28
Hick@@ 28
Hittite 28
Horace 28
Hunters 28
Hut@@ 28
Hydro@@ 28
Images 28
Instruction 28
Internal 28
Interview 28
Irwin 28
Itza 28
Ives 28
Javier 28
Jeremiah 28
Jin 28
Jung 28
Kapellmeister 28
Katamari 28
Kauai 28
Kijiji 28
Kitts 28
Kitty 28
Knowledge 28
Konrad 28
Kublai 28
Kwok 28
L-@@ 28
Larch 28
Laufenburg 28
Lazio 28
Lilly 28
List@@ 28
Lives 28
Louis-@@ 28
Lucia 28
Lucky 28
Lum@@ 28
M6 28
MSN 28
Maccabi 28
Madden 28
Malawi 28
Manz@@ 28
Mar 28
Marguerite 28
Massa 28
Mayr 28
McLean 28
Meadows 28
Mello 28
Merckx 28
Meridian 28
Mersenne 28
Method 28
Morph@@ 28
Mr 28
Muk@@ 28
Murder 28
Muzaffarabad 28
Nagasaki 28
Natalie 28
Nathaniel 28
Nationals 28
Nevis 28
Nielsen 28
Nightmare 28
Noh 28
Occupation 28
Oct@@ 28
Old@@ 28
Olympus 28
PM 28
Paint@@ 28
Palazzo 28
Pallas 28
Paolo 28
Parallel 28
Patroclus 28
Pearson 28
Pine 28
Pis@@ 28
Pla@@ 28
Pog@@ 28
Poker 28
Ponce 28
Portia 28
Praetorian 28
Prophet 28
Provincial 28
Rhy@@ 28
Riley 28
Roads 28
Romero 28
Rudd 28
Rye 28
Rö@@ 28
SU 28
SW@@ 28
Sabbath 28
Sach@@ 28
Saharan 28
Sale 28
Samantha 28
Santana 28
Sap@@ 28
Satoshi 28
Scholars 28
Semitic 28
Serbs 28
Shannon 28
Sib@@ 28
Sindhi 28
Sit@@ 28
Six@@ 28
Skinner 28
Sources 28
Southwark 28
Spect@@ 28
Strasbourg 28
Summertime 28
Superman 28
Tann@@ 28
Taunton 28
Theft 28
Tomatoes 28
Tool 28
Unity 28
Uppsala 28
Vaud 28
Veronica 28
Ves@@ 28
Vig@@ 28
Volcanic 28
Vortex 28
Wed@@ 28
Wey@@ 28
Wills 28
Wittenberg 28
Wollstonecraft 28
Yankee 28
Yellowstone 28
Ying 28
Zheng 28
abs 28
adopt 28
agen 28
aha 28
aim@@ 28
akin 28
alk@@ 28
all-time 28
amas 28
ambush 28
amphibians 28
analogy 28
angel@@ 28
aning 28
announce 28
ant-@@ 28
ante@@ 28
archy 28
arianism 28
assets 28
aste 28
atch 28
badge 28
balloon 28
banking 28
baptized 28
bay@@ 28
behave 28
betting 28
blades 28
boot@@ 28
brave 28
broadly 28
bytes 28
cane 28
cant@@ 28
careers 28
certainly 28
certificate 28
chairs 28
chÃ 28
claw 28
clerk 28
climbs 28
co-founded 28
cocoon 28
colder 28
collector 28
consultant 28
consumed 28
convex 28
cott 28
critically 28
cryptosystem 28
cue 28
cups 28
customer 28
dar@@ 28
deficiency 28
depressions 28
did@@ 28
didnt 28
dig 28
disciples 28
dividing 28
divisors 28
doll 28
doubled 28
dreams 28
eder 28
embryo 28
emon 28
employer 28
endo 28
engagement 28
enlarged 28
eno 28
enthal 28
entia 28
erian 28
erupted 28
est-@@ 28
esta 28
evolve 28
explaining 28
famine 28
fertil@@ 28
flora 28
forec@@ 28
forgotten 28
foxes 28
freezing 28
fts 28
fug@@ 28
für 28
good@@ 28
grasses 28
hard@@ 28
heaviest 28
hydrochloric 28
hyp@@ 28
ieri 28
iet 28
igen 28
ihiro 28
ilus 28
ined 28
infectious 28
ingo 28
inks 28
inning 28
insp@@ 28
ioned 28
ischer 28
iste 28
itan 28
jack 28
jack@@ 28
jam 28
journals 28
jungle 28
kel@@ 28
kilogram 28
liberty 28
life-@@ 28
lineup 28
lowercase 28
lowlands 28
magnet 28
mandolin 28
mates 28
mi@@ 28
mit 28
mixes 28
monsters 28
mou@@ 28
movable 28
mustard 28
nave 28
negotiations 28
nests 28
nine-@@ 28
nominal 28
octave 28
ogy 28
olin 28
oration 28
orph@@ 28
outflow 28
owed 28
passion 28
patented 28
pays 28
phon@@ 28
picks 28
pioneers 28
pled 28
pond 28
popularized 28
pottery 28
preference 28
premier 28
pretty 28
prof@@ 28
promotions 28
prophecy 28
prose 28
protector 28
public@@ 28
pulling 28
pyramids 28
quest@@ 28
quin 28
rational 28
rea 28
reactors 28
reed 28
reformer 28
refuge 28
refuses 28
reliability 28
rial 28
risks 28
ross 28
rung 28
sank 28
sausage 28
seaside 28
sediments 28
separating 28
shower 28
simpler 28
socialism 28
socks 28
soloist 28
sonata 28
spectacular 28
spontaneous 28
spreads 28
stan 28
stic 28
strait 28
strat@@ 28
strictly 28
stripped 28
supplier 28
susp@@ 28
sworth 28
tan 28
tengwar 28
tera 28
theism 28
toe 28
trails 28
translator 28
travellers 28
triangular 28
trioxide 28
tsunami 28
tuned 28
tyre 28
ued 28
uku 28
uncommon 28
unemployment 28
unity 28
unlikely 28
upright 28
utation 28
uÃ 28
variables 28
veins 28
vert 28
vet@@ 28
weaken 28
weighing 28
wizard 28
yi 28
zhou 28
zu 28
Éireann 28
æ@@ 28
ég@@ 28
ë@@ 28
(/O1983/O) 27
.net 27
0.4 27
000-@@ 27
04@@ 27
1,200 27
10s 27
1260 27
1300 27
137 27
155 27
1606 27
161 27
1718 27
1754 27
1760 27
1765 27
19,300,000 27
2-3 27
2013 27
22,700,000 27
255 27
325 27
79@@ 27
86@@ 27
AB@@ 27
AFL 27
ATA 27
Abbas 27
Abd 27
Abdullah 27
Academ@@ 27
Accommodation 27
Afonso 27
Allentown 27
Andhra 27
Annabeth 27
Antiquity 27
Apostle 27
Aras 27
Armageddon 27
Asclepias 27
Assisi 27
Asturias 27
Aung 27
Austro-Hungarian 27
Bahawalpur 27
Ballarat 27
Barton 27
Basie 27
Belg@@ 27
Belgrade 27
Benito 27
Bish@@ 27
Boat 27
Bond@@ 27
Bow 27
Boyle 27
Boyz 27
Bren@@ 27
Brent 27
Brig 27
Broad@@ 27
Brook 27
Browning 27
Brutus 27
Bryant 27
CA 27
CNN 27
Cadet 27
Cannon 27
Carly 27
Cascade 27
Catch 27
Chance 27
Chinn@@ 27
Chrome 27
Cinema 27
Civ@@ 27
Colonial 27
Communists 27
Compton 27
Comte 27
Conserv@@ 27
Cranbourne 27
Crow 27
Darren 27
Dauphin 27
Deluxe 27
Design@@ 27
Devonian 27
Dickinson 27
Dip@@ 27
Disc@@ 27
Dolphins 27
Driver 27
Dw@@ 27
ED 27
Edouard 27
Eli 27
Ender 27
Ephesus 27
Erik 27
Euph@@ 27
Fairy 27
Filip@@ 27
Finn 27
Florentine 27
Forms 27
Frederic 27
Fruit 27
G.@@ 27
GM@@ 27
Gaedel 27
Galat@@ 27
Gali 27
Gardiner 27
Gateshead 27
Goth 27
Halley 27
Hartman 27
Havel 27
Henrik 27
Hilary 27
Hispania 27
Hobart 27
Homeland 27
Horrorcore 27
Horst 27
IE 27
Ind@@ 27
Initially 27
J-@@ 27
Jakarta 27
Jared 27
Jen@@ 27
Jerome 27
Jude 27
Karelia 27
Kashima 27
Koxinga 27
Kro@@ 27
LO@@ 27
Languedoc-Roussillon 27
Larkana 27
Lashley 27
Latvian 27
Lenin 27
Lep@@ 27
Lew@@ 27
Lich@@ 27
MMA 27
Mal 27
Mauritania 27
Mauritius 27
McCl@@ 27
Michel@@ 27
Middlesex 27
Mile 27
Minnie 27
Minsk 27
Mirror 27
Mith@@ 27
Moritz 27
Murrumbidgee 27
NG@@ 27
Neapolitan 27
Neo-@@ 27
Neut@@ 27
News@@ 27
Nit@@ 27
OK 27
Oahu 27
Operations 27
Organizations 27
PD@@ 27
PP@@ 27
PR 27
Pain 27
Parnell 27
Patriots 27
Philipp@@ 27
Polly 27
Powderfinger 27
Priory 27
Quentin 27
Radcliffe 27
Rage 27
Recreation 27
Reid 27
RenÃ 27
Ripley 27
Role 27
Rup@@ 27
SD@@ 27
Sant 27
Saturns 27
Schleswig-Holstein 27
SchrÃ 27
Scrooge 27
Sear@@ 27
Sed@@ 27
Selena 27
Seminary 27
Septuagint 27
Sextus 27
Shields 27
Sicilian 27
Sid 27
Sino-Japanese 27
Slav@@ 27
Solti 27
Somaliland 27
Spaghetti 27
Spr@@ 27
Sta@@ 27
Status 27
Steam 27
Stein@@ 27
Step 27
Stoker 27
Strike 27
Suborder 27
Swim 27
Syl@@ 27
TD 27
Taft 27
Talent 27
Tall@@ 27
Tanakh 27
Teletubbies 27
Teresa 27
Terror 27
Thor 27
Tobacco 27
Tobin 27
Tosh@@ 27
Touch 27
Tow@@ 27
Tup@@ 27
UPN 27
UR@@ 27
Uz@@ 27
VLC 27
Variations 27
Vesuvius 27
Volk@@ 27
WW@@ 27
Wad@@ 27
Wallachia 27
Wester@@ 27
Westphalia 27
Wien 27
Wig@@ 27
Wight 27
Writer 27
Ye@@ 27
Yonge 27
Younha 27
YucatÃ 27
Z. 27
Zel@@ 27
Zinc 27
_1 27
achieving 27
acking 27
acs 27
acus 27
adian 27
advances 27
aims 27
akh@@ 27
ald@@ 27
aluminum 27
amy 27
ancestral 27
ank 27
anonymous 27
anthems 27
anti 27
arden 27
arez 27
aser 27
ashing 27
atively 27
attempting 27
atures 27
awn 27
backup 27
balloons 27
banker 27
banner 27
barrel 27
bend 27
binding 27
blu@@ 27
bourne 27
brightest 27
brook 27
builders 27
bunch 27
caches 27
calculus 27
carp@@ 27
caterpillar 27
cc 27
ceased 27
ceramics 27
chio 27
choices 27
cia 27
clergyman 27
co-wrote 27
coaching 27
coated 27
coc@@ 27
coffin 27
commands 27
commented 27
con 27
concentrations 27
concerning 27
conjecture 27
coordinate 27
cow@@ 27
craters 27
critic@@ 27
crystall@@ 27
cuttlefish 27
d'Italia 27
dal@@ 27
deliberately 27
dependencies 27
determining 27
digestive 27
diplom@@ 27
disasters 27
disciple 27
discussions 27
dle 27
downloads 27
downstream 27
drainage 27
dramatically 27
drunk 27
e.com 27
e/@@ 27
ec 27
eccentric 27
ectiv@@ 27
emblem 27
employee 27
engraving 27
ensch@@ 27
enson 27
enst@@ 27
entary 27
ented 27
erful 27
ero@@ 27
eros 27
eting 27
ety 27
eukaryotic 27
exchanged 27
expanding 27
fig@@ 27
findings 27
firm@@ 27
flav@@ 27
floppy 27
forc@@ 27
founds 27
four-year 27
french 27
gan@@ 27
gaps 27
gateway 27
generating 27
genuine 27
glory 27
gorge 27
governmental 27
grow@@ 27
gunpowder 27
hairs 27
hang 27
harps 27
hears 27
herbaceous 27
honey@@ 27
host@@ 27
hull 27
humanitarian 27
hung 27
hyperbolic 27
ian-born 27
icum 27
ident 27
ie-@@ 27
illegitimate 27
inert 27
inhib@@ 27
inity 27
inputs 27
interstate 27
introducing 27
invading 27
ived 27
jokes 27
keyboardist 27
kick@@ 27
knighted 27
landlocked 27
legends 27
lep@@ 27
leys 27
lib@@ 27
lichen 27
lingen 27
list@@ 27
listeners 27
liturgical 27
loops 27
mah@@ 27
marched 27
mechanisms 27
mentor 27
mitosis 27
modifications 27
monkeys 27
mort@@ 27
mouth@@ 27
multimedia 27
murderer 27
music@@ 27
nad 27
nationality 27
neberg 27
nell 27
neu@@ 27
nio 27
nitz 27
nnhilde 27
noon 27
nutmeg 27
oats 27
ocar@@ 27
oen@@ 27
ometric 27
onal 27
onica 27
orca 27
oughton 27
p-@@ 27
packs 27
pag@@ 27
perpendicular 27
pes 27
pest@@ 27
phy@@ 27
pick@@ 27
pigment 27
plantation 27
pon@@ 27
potatoes 27
prem@@ 27
prim@@ 27
primates 27
punished 27
pursue 27
rails 27
real@@ 27
realistic 27
reduces 27
regulation 27
reject 27
republics 27
resonance 27
retina 27
revenue 27
rhythmic 27
rist 27
rists 27
rodent 27
roy 27
ru 27
runner-up 27
saves 27
secrets 27
seg@@ 27
self-titled 27
senator 27
sexes 27
shar@@ 27
sleep@@ 27
sliced 27
slowed 27
solute 27
spanning 27
spire 27
staged 27
sting 27
strands 27
struc@@ 27
ström 27
stuff 27
submit 27
substitute 27
successors 27
swing 27
tastes 27
taxonomic 27
tends 27
tent 27
thee 27
themed 27
thereafter 27
tiles 27
tire 27
tomatoes 27
tooth 27
tops 27
tot@@ 27
tu 27
tut@@ 27
uit 27
umin@@ 27
under-@@ 27
unincorporated 27
unnamed 27
updates 27
upstream 27
urg@@ 27
usc@@ 27
uz@@ 27
vaccine 27
vectors 27
vey 27
wari 27
wed@@ 27
welcomed 27
well-defined 27
whenever 27
wines 27
woody 27
world@@ 27
xi 27
yte 27
zio 27
ür@@ 27
&#39; 26
.9 26
0.00@@ 26
0.3 26
01-@@ 26
126 26
1501 26
152 26
16,000 26
1609 26
1649 26
168 26
170@@ 26
1751 26
1830s 26
2.1 26
2.7 26
202 26
395 26
601 26
73@@ 26
AB 26
ARIA 26
AU@@ 26
Abbado 26
Across 26
Agra 26
Alp@@ 26
Alv@@ 26
Always 26
Amer@@ 26
Amph@@ 26
Anita 26
Anti@@ 26
Ararat 26
Armen@@ 26
Arrondissement 26
Ask@@ 26
Associates 26
Asteroid 26
Ayrshire 26
Azerbaijani 26
Bagh 26
Baldheri 26
Bangkok 26
Banjo 26
Barber 26
Benedictine 26
Benin 26
Bernardo 26
Bolton 26
Boniface 26
Border 26
Botany 26
Brock@@ 26
Butterfly 26
CN@@ 26
COBE 26
Care 26
Carol@@ 26
Carrie 26
Carstens 26
Chaetodipus 26
Chaplin 26
Charon 26
Chi 26
Chihuahua 26
Classes 26
Cleopatra 26
Clifford 26
Commandments 26
Commodore 26
Congressman 26
Coral 26
Corpus 26
Courtney 26
Coy@@ 26
Cumbria 26
Cups 26
DV@@ 26
Dah@@ 26
DelÃ 26
Dog@@ 26
Doll@@ 26
Doncaster 26
Doug@@ 26
Dracula 26
Dream@@ 26
Drums 26
Duc@@ 26
EC@@ 26
Eisenach 26
Elba 26
Eliot 26
Essen 26
Evangel@@ 26
Evelina 26
Evidence 26
Extension 26
FDP 26
Firefox 26
Format 26
Foucault 26
Founded 26
Four@@ 26
Franciscan 26
Frieza 26
Fru@@ 26
Fulda 26
Furthermore 26
Fut@@ 26
Gagarin 26
Gain@@ 26
Gamba 26
Gast@@ 26
Goddess 26
Gond@@ 26
Grange 26
Graz 26
Growing 26
Guyana 26
Hal 26
Harald 26
Hatt@@ 26
Henson 26
Hilbert 26
Him 26
Hiroshi 26
Historians 26
Hitchcock 26
Hubert 26
Humphrey 26
Hunt@@ 26
Hus@@ 26
Hz 26
IUPAC 26
Ib@@ 26
Idomeneo 26
Imam 26
Incre@@ 26
JavaScript 26
Jay@@ 26
Joachim 26
Joanna 26
Jov@@ 26
Jug@@ 26
Julio 26
Karl@@ 26
Kawasaki 26
Khar@@ 26
Kok@@ 26
Konami 26
Kuala 26
LG 26
Lark 26
Levine 26
Lopez 26
Louis@@ 26
Lund 26
MD@@ 26
Madonna 26
Malaysian 26
Marianne 26
Martins 26
MartÃ 26
Marz@@ 26
Masjid 26
Menuhin 26
Mercedes-Benz 26
Metro@@ 26
Middleton 26
Monastery 26
Munro 26
Mussolini 26
Mutual 26
NHA 26
NYPD 26
Nad@@ 26
Nieder@@ 26
NiÃ 26
Northeast 26
Och@@ 26
Odd@@ 26
Olive 26
Om 26
Osbourne 26
OsnabrÃ 26
Paleolithic 26
Passenger 26
Past 26
Patriarch 26
Patrol 26
Pent@@ 26
Pereira 26
Phys@@ 26
Pinocchio 26
Platform 26
Poetry 26
Poitiers 26
Ponte 26
Pra@@ 26
Pretty 26
Provisional 26
Qin 26
RPG 26
RPM 26
RSA 26
Rahman 26
Ramon 26
Rather 26
Reception 26
Regina 26
Returns 26
Ringo 26
Rivera 26
Robbins 26
Rossini 26
Rutland 26
SNL 26
Saarland 26
Sanrio 26
Schleicher 26
Schwarz@@ 26
Scoring 26
Self-@@ 26
Sh 26
Sharif 26
Shelley 26
Sherwood 26
Sinai 26
Sleeping 26
Stad@@ 26
Strange 26
Streets 26
Stur@@ 26
Suu 26
TIFF 26
Tasmanian 26
Thebes 26
Torchwood 26
Tracey 26
Tub@@ 26
Tunnel 26
Vaihingen 26
Valea 26
Valent@@ 26
Venetian 26
Vespasian 26
Veterans 26
Vonnegut 26
Wallaroo 26
Weekend 26
Weelkes 26
Whe@@ 26
Witt@@ 26
Wordsworth 26
Wormwood 26
Wotan 26
Written 26
X-ray 26
Yar@@ 26
Yaz@@ 26
Yugoslav 26
Za@@ 26
Zen@@ 26
Zhou 26
Zwickau 26
abel 26
accuracy 26
action-adventure 26
activated 26
admiral 26
agon 26
agua 26
aia 26
aler 26
alleg@@ 26
alley 26
anese 26
animators 26
anthropologist 26
apt@@ 26
archbishop 26
arguing 26
aromatic 26
arrangements 26
arthropods 26
asion 26
assume 26
ativity 26
atur@@ 26
automobiles 26
avoided 26
bankrupt 26
barley 26
battlefield 26
berg@@ 26
best-@@ 26
biomass 26
bismuth 26
bite 26
bius 26
blamed 26
bler 26
bles 26
blocking 26
blown 26
boom 26
bot@@ 26
bra 26
bravery 26
breasts 26
bulk 26
cakes 26
calendars 26
casts 26
cellular 26
cens@@ 26
chimpanzees 26
choosing 26
clever 26
clip 26
clips 26
co-star 26
collective 26
compiled 26
constructors 26
cooperation 26
crafts 26
crude 26
cucumbers 26
culturally 26
darkness 26
deadliest 26
delivering 26
derivative 26
desserts 26
dest@@ 26
destructive 26
digest 26
diode 26
duration 26
dé@@ 26
economies 26
eder@@ 26
eliminating 26
elimination 26
eline 26
ell-@@ 26
emia 26
empress 26
engage 26
engravings 26
enon 26
entrances 26
erable 26
eric 26
es-sur-@@ 26
essing 26
establishes 26
etz 26
exam 26
exceptional 26
explosives 26
eyard 26
flag@@ 26
flyby 26
forbidden 26
gamma 26
gasoline 26
genocide 26
glans 26
graduates 26
gul@@ 26
gust 26
habit 26
happiness 26
harbour 26
heart@@ 26
helicopters 26
high-speed 26
histor@@ 26
hof 26
hop@@ 26
hurst 26
iPod 26
ia@@ 26
ice-@@ 26
ici 26
iens 26
ifications 26
il-@@ 26
ilation 26
inis 26
inny 26
inscriptions 26
interact 26
intervention 26
introduces 26
iod@@ 26
ippo 26
isters 26
itus 26
jan@@ 26
joints 26
kangaroos 26
kiss 26
knots 26
leopard 26
liberation 26
lier 26
lifts 26
linguist 26
litre 26
lock@@ 26
lou@@ 26
lun@@ 26
mac 26
mammalian 26
mentions 26
militant 26
mountain@@ 26
neighborhoods 26
nig@@ 26
night@@ 26
oboe 26
oca 26
oco 26
odor@@ 26
ogenesis 26
ographers 26
oidea 26
oj 26
onions 26
oper 26
operational 26
oure 26
over-@@ 26
oâ 26
pH 26
panda 26
paradise 26
peanuts 26
perf@@ 26
peri@@ 26
peripheral 26
pest 26
png 26
pockets 26
polit@@ 26
preliminary 26
probable 26
publicity 26
qi 26
radioactivity 26
redirect 26
rein@@ 26
rick@@ 26
rock/heavy 26
rook 26
safer 26
salary 26
salty 26
sectors 26
sediment 26
sponges 26
sque@@ 26
ss 26
stationary 26
sticky 26
stimulus 26
strang@@ 26
supervis@@ 26
susceptible 26
terminology 26
terrain 26
thea 26
therm@@ 26
thes@@ 26
thir@@ 26
tides 26
tis 26
tonic 26
torture 26
touched 26
tricks 26
tropics 26
ube 26
uil 26
uka 26
unconscious 26
underwent 26
unpleasant 26
upgrade 26
vacant 26
varying 26
vers 26
vertically 26
ves@@ 26
vinyl 26
volunteer 26
weathering 26
willing 26
wit@@ 26
with@@ 26
worshipped 26
wounds 26
wrecked 26
wrestle 26
y-en-@@ 26
yang 26
yield 26
ym 26
ywood 26
zai 26
(/O1981/O) 25
(/O1985/O) 25
(/O1990/O) 25
-la-@@ 25
1-1 25
12,@@ 25
131 25
14,000 25
1564 25
160@@ 25
1616 25
169 25
1702 25
1712 25
1723 25
1724 25
1748 25
1994-@@ 25
1999-@@ 25
2,9@@ 25
2006-@@ 25
238 25
253 25
3,3@@ 25
3.2 25
305 25
3166-1 25
35.@@ 25
480 25
56-@@ 25
70s 25
98@@ 25
AL 25
AND 25
Abbot 25
Ace 25
Adler 25
Adriatic 25
Ahmadiyya 25
Alain 25
Alg@@ 25
Alligator 25
Almond 25
Alphabet 25
Amaterasu 25
Ambrose 25
Ans@@ 25
Appearance 25
Arauc@@ 25
Asc@@ 25
Athletics 25
Avril 25
Babbage 25
Ban 25
Bangui 25
Barker 25
Barth@@ 25
Bean 25
Bering 25
Bert 25
Bloomington 25
Boca 25
Brenda 25
Brigade 25
Buddhists 25
Burgh 25
Butterworth 25
Cadmium 25
Carpenter 25
Cary 25
Casino 25
Causes 25
Centers 25
Chadwick 25
Chak@@ 25
Charlottenburg 25
Chat@@ 25
Chic@@ 25
Clancy 25
Clegg 25
Clem@@ 25
Coc@@ 25
Cockatoo 25
Combined 25
Communication 25
Coolidge 25
Cosimo 25
Costello 25
Coul@@ 25
Crane 25
Cream 25
Cris@@ 25
Croix 25
Cup@@ 25
Cupid 25
Cust@@ 25
Cy 25
Cyber 25
Cyn@@ 25
Dak@@ 25
Damascus 25
Damon 25
Darkness 25
Deaf 25
Dearborn 25
DiMartino 25
Diane 25
Dil@@ 25
Dixie 25
Docklands 25
Dumfries 25
EMU 25
Earlier 25
Eh@@ 25
Elector 25
Encyclopaedia 25
Eragon 25
Eredivisie 25
Ess@@ 25
Euc@@ 25
Eugène 25
Eureka 25
Everyone 25
Experimental 25
Fav@@ 25
Fun 25
GAA 25
GE 25
Geelong 25
Gerresheim 25
Giessen 25
Goodbye 25
Gorge 25
Graubünden 25
Guadeloupe 25
Gujarat 25
Gun 25
Hanseatic 25
Haw@@ 25
Heather 25
Hin@@ 25
Hmong 25
Hob@@ 25
Hodg@@ 25
Honecker 25
Hul@@ 25
Hygiea 25
Hyperion 25
IAU 25
IEEE 25
ISC 25
IUCN 25
Imp@@ 25
Innsbruck 25
Iron@@ 25
Ivan@@ 25
Ivy 25
Jacob@@ 25
Jahan 25
Jakob 25
Janet 25
Jenny 25
Jing 25
Jord@@ 25
Joseon 25
Judith 25
KLM 25
Kaghan 25
Kobe 25
Kod@@ 25
Kreuzlingen 25
Kubica 25
Lac 25
Laugh@@ 25
Lausanne 25
Leading 25
Lego 25
Libert@@ 25
Licinius 25
Litt@@ 25
Lock@@ 25
Locke 25
Lumpur 25
MCML@@ 25
MK 25
MP3 25
Macau 25
Macedonian 25
Mahar@@ 25
Malik 25
Mann 25
Map 25
Marcelo 25
Marg@@ 25
Marin 25
Marines 25
Martinique 25
Mauro 25
Mayer 25
Meas@@ 25
MediaWiki 25
Mel 25
Mendrisio 25
Merkel 25
Michele 25
Milano 25
Mushroom 25
Mutiny 25
MySpace 25
Nation@@ 25
Neo 25
Nep@@ 25
Nes@@ 25
Nexus 25
Nico 25
Nightingale 25
Nob@@ 25
Northeastern 25
Noy@@ 25
Oberon 25
Odessa 25
Odin 25
Oliv@@ 25
Olympi@@ 25
Overground 25
Oviedo 25
Oxley 25
Pale@@ 25
Palermo 25
Pam@@ 25
Papen 25
Parry 25
Peggy 25
Philipp 25
Poet 25
Polish-@@ 25
Polytechnic 25
Poz@@ 25
Prada 25
Punta 25
Quechua 25
Quincy 25
Ra 25
Random 25
Ranges 25
Raphael 25
Recovery 25
Reign 25
Remote 25
René 25
Revelation 25
Ricky 25
Rij@@ 25
Roland 25
Rost@@ 25
Rus 25
Rush@@ 25
SAS 25
SCSI 25
Salv@@ 25
Schneider 25
Schoenberg 25
Sejanus 25
Shang 25
Shetland 25
Sikhs 25
Size 25
Storms 25
String 25
Sud@@ 25
Sumatra 25
Sund@@ 25
Sut@@ 25
Swed@@ 25
Sylvester 25
Symptoms 25
T-Mobile 25
Task 25
Teddy 25
Tenerife 25
Thirteen 25
Thorn@@ 25
Timbaland 25
Travis 25
Treatment 25
Trieste 25
Trish 25
Turing 25
Typhoon 25
Ug@@ 25
Viol@@ 25
Virg@@ 25
Vishnu 25
Vitellius 25
Volta 25
Wainwright 25
Walking 25
Walters 25
Warning 25
Wash 25
Welch 25
Wembley 25
Wheeler 25
Wick@@ 25
Wizard 25
Woodward 25
XXX@@ 25
Xen@@ 25
a.k.a. 25
aal 25
abis 25
accidents 25
addiction 25
adenine 25
advantages 25
alities 25
alloy 25
amoto 25
analyst 25
angled 25
ango 25
anyway 25
aper 25
archaeologist 25
asi 25
atha 25
atorium 25
ausen 25
avi 25
awareness 25
banished 25
basically 25
belts 25
bike 25
bisexual 25
blew 25
blowing 25
bowling 25
breathe 25
brewery 25
bricks 25
bro 25
broad@@ 25
brushes 25
bug@@ 25
calculating 25
cavity 25
centimeters 25
chen@@ 25
chers 25
chromium 25
circus 25
cliffe 25
clinical 25
cluster 25
co-host 25
coldest 25
comfortable 25
comprised 25
confess@@ 25
consequences 25
constructor 25
contribute 25
contributors 25
countrys 25
cows 25
crane 25
cushion 25
dal 25
danced 25
decryption 25
defence 25
dew 25
dez 25
diff@@ 25
directory 25
disabilities 25
dive 25
dormice 25
dormouse 25
downward 25
easter 25
efficiently 25
ele@@ 25
elian 25
ellers 25
ensen 25
enus 25
eous 25
erated 25
ergarten 25
ersen 25
erâ 25
esse 25
eval 25
evaporation 25
ever-@@ 25
exams 25
exhibit 25
exhibited 25
exponential 25
favored 25
ffin 25
finest 25
fireworks 25
fishes 25
fo@@ 25
focusing 25
fog 25
forestry 25
formers 25
ft@@ 25
generic 25
genius 25
geologist 25
geyser 25
goalkeeper 25
goat 25
gra 25
grants 25
grape 25
ground@@ 25
gut 25
harmon@@ 25
hatch 25
hormones 25
hound 25
iac 25
iang 25
iani 25
iate 25
ickers 25
idel@@ 25
ideology 25
ief@@ 25
igne@@ 25
iji 25
ilis 25
illed 25
illes 25
ims 25
inet 25
inous 25
intersection 25
ints 25
ipers 25
iph@@ 25
ipper 25
issa 25
istry 25
ivism 25
jewelry 25
judged 25
ki@@ 25
knights 25
kreis 25
krill 25
kur@@ 25
lah 25
landslide 25
larval 25
las@@ 25
lec@@ 25
licensing 25
limbs 25
lucky 25
mainline 25
maj@@ 25
massacres 25
mined 25
minim@@ 25
monitors 25
monsoon 25
moor 25
n/O. 25
near-@@ 25
nets 25
newly-@@ 25
obu 25
odes 25
oh 25
oideae 25
oned 25
onism 25
oods 25
opl@@ 25
optim@@ 25
originates 25
ornamental 25
otte 25
otype 25
oun 25
ourt-@@ 25
outcome 25
packaging 25
pant@@ 25
paramilitary 25
parking 25
participating 25
partitions 25
pasteurization 25
pav@@ 25
pea 25
peas 25
peptic 25
perm@@ 25
permanganate 25
petals 25
photographic 25
pitched 25
pixels 25
pneumonia 25
poetic 25
polis 25
ponds 25
pressing 25
promotes 25
prompted 25
prostate 25
protested 25
put@@ 25
relics 25
resin 25
respiratory 25
resses 25
retains 25
retrieved 25
reuse 25
rians 25
rifles 25
rou@@ 25
sab@@ 25
sailor 25
samurai 25
scenery 25
sealed 25
seawater 25
seemingly 25
self-governing 25
shining 25
sid@@ 25
side@@ 25
silence 25
slides 25
slogan 25
smoked 25
sniper 25
solving 25
spa 25
specialised 25
spell 25
ss@@ 25
straw 25
subjected 25
submission 25
suited 25
sunset 25
superstar 25
sushi 25
televised 25
tend@@ 25
timpani 25
tland 25
tob@@ 25
tok@@ 25
tom@@ 25
trafficking 25
translate 25
transported 25
trousers 25
tun@@ 25
uded 25
uga 25
ului 25
undertaken 25
unexpected 25
urai 25
uti 25
uto 25
villagers 25
vinegar 25
vio 25
violins 25
wala 25
womb 25
writ@@ 25
š@@ 25
+3 24
,2@@ 24
-in 24
-off 24
1,3@@ 24
12:@@ 24
139 24
141 24
1450 24
1494 24
1533 24
1555 24
1566 24
1572 24
1596 24
1618 24
162 24
1632 24
164 24
1659 24
1665 24
1684 24
1715 24
1736 24
1745 24
177@@ 24
1992-@@ 24
1996-@@ 24
203 24
22-@@ 24
225 24
3.3 24
35,@@ 24
4/@@ 24
5.6 24
54@@ 24
600,000 24
75@@ 24
99@@ 24
A.S. 24
ASCII 24
Adj@@ 24
Admiralty 24
Advisor 24
Alex@@ 24
Ali@@ 24
American-@@ 24
Anglo-Irish 24
Apostolic 24
Arnhem 24
Arturo 24
Asteraceae 24
Atlético 24
Aust@@ 24
Australias 24
Average 24
BP 24
Bacc@@ 24
Balliol 24
Ballmer 24
Balls 24
Bartolo 24
Baruch 24
Beast 24
Beaufort 24
Bilbao 24
Bloemfontein 24
Blois 24
Bom@@ 24
Brantford 24
Bras@@ 24
Bridgestone 24
Buddy 24
Buff@@ 24
Burney 24
CH-49@@ 24
CN 24
CSS 24
Cade 24
Cafe 24
Caulfield 24
Chamb@@ 24
Chaos 24
Charles-@@ 24
Charley 24
Cirie 24
Civic 24
Close 24
Copa 24
Coronation 24
Coss@@ 24
Cove 24
Criminal 24
Crusaders 24
Cubs 24
DI 24
DSL 24
DSP 24
Daisy 24
Darius 24
Davidson 24
Dawson 24
Desperate 24
Dexter 24
Dominique 24
Door 24
Duo 24
Dushku 24
EM 24
Eastman 24
Elect@@ 24
Elementary 24
Elena 24
Epic@@ 24
Euroa 24
Event 24
Expansion 24
FCW 24
Fairfield 24
Families 24
Favorite 24
Feistel 24
Fonda 24
Fortress 24
Founding 24
French-speaking 24
Fu 24
Fug@@ 24
Gambon 24
Garry 24
Genet 24
German-born 24
Ges@@ 24
Ghaz@@ 24
Gog@@ 24
Goldberg 24
Graf 24
Gramm@@ 24
Grands 24
Groups 24
Gupta 24
HO@@ 24
Hanna 24
Hear@@ 24
Heatherwick 24
Hesper@@ 24
Hey 24
Hier@@ 24
Highways 24
Hooper 24
Horror 24
Host 24
Houses 24
Hub 24
Hub@@ 24
Hybrid 24
IGN 24
Id@@ 24
Illustrated 24
Im 24
Institut 24
Iris 24
Isl@@ 24
Ithaca 24
Jal@@ 24
Jam 24
Jess 24
Ji 24
Joker 24
Journ@@ 24
Kanagawa 24
Karel 24
Karthikeyan 24
Kau@@ 24
Kazan 24
Kerry 24
Kipling 24
Kristen 24
LA 24
LC 24
Lamb@@ 24
Lantern 24
Laon 24
Las@@ 24
Levant 24
Liechtenstein 24
Lodge 24
Lookout 24
Lothian 24
Louisville 24
Luc 24
Lup@@ 24
Lys@@ 24
MBE 24
Magna 24
Manch@@ 24
Mann@@ 24
Mannheim 24
Manufacturing 24
Marche 24
Marie-@@ 24
Mariners 24
McG@@ 24
McGraw 24
Mechanical 24
Mesnil-@@ 24
Messing 24
Mets 24
Midd@@ 24
Middle-earth 24
Monmouth 24
Moondyne 24
Moors 24
Moral 24
Morton 24
Multiple 24
Murdoch 24
Mö@@ 24
NA 24
NSW 24
Na 24
Nick@@ 24
Nike 24
Nissan 24
Novels 24
O2 24
OF 24
Pa 24
Padua 24
Palin 24
Palisa 24
Paraná 24
Pay@@ 24
Pear@@ 24
Penn 24
Perdita 24
Person 24
Piazza 24
Pissarro 24
Plays 24
Port-au-Prince 24
[...]
