, 425139
the 400153
. 287357
of 240281
in 187985
and 182302
a 151547
is 122162
to 104869
) 88906
( 88695
'' 69417
The 66942
was 62310
as 57097
by 45485
for 44417
on 43287
with 36237
's 34509
from 30870
an 30231
or 29185
that 28907
are 25641
at 24867
his 21732
which 20973
; 20337
it 17692
In 17452
: 17169
also 15968
be 14997
It 14663
he 14304
has 14254
first 14171
born 13478
one 13356
France 12891
who 12508
its 12447
known 12423
were 12361
commune 10776
department 10597
United 10570
-- 10073
have 9897
not 9857
their 9755
but 9624
He 9317
city 9231
other 8981
A 8865
most 8831
American 8503
used 8410
had 8403
two 8353
States 8153
after 8008
been 7903
& 7587
into 7543
region 7476
her 7222
' 7141
this 7065
name 7029
can 6927
such 6778
more 6538
between 6293
- 6155
all 6134
they 6116
New 6073
when 6050
football 6031
only 5978
time 5927
called 5891
part 5659
ndash 5611
1 5553
World 5549
than 5534
many 5491
over 5470
located 5422
about 5327
de 5245
English 5207
during 5162
became 5160
years 5148
some 5143
where 5027
â 5023
This 4762
three 4730
2 4715
County 4636
former 4514
area 4491
including 4458
made 4456
January 4447
year 4447
state 4442
team 4440
may 4430
series 4422
film 4395
released 4367
British 4350
September 4301
town 4279
band 4267
later 4193
May 4190
second 4182
October 4181
March 4146
album 4106
well 4104
being 4093
often 4090
German 4063
player 3989
July 3983
June 3962
people 3955
Ã 3932
under 3921
number 3902
August 3901
world 3900
up 3850
April 3840
season 3827
named 3823
she 3817
northern 3799
England 3798
new 3770
South 3765
December 3752
use 3733
both 3723
North 3714
music 3713
November 3698
through 3691
until 3684
University 3673
population 3620
` 3603
February 3590
largest 3574
then 3567
family 3499
2007 3498
On 3487
based 3486
3 3455
i 3441
century 3420
would 3414
London 3408
game 3403
National 3402
League 3378
French 3364
system 3359
while 3358
him 3345
John 3342
played 3302
since 3299
district 3298
War 3290
2006 3270
2008 3240
capital 3231
there 3226
out 3209
several 3194
I 3177
-@@ 3169
form 3163
currently 3147
will 3132
group 3116
Germany 3097
early 3088
four 3060
before 3031
10 3028
Japanese 2983
City 2975
4 2959
national 2956
work 2933
now 2913
II 2909
usually 2883
same 2882
any 2880
professional 2862
small 2862
term 2860
found 2857
species 2851
no 2831
them 2828
They 2812
around 2801
major 2767
large 2755
won 2743
each 2742
After 2733
5 2728
2005 2707
As 2703
best 2666
common 2666
River 2646
km 2640
footballer 2629
2009 2621
% 2613
language 2597
York 2589
o 2589
King 2588
She 2580
government 2569
million 2567
plays 2567
television 2566
began 2520
6 2510
main 2510
within 2467
so 2458
water 2439
near 2421
U.S. 2415
Australia 2412
15 2404
20 2396
Japan 2396
these 2390
son 2383
include 2382
For 2370
T@@ 2357
life 2343
history 2342
30 2335
age 2332
West 2321
north 2315
province 2311
against 2310
written 2305
country 2301
12 2292
member 2290
un@@ 2280
rock 2279
south 2279
end 2278
Kingdom 2277
home 2275
place 2274
see 2272
D@@ 2265
sometimes 2263
America 2260
2004 2258
following 2254
referred 2249
single 2246
long 2245
s 2240
7 2239
8 2235
published 2235
formed 2226
death 2209
municipality 2200
His 2190
very 2167
along 2164
L@@ 2163
There 2153
es 2153
Italian 2152
East 2151
2000 2150
club 2150
S@@ 2148
Europe 2139
different 2133
President 2131
because 2118
members 2112
period 2112
third 2112
11 2108
25 2102
founded 2089
B@@ 2088
produced 2088
considered 2082
set 2075
commonly 2067
county 2062
One 2043
created 2042
P@@ 2039
18 2032
Roman 2031
song 2031
last 2023
ing 2021
16 2018
13 2013
Republic 2002
original 2000
in@@ 1992
like 1992
land 1989
Pas-de-Calais 1983
14 1973
developed 1970
held 1966
H@@ 1963
show 1963
day 1962
9 1954
popular 1949
Greek 1942
southern 1940
G@@ 1930
re@@ 1921
word 1920
K@@ 1918
y 1917
modern 1915
Aisne 1913
body 1913
m 1913
However 1910
t@@ 1904
k@@ 1903
although 1898
school 1898
James 1896
Spanish 1895
title 1895
father 1889
do 1888
e 1888
line 1888
high 1887
At 1882
N@@ 1882
State 1874
2010 1872
24 1871
n@@ 1863
s@@ 1855
east 1848
en 1844
17 1842
Nord-Pas-de-Calais 1838
back 1837
own 1837
21 1834
2001 1833
er 1832
man 1828
become 1819
R@@ 1818
book 1814
h@@ 1811
much 1809
video 1804
C@@ 1793
A@@ 1792
built 1792
example 1792
al 1789
g@@ 1787
M@@ 1784
F@@ 1777
= 1770
five 1768
19 1766
European 1765
died 1764
2003 1762
west 1762
games 1760
William 1759
Pakistan 1751
India 1750
power 1737
still 1735
career 1734
led 1731
official 1731
public 1731
due 1725
island 1719
if 1714
central 1710
California 1706
i@@ 1706
times 1704
22 1700
23 1697
ed 1694
us 1694
given 1688
E@@ 1687
left 1685
another 1683
children 1683
playing 1680
international 1666
n 1666
Union 1663
current 1647
late 1647
those 1647
2002 1645
y@@ 1643
using 1641
When 1637
center 1630
role 1624
important 1623
originally 1619
George 1618
26 1613
served 1612
Calvados 1608
countries 1602
u 1597
Basse-Normandie 1594
District 1594
order 1594
local 1578
play 1578
did 1571
During 1568
total 1568
27 1567
d@@ 1565
took 1564
Great 1563
even 1559
V@@ 1555
company 1554
established 1544
er@@ 1542
tropical 1541
Party 1540
School 1536
International 1534
various 1531
eastern 1529
28 1526
Australian 1524
en@@ 1513
record 1513
character 1510
m@@ 1510
Canada 1508
famous 1503
side 1503
Cup 1502
# 1501
Switzerland 1500
Football 1493
calendar 1493
An 1492
Championship 1491
having 1490
northwestern 1490
p@@ 1489
e@@ 1486
l@@ 1486
la 1485
political 1484
ers 1481
Charles 1479
W@@ 1476
what 1471
among 1467
an@@ 1465
Its 1464
though 1464
O@@ 1458
top 1457
z@@ 1457
r@@ 1456
make 1453
Empire 1451
generally 1449
less 1445
29 1441
making 1439
similar 1438
could 1436
point 1436
head 1434
moved 1434
states 1427
meaning 1426
works 1424
western 1423
old 1422
version 1420
just 1419
Royal 1413
able 1411
f@@ 1407
received 1406
six 1406
station 1401
included 1399
Western 1390
areas 1390
general 1390
event 1389
actor 1388
China 1387
Park 1380
t 1378
al@@ 1377
few 1374
way 1374
Church 1371
J@@ 1371
without 1367
ch@@ 1364
short 1363
College 1361
ia 1359
river 1358
Henry 1354
Christian 1353
1999 1348
La 1348
Latin 1348
d. 1341
Italy 1340
ice 1340
parts 1340
singer 1338
type 1338
however 1337
days 1335
House 1329
k 1326
1\/4 1321
off 1321
Central 1317
metal 1315
live 1314
simply 1311
full 1300
includes 1297
ar@@ 1296
St. 1295
human 1295
Island 1292
refer 1288
field 1285
mother 1283
Africa 1280
war 1279
San 1276
First 1271
These 1271
b@@ 1267
Ireland 1265
III 1263
History 1261
Canadian 1258
el@@ 1258
Some 1255
village 1254
either 1250
Scotland 1249
final 1249
match 1249
storm 1249
Although 1247
per 1245
David 1244
Robert 1243
Sea 1242
Z@@ 1238
natural 1231
Earth 1230
approximately 1224
Grand 1219
v@@ 1219
Atlantic 1216
Award 1207
person 1207
I@@ 1206
miles 1206
Paul 1205
$ 1204
Minister 1204
discovered 1204
canton 1203
hurricane 1203
w@@ 1199
law 1196
down 1195
lead 1194
Gironde 1193
Picardy 1189
means 1188
Council 1187
came 1187
wife 1184
at@@ 1182
1998 1180
c@@ 1179
list 1179
right 1179
ate 1177
officially 1175
present 1173
military 1171
Brazilian 1169
art 1169
Asia 1168
together 1168
100 1166
novel 1166
BC 1164
development 1161
languages 1161
UK 1160
Russian 1159
recorded 1157
started 1157
appeared 1153
release 1153
energy 1151
seat 1151
Chinese 1149
While 1147
on@@ 1147
u@@ 1144
men 1143
1994 1141
es@@ 1138
or@@ 1138
position 1136
e-@@ 1132
\/@@ 1131
ar 1129
does 1129
level 1127
WWE 1126
others 1126
consists 1124
ab@@ 1123
author 1122
1996 1120
j@@ 1120
whose 1120
white 1118
o@@ 1117
range 1116
again 1114
forms 1114
light 1114
science 1114
throughout 1112
et 1109
Aquitaine 1108
refers 1108
According 1107
living 1106
next 1104
Paris 1103
free 1102
color 1099
31 1098
4@@ 1098
computer 1098
take 1097
debut 1096
site 1096
systems 1093
Î 1091
1995 1090
By 1090
service 1090
today 1090
especially 1089
Â 1083
1997 1081
result 1081
daughter 1080
Florida 1079
Al@@ 1078
across 1077
os 1077
Indian 1074
building 1069
house 1069
Queen 1067
a@@ 1066
described 1066
General 1065
wrote 1065
it@@ 1064
starting 1063
C 1062
features 1062
style 1062
ation 1060
married 1060
related 1060
air 1059
Music 1058
traditional 1058
1992 1057
ine 1057
ic 1054
story 1054
U@@ 1053
st@@ 1053
composer 1051
Scottish 1049
ancient 1048
3@@ 1047
surface 1047
uses 1044
sold 1043
studio 1043
leading 1042
All 1041
Dutch 1041
movement 1038
non-@@ 1037
teams 1035
Y@@ 1032
1993 1031
Most 1030
coast 1030
theory 1030
went 1029
Since 1028
sea 1027
fourth 1024
Red 1023
independent 1023
books 1020
performed 1018
Sh@@ 1016
St@@ 1010
retired 1009
Battle 1008
information 1008
every 1007
Richard 1006
With 1006
itself 1006
Berlin 1005
Northern 1004
Thomas 1003
production 1003
Ch@@ 1001
leader 1000
great 998
control 997
cities 996
Year 993
black 993
Disney 992
Emperor 992
highest 991
Soviet 990
writer 988
1979 987
From 987
study 987
Lake 985
NHL 985
women 985
link 984
said 983
successful 982
genus 980
is@@ 976
taken 976
Association 974
process 974
king 973
9@@ 971
page 971
5@@ 966
films 965
least 964
software 964
designed 962
support 959
upon 959
available 958
food 957
Province 956
seven 956
red 955
oldest 954
Spain 953
Hockey 952
events 951
8@@ 950
Catholic 950
young 950
Michael 949
ten 949
ad@@ 948
almost 948
ic@@ 948
signed 948
ian 947
Hall 946
program 946
half 945
Wales 943
contains 943
chemical 942
better 941
typically 941
forces 940
south-western 940
Ð 940
director 939
actress 938
himself 938
1990 937
Records 937
am@@ 935
1974 934
Peter 934
Wrestling 934
elected 932
office 932
force 931
plants 931
widely 931
1980 930
1981 930
Division 930
joined 930
J. 929
source 929
songs 928
dis@@ 927
names 927
Å 926
key 924
brother 921
l 921
size 920
above 917
addition 916
date 916
divided 915
Sir 914
6@@ 913
Britain 911
um 910
league 909
p. 909
stage 909
1989 908
el 906
ie 902
party 902
Los 900
according 899
politician 899
seen 898
Louis 897
1982 895
Mexico 895
ol@@ 895
space 895
B 893
d 893
as@@ 892
ated 892
church 891
larger 891
followed 889
Many 888
introduced 888
manager 888
success 888
Army 886
far 884
7@@ 882
Duke 881
Mar@@ 880
Best 879
further 879
must 878
native 878
once 878
Club 877
Pacific 876
administrative 876
continued 875
organization 875
announced 874
rather 874
terms 874
data 873
producer 873
formerly 872
sh@@ 871
Parliament 870
groups 870
below 869
Entertainment 868
le@@ 868
beginning 867
primarily 867
1970 865
musical 865
university 865
working 865
50 864
Eastern 864
unit 864
types 863
associated 862
mostly 861
th@@ 860
1986 858
length 858
words 858
Day 857
characters 857
z 857
animals 855
change 855
division 854
Washington 853
TV 852
close 851
worked 851
replaced 850
thus 850
open 849
research 849
Saint-@@ 848
never 848
Academy 847
artist 847
design 847
Other 846
network 846
run 846
1967 845
Islands 845
Formula 841
ac@@ 841
car 841
community 841
composed 841
ly 841
1984 840
Old 837
US 836
Prime 835
players 835
should 835
1991 833
guitar 832
1975 831
changed 831
plant 831
units 831
particularly 830
away 827
am 826
Bay 824
border 824
Victoria 823
class 823
race 823
et@@ 822
situated 822
Company 821
em@@ 821
Black 820
material 819
1973 818
Wikipedia 818
ag@@ 815
low 815
BBC 814
Nintendo 814
1977 813
God 813
High 813
child 812
opened 812
\/O/ 811
districts 811
Angeles 810
Southern 810
Center 809
Iowa 809
outside 807
Super 806
how 806
ot@@ 805
il@@ 804
directed 803
era 803
Mary 802
Street 802
Windows 802
le 802
! 801
gave 801
months 800
caused 799
model 799
White 797
1969 796
Saint 796
census 795
ro@@ 795
b 793
Edward 791
Ocean 789
1972 788
smaller 787
1971 786
killed 785
social 785
To 784
1976 780
1987 780
om@@ 780
services 780
You 779
case 779
lost 779
Games 777
particular 776
featured 774
square 773
1983 772
Virginia 772
ul@@ 772
separate 771
you 771
Early 769
Prince 769
im@@ 769
ant 768
awarded 767
lies 767
r 767
Texas 766
If 765
minor 765
feature 764
mainly 764
structure 764
hit 763
hockey 763
Her 762
numbers 762
os@@ 762
performance 762
wide 762
Brazil 761
standard 759
é 759
1978 758
20th 758
1945 757
eventually 757
reached 756
40 755
brand 755
defined 755
win 755
Ar@@ 754
ap@@ 754
regions 754
certain 753
special 753
Chicago 752
n't 752
Nobel 751
g 751
primary 751
article 749
cells 748
12@@ 747
ever 747
guitarist 747
Russia 745
ist 745
2@@ 744
star 744
h 743
significant 743
returned 742
Hurricane 741
ating 741
radio 741
southeastern 741
Government 739
Martin 738
ies 738
writing 738
physical 737
base 736
1988 734
culture 734
status 734
remained 732
13@@ 731
instead 731
Line 729
eight 729
episode 729
ne 729
becoming 728
track 728
cell 727
albums 726
worldwide 724
average 722
p 722
strong 722
whom 722
display 721
variety 719
An@@ 717
In@@ 717
1968 716
text 716
1985 714
inhabitants 714
Oklahoma 713
islands 713
Prize 710
See 710
von 710
sports 709
op@@ 708
website 708
railway 706
derived 705
ground 704
previously 703
Mario 701
V 701
conductor 701
union 701
symbol 700
territory 700
Irish 699
Valley 699
elements 699
rule 698
ur@@ 698
Picardie 697
lines 694
10@@ 693
help 693
historical 693
Ä 693
Joseph 691
lived 691
opera 691
winning 689
president 688
host 687
ion 687
shows 687
estimated 685
qu@@ 684
becomes 682
Middle 681
Zealand 681
active 681
thought 681
ates 680
female 680
x 680
/@@ 679
Loire 679
engine 678
id@@ 678
14@@ 677
commercial 677
religious 677
Austria 676
go 676
pressure 676
students 676
... 675
Premier 674
de@@ 674
ri@@ 674
Lord 673
business 673
owned 672
Ain 671
Air 670
Netherlands 669
di@@ 669
musician 669
scale 669
Life 668
appointed 668
operating 668
possible 668
private 668
individual 667
via 667
Game 666
movie 665
points 665
project 664
previous 663
recording 663
remains 663
Ø 663
association 662
little 662
pop 662
heavy 661
X 660
lower 660
themselves 660
ability 659
fifth 659
southwestern 659
Am@@ 658
Romania 658
numerous 657
orchestra 657
recognized 657
blood 656
ring 656
us@@ 656
Second 655
fish 655
articles 654
directly 654
fiction 654
met 654
comes 652
Korea 651
sub@@ 650
1980s 649
Their 649
brought 649
port 648
higher 647
trade 646
1947 645
Le 645
north-western 645
Le@@ 644
produce 644
studied 644
fire 643
M 641
sp@@ 640
takes 640
19th 639
African 639
added 638
ina 638
market 638
principal 638
ended 637
night 637
Rock 636
distance 636
ship 636
completed 635
Pays 634
Secretary 634
multiple 634
Re@@ 633
c. 633
stadium 631
Major 630
ah 630
mass 630
election 629
good 629
hand 628
earlier 627
entire 627
E 626
Sarthe 626
ans 626
singles 626
championship 625
sound 625
Awards 624
Department 623
majority 623
schools 622
S 621
System 621
come 621
gold 621
location 620
placed 620
a-@@ 619
Group 618
Road 618
Poland 617
create 617
towns 617
Act 614
Carolina 614
Manchester 614
ed@@ 613
letter 613
Jr. 612
Sun 612
branch 612
nearly 612
Green 611
adopted 611
sister 611
notable 609
Be@@ 608
recent 608
regular 608
seasons 607
te 607
Book 606
Swedish 606
college 606
green 606
road 606
ak@@ 605
complex 605
provide 605
sent 605
object 604
tree 604
appears 603
e.g. 603
Olympic 602
1963 600
Alexander 600
Austrian 599
Rome 599
acid 599
der 599
rights 599
Jewish 598
animal 598
Time 597
nuclear 597
woman 597
Pope 596
mountain 596
ob@@ 596
1965 595
El@@ 595
Korean 595
Two 595
Jesus 594
move 594
stars 594
People 593
figure 593
rest 593
soon 593
temperature 592
à 592
believed 591
ite 591
Illinois 590
Institute 590
ations 590
ig@@ 590
+ 589
coach 589
parents 589
Elizabeth 588
defeated 588
ir@@ 588
nine 588
pl@@ 588
Jupiter 587
Se@@ 587
appearance 587
economic 587
Prix 586
1960 585
annual 585
industry 585
middle 585
Lady 584
St 584
army 584
education 584
label 584
200 583
AD 583
IV 583
ent@@ 583
act 582
birth 581
Census 580
future 580
influence 580
midfielder 580
.@@ 579
De@@ 579
animated 579
Star 578
Un@@ 578
io 578
re 578
round 578
1949 577
1964 577
ball 577
ism 577
magazine 577
0 576
hard 576
Bar@@ 574
Egypt 574
ai 574
oc@@ 574
Con@@ 573
1961 572
F 572
edition 572
il 572
Julian 571
da 571
electric 571
c 570
media 570
y-@@ 570
Federal 569
Scott 569
inter@@ 569
reported 569
saw 569
specific 569
taking 569
highly 568
re-@@ 568
makes 567
reference 567
ra 566
Golden 565
ago 565
action 564
od@@ 564
section 564
1948 563
Car@@ 563
T 563
gas 563
lake 563
complete 561
L 560
start 560
Series 559
attended 559
element 558
ts 558
60 557
Cor@@ 557
Orchestra 557
always 557
cause 557
é@@ 557
alternative 556
av@@ 556
id 556
poet 556
Court 555
changes 555
older 555
return 555
1962 554
construction 554
regarded 554
running 554
Santa 553
ton 553
attack 552
humans 552
Airport 551
Young 551
fictional 550
involved 550
passed 550
recently 550
ing@@ 549
council 548
Harry 547
Oxford 547
Love 546
Par@@ 546
court 546
heat 546
real 546
En@@ 545
Mor@@ 545
disease 544
user 544
winds 543
Tropical 542
behind 542
oil 542
ou@@ 542
vocals 542
se@@ 541
1966 540
damage 540
function 540
Big 539
al-@@ 539
front 539
our 539
per@@ 538
spoken 538
classical 537
cultural 537
subject 537
degree 536
My 535
O 535
als 535
nation 535
ut@@ 535
G 534
copies 534
initially 534
police 534
wrestling 534
1946 533
decided 533
Lee 532
USA 532
ana 532
blue 532
ec@@ 532
les 532
ors 532
wood 532
Sp@@ 531
friend 531
idae 531
bass 530
Internet 529
Belgian 527
Man 527
Society 527
del 527
personal 527
true 527
N 526
summer 526
1959 525
frequently 525
direction 524
distribution 524
soccer 524
appear 523
board 523
code 523
ner 523
1939 522
Armenian 522
Fox 522
Nations 522
civil 522
Following 521
ay 521
tour 521
1@@ 520
nature 520
towards 519
urban 519
battle 518
whole 518
cases 516
greatest 516
ings 516
limited 516
effect 515
X@@ 514
buildings 514
device 514
ens 514
feet 514
hours 514
independence 514
racing 514
di 513
1952 512
Melbourne 512
Gulf 511
Th@@ 511
view 511
Mon@@ 510
defender 510
roles 510
links 509
male 509
Georgia 508
ier 508
southwest 508
Mount 507
ad 506
Sch@@ 505
studies 505
we 505
comedy 504
ran 504
sources 504
x@@ 504
Museum 503
competition 503
direct 503
literature 503
1970s 502
ent 502
except 502
origin 502
spent 502
um@@ 502
Portuguese 501
probably 501
responsible 501
roughly 501
serving 501
settlement 501
Democratic 500
Olympics 500
products 500
Force 499
Polish 499
ium 499
striker 499
longer 498
paper 498
required 498
D 497
H 497
consisting 497
dates 497
relatively 497
relationship 496
voice 496
Arthur 495
Because 495
Hill 495
ISBN 495
Raw 495
award 495
piano 495
renamed 495
distinct 494
80 493
moving 493
Smith 492
ka 492
ous 492
Team 491
ard 491
au 491
collection 491
digital 491
Ï 491
1957 490
45 490
Commonwealth 490
con@@ 490
largely 490
ter@@ 490
ur 490
1953 489
Persian 489
describe 489
founder 489
Belgium 488
Microsoft 488
Ohio 488
allowed 488
get 488
provided 488
Cape 487
Saturn 487
ons 487
scientific 487
simple 487
ae 486
stations 486
too 486
Holy 485
Maria 485
bridge 485
discovery 485
H. 483
Mc@@ 483
flag 483
practice 483
1st 482
Like 482
Man@@ 482
opening 482
controlled 481
evidence 481
find 481
give 481
quickly 481
speed 481
titles 481
C. 480
Little 480
Region 480
ke 480
piece 480
week 480
0@@ 479
1944 479
Champion 479
begins 479
grew 479
park 479
Area 478
El 478
Radio 478
declared 478
ey 478
fact 478
runs 478
Francisco 477
Or@@ 477
Town 477
applied 477
over@@ 477
Ù 477
ak 476
put 476
rate 476
stories 476
versions 476
Tom 475
activity 475
Born 474
actually 474
bands 474
bank 474
containing 474
growth 474
honor 474
ne@@ 474
noted 474
pronounced 474
represented 474
architecture 473
be@@ 473
nearby 473
past 473
1958 472
already 472
legal 472
ov@@ 471
method 470
Boy 469
Kentucky 469
heart 469
man@@ 469
northeast 469
Br@@ 468
end@@ 468
equal 468
sixth 468
train 468
Vienna 467
centuries 467
cover 467
en-@@ 467
ley 467
prominent 467
ter 467
1955 466
Andrew 466
Free 466
Har@@ 466
Nazi 466
Revolution 466
Sweden 466
raised 466
0.@@ 465
borders 465
che 465
earliest 465
latter 465
stone 465
users 465
A. 464
Land 464
No 464
image 464
love 464
solo 464
ways 464
wind 464
70 463
allow 463
metropolitan 463
1956 462
Boston 462
Governor 462
Per@@ 462
Qu@@ 462
chief 462
concept 462
planet 462
1990s 461
Dr. 461
course 461
cyclone 461
FC 460
leaves 460
materials 460
records 460
value 460
1954 459
Cathedral 459
overall 459
15@@ 458
gives 458
here 458
operated 458
southeast 458
Chris 457
Congress 457
Dynasty 457
champion 457
ending 457
ets 457
Railway 456
attempt 456
combined 456
ill@@ 456
launched 456
month 456
surrounding 456
weeks 456
Press 455
R. 455
conditions 455
driver 455
stated 455
1950 454
mouth 454
90 453
Three 453
amount 453
counties 453
medical 453
Live 452
definition 452
ra@@ 452
Linux 451
Mark 451
o-@@ 451
volume 451
Sydney 450
ling 450
Show 449
W. 449
Albert 448
Arts 448
Columbia 448
Today 448
content 448
Beach 447
Ontario 447
U 447
gained 447
objects 447
s-@@ 447
shown 447
birds 446
fl@@ 446
health 446
idea 446
interest 446
upper 446
1940 445
Walt 445
me 445
mythology 445
turn 445
on-@@ 444
younger 444
Ma@@ 443
intended 443
novels 443
tradition 443
500 442
Ford 442
Pennsylvania 442
ev@@ 442
ino 442
marriage 442
northwest 442
density 441
Class 440
Winter 440
Festival 439
fully 439
i.e. 439
lives 439
ex@@ 438
ant@@ 437
creation 437
ib@@ 437
influenced 437
ville 437
35 436
Bl@@ 436
Gr@@ 436
Mal@@ 436
ends 436
Pays-de-la-Loire 435
Storm 435
acts 435
covers 435
exist 435
im 435
par@@ 435
peak 435
DVD 434
Muslim 434
husband 434
1918 433
billion 433
ell 433
leaving 433
troops 433
federal 432
ish 432
occurs 432
starring 432
greater 431
ik@@ 431
mid-@@ 431
product 431
.com 430
Stadium 430
Treaty 430
aired 430
chart 430
environment 430
ically 430
might 430
ones 430
write 430
allows 429
na 429
á 429
1942 428
Swiss 428
classified 428
enough 428
News 427
artists 427
ot 427
Jersey 426
ale 426
co@@ 426
ions 426
subsequently 426
Metropolitan 425
ay@@ 425
er-@@ 425
1936 424
1943 424
Massachusetts 424
entered 424
f 424
formal 424
levels 424
FIFA 423
Modern 423
Port 423
Summer 423
Symphony 423
cl@@ 423
claimed 423
covered 423
notably 423
problems 423
rules 423
16@@ 422
Iran 422
Mississippi 422
Ne@@ 422
arts 422
ius 422
painter 422
° 422
1941 421
Federation 421
ini 421
organized 421
respectively 421
Greater 420
Later 420
borough 420
dance 420
destroyed 420
est 420
proposed 420
regional 420
sense 420
winner 420
Civil 419
Daniel 419
Islamic 419
Mountains 419
Sunday 419
closely 419
fields 419
ruled 419
Brown 418
face 418
ge 418
1920 417
Night 417
additional 417
forming 417
newspaper 417
places 417
turned 417
Bridge 416
Despite 416
Me 416
ants 416
forced 416
giving 416
hot 416
ph@@ 416
reach 416
Czech 415
instrument 415
th 415
Q@@ 414
ical 414
identified 414
ids 414
Wars 413
climate 413
dark 413
diameter 413
kilometres 413
sl@@ 413
valley 413
wrestler 413
B. 412
Channel 412
Conference 412
Khan 412
emperor 412
engineering 412
etc. 412
friends 412
hold 412
houses 412
ins 412
money 412
nicknamed 412
post 412
aircraft 411
ator 411
increase 411
occur 411
royal 411
sport 411
whether 411
Before 410
Gregorian 410
Tour 410
ir 410
literally 410
1960s 409
75 409
Both 409
Co@@ 409
in-@@ 409
Bush 408
ics 408
trees 408
Singapore 407
moon 407
programs 407
resulting 407
Each 406
accepted 406
matter 406
philosophy 406
provinces 406
1930 405
Cross 405
Family 405
finished 405
goal 405
ip@@ 405
prior 405
Jackson 404
Stanley 404
] 404
cast 404
companies 404
compound 404
contain 404
goals 404
issued 404
Bill 403
Tr@@ 403
clubs 403
fall 403
franchise 403
he@@ 403
longest 403
founding 402
ists 402
originated 402
therefore 402
acting 401
colors 401
earned 401
generation 401
room 401
sc@@ 401
Under 400
basic 400
featuring 400
ology 400
provides 400
sequel 400
titled 400
[ 399
cm 399
dead 399
incorporated 399
policy 399
technology 399
Mayenne 398
ally 398
completely 398
1951 397
P 397
bl@@ 397
box 397
broadcast 397
li@@ 397
merged 397
satellite 397
1933 396
Israel 396
Steve 396
songwriter 396
yellow 396
1937 395
Denmark 395
Kelly 395
baseball 395
core 395
industrial 395
matches 395
shape 395
vocalist 395
Me@@ 394
ach@@ 394
all@@ 394
fruit 394
inside 394
occurred 394
Another 393
Jack 393
Princess 393
growing 393
32 392
R 392
achieved 392
ds 392
families 392
iv@@ 392
likely 392
se 392
sexual 392
Frederick 391
access 391
comprises 391
dynasty 391
mon@@ 391
Blue 390
and@@ 390
claim 390
finally 390
slightly 390
Service 389
ler 389
listed 389
pro@@ 389
purpose 389
1929 388
Corporation 388
He@@ 388
S. 388
co-@@ 388
defeat 388
news 388
specifically 388
student 388
1938 387
Dictionary 387
powerful 387
ya 387
basis 386
executive 386
formation 386
ist@@ 386
ted 386
trains 386
Cambridge 385
Cl@@ 385
Coast 385
Turkey 385
individuals 385
society 385
succeeded 385
unique 385
constructed 384
influential 384
pages 384
sk@@ 384
theater 384
Baseball 383
Ber@@ 383
effects 383
rivers 383
} 383
Hungary 382
Punjab 382
applications 382
ass@@ 382
le-@@ 382
supported 382
Borough 381
Chief 381
Stone 381
abbreviated 381
designated 381
eg@@ 381
mon 381
Bureau 380
DNA 380
extended 380
inspired 380
remaining 380
20@@ 379
Bank 379
asteroid 379
block 379
conducted 379
episodes 379
ships 379
split 379
Turkish 378
contemporary 378
Inc. 377
Indiana 377
holds 377
strength 377
victory 377
Law 376
Marie 376
Michigan 376
bodies 376
cancer 376
ion@@ 376
ise 376
mathematics 376
ment 376
out@@ 376
presented 376
département 375
est@@ 375
online 375
portion 375
Her@@ 374
credited 374
historic 374
letters 374
sign 374
Ab@@ 373
Anne 373
Greece 373
Toronto 373
atomic 373
az@@ 373
traditionally 373
1900 372
Asian 372
Peninsula 372
Who 372
cathedral 372
for@@ 372
helped 372
ica 372
lyrics 372
municipalities 372
sky 372
v 372
weather 372
Also 371
Bible 371
Kong 371
drama 371
organisms 371
1919 370
Moscow 370
Tokyo 370
ch 370
punk 370
remain 370
1934 369
64 369
Minnesota 369
NFL 369
Paulo 369
ers@@ 369
increased 369
ma 369
selected 369
training 369
your 369
account 368
cor@@ 368
foreign 368
instruments 368
perhaps 368
rich 368
serve 368
table 368
weight 368
1912 367
Pro@@ 367
buried 367
ep@@ 367
F.C. 366
Order 366
bird 366
closed 366
die 366
mixed 366
og@@ 366
pieces 366
results 366
separated 366
vote 366
1932 365
Art 365
ata 365
awards 365
basketball 365
capacity 365
cents 365
drummer 365
secondary 365
tr@@ 365
Pr@@ 364
Though 364
attacks 364
ity 364
route 364
sch@@ 364
spelled 364
usage 364
Armenia 363
Bo@@ 363
bi@@ 363
ide 363
normally 363
ore 363
parallel 363
pass 363
read 363
2011 362
Kansas 362
M. 362
call 362
connected 362
proper 362
res@@ 362
share 362
spring 362
Fame 361
Office 361
done 361
landfall 361
territories 361
twice 361
web 361
activities 360
b. 360
carried 360
headquarters 360
observed 360
Ancient 359
No. 359
Of 359
af@@ 359
ber@@ 359
eye 359
initial 359
leave 359
physics 359
under@@ 359
Arabic 358
E. 358
Sal@@ 358
Science 358
camp 358
ong 358
ary 357
chess 357
machine 357
minutes 357
18th 356
Madrid 356
berg 356
serves 356
spread 356
Ad@@ 355
channel 355
depression 355
mean 355
mph 355
nominated 355
officer 355
Earl 354
alone 354
ara 354
despite 354
goalkeeper 354
lands 354
ow@@ 354
Munich 353
OS 353
Alabama 352
Billboard 352
Orthodox 352
That 352
Times 352
ford 352
height 352
internal 352
need 352
ol 352
As@@ 351
Com@@ 351
Milan 351
Peace 351
Rio 351
adult 351
i-@@ 351
mentioned 351
opposite 351
response 351
ry 351
Four 350
popularity 350
string 350
Abbottabad 349
ade 349
flow 349
ge@@ 349
permanent 349
professor 349
Caribbean 348
Francis 348
Lincoln 348
Walloon 348
alongside 348
cut 348
drive 348
follows 348
ians 348
winter 348
å 348
300 347
Category 347
Christ 347
Dominican 347
existence 347
ines 347
minister 347
Rail 346
Taylor 346
bus 346
entirely 346
existed 346
god 346
rose 346
More 345
authority 345
aw@@ 345
ens@@ 345
formula 345
sets 345
wall 345
D. 344
Imperial 344
arms 344
figures 344
wave 344
2nd 343
Fort 343
Jones 343
ah@@ 343
format 343
functions 343
hair 343
motion 343
presence 343
skin 343
solar 343
ting 343
Kashmir 342
ani 342
forward 342
Ñ 342
1924 341
Mediterranean 341
category 341
circuit 341
concert 341
difficult 341
electronic 341
ery 341
flows 341
represents 341
seventh 341
Portugal 340
alphabet 340
shared 340
teacher 340
travel 340
Age 339
Biography 339
causes 339
structures 339
1\/2 338
? 338
Bal@@ 338
Space 338
property 338
purposes 338
representing 338
Library 337
Mac@@ 337
Philip 337
Upper 337
Ver@@ 337
cycle 337
killing 337
medieval 337
selling 337
speech 337
yet 337
Death 336
Mr. 336
Opera 336
Saxony 336
double 336
ee 336
folk 336
genre 336
organ 336
possibly 336
rail 336
te@@ 336
Di@@ 335
Hamilton 335
Justice 335
airport 335
combination 335
dry 335
ene 335
subsequent 335
{ 335
Jane 334
Top 334
critical 334
immediately 334
ized 334
orbit 334
represent 334
rise 334
translated 334
400 333
51 333
EP 333
Stephen 333
churches 333
des 333
develop 333
philosopher 333
twelve 333
un 333
well-known 333
Count 332
Women 332
believe 332
br@@ 332
religion 332
sex 332
shot 332
Argentina 331
Centre 331
Christmas 331
ering 331
hosted 331
Danish 330
Pl@@ 330
brothers 330
composition 330
continue 330
dog 330
expanded 330
granted 330
if@@ 330
mountains 330
outer 330
test 330
up@@ 330
1935 329
K 329
behavior 329
contract 329
going 329
iz@@ 329
marked 329
metres 329
occupied 329
powers 329
² 329
1901 328
allowing 328
campaign 328
evolution 328
extensive 328
ial 328
ks 328
mark 328
prime 328
scene 328
theme 328
Song 327
administration 327
ages 327
ang@@ 327
carbon 327
equivalent 327
ive 327
north-central 327
plane 327
sons 327
translation 327
ub@@ 327
Adams 326
Foundation 326
Johnson 326
Norway 326
SÃ 326
plan 326
tracks 326
1914 325
Doctor 325
Lower 325
chain 325
designation 325
editor 325
sales 325
super@@ 325
Abbey 324
Colorado 324
PC 324
Station 324
Wilson 324
d'Azur 324
examples 324
hands 324
mi 324
Last 323
Palace 323
SmackDown 323
ano 323
evolved 323
laws 323
mainland 323
net 323
note 323
ok@@ 323
potential 323
smallest 323
things 323
Castle 322
List 322
Robinson 322
dedicated 322
issue 322
1922 321
Alaska 321
Islam 321
ance 321
celebrated 321
expansion 321
images 321
wild 321
Highway 320
Sk@@ 320
causing 320
cold 320
Mont@@ 319
charge 319
classic 319
compared 319
compounds 319
operations 319
rural 319
sites 319
ud@@ 319
ze 319
1.@@ 318
34 318
Christianity 318
DS 318
Fire 318
Mag@@ 318
Originally 318
Val@@ 318
ative 318
contained 318
ft 318
inc@@ 318
normal 318
removed 318
resulted 318
visible 318
1925 317
Ag@@ 317
CD 317
Hot 317
PokÃ 317
bar 317
car@@ 317
console 317
contrast 317
fashion 317
mechanical 317
meeting 317
told 317
Aube 316
Christopher 316
Er@@ 316
Several 316
Vietnam 316
ars 316
ess@@ 316
flat 316
33 315
Ph@@ 315
Pictures 315
Williams 315
appearances 315
ell@@ 315
entry 315
experience 315
ham 315
issues 315
milk 315
reign 315
sides 315
van 315
0-@@ 314
36 314
38 314
Bavaria 314
F. 314
Frank 314
Gu@@ 314
VI 314
acquired 314
gr@@ 314
ile 314
lack 314
perform 314
ranked 314
youngest 314
1927 313
Brian 313
Grammy 313
Interstate 313
Network 313
Open 313
\* 313
festival 313
ich@@ 313
master 313
tribe 313
coastal 312
deal 312
ised 312
performing 312
storms 312
universe 312
1923 311
Yorkshire 311
anti-@@ 311
exchange 311
musicians 311
selection 311
suggested 311
á@@ 311
decades 310
describes 310
formally 310
ran@@ 310
3rd 309
Final 309
Over 309
Research 309
descent 309
organizations 309
poor 309
populous 309
scored 309
self-@@ 309
transport 309
65 308
Square 308
aged 308
ann@@ 308
attention 308
comic 308
earthquake 308
failed 308
global 308
grown 308
pianist 308
prison 308
rare 308
tournament 308
1926 307
Arab 307
Finland 307
MÃ 307
Senate 307
actual 307
bar@@ 307
extremely 307
methods 307
positive 307
pre-@@ 307
singer-songwriter 307
4-@@ 306
Al 306
Philadelphia 306
decade 306
ideas 306
operation 306
relative 306
Benjamin 305
Florence 305
Founded 305
Navy 305
Saturday 305
Territory 305
Theatre 305
Walter 305
ca 305
chosen 305
financial 305
gl@@ 305
invented 305
ure 305
1910 304
ArdÃ 304
Johann 304
d'@@ 304
distributed 304
eggs 304
foot 304
ization 304
liquid 304
measure 304
ver@@ 304
1908 303
Bowl 303
Montreal 303
application 303
cars 303
mm 303
typical 303
1,@@ 302
16th 302
Hong 302
PlayStation 302
Social 302
ane 302
captain 302
ette 302
file 302
loss 302
particles 302
pre@@ 302
properties 302
ret@@ 302
surviving 302
17th 301
Col@@ 301
Constitution 301
break 301
management 301
senior 301
shortly 301
temporary 301
we@@ 301
48 300
Hollywood 300
Home 300
ain 300
something 300
17@@ 299
1928 299
Bob 299
Mountain 299
economy 299
soldiers 299
Main 298
classification 298
gu@@ 298
4th 297
95 297
Jean 297
Juan 297
Kh@@ 297
boundary 297
daily 297
got 297
hour 297
kind 297
kingdom 297
performances 297
problem 297
ta 297
tribes 297
5-@@ 296
Wilhelm 296
blues 296
colonial 296
engines 296
rain 296
stop 296
suburb 296
Committee 295
Supreme 295
ence 295
meet 295
technique 295
throne 295
villages 295
1950s 294
Birmingham 294
Joe 294
Max 294
Pe@@ 294
Van 294
conflict 294
continues 294
jazz 294
mar@@ 294
marine 294
needed 294
reason 294
wing 294
150 293
Assembly 293
Bangladesh 293
Hitler 293
Long 293
Public 293
ang 293
ari 293
creating 293
dating 293
den 293
ind@@ 293
join 293
memory 293
programming 293
rec@@ 293
street 293
Argentine 292
L. 292
Protestant 292
Sports 292
Triple 292
communities 292
existing 292
girl 292
platform 292
writers 292
2-@@ 291
Labor 291
Su@@ 291
castle 291
fans 291
ites 291
opposed 291
37 290
46 290
Bell 290
Hawaii 290
WWF 290
aceae 290
elle 290
grow 290
impact 290
literary 290
managed 290
occasionally 290
peace 290
res 290
values 290
bottom 289
confirmed 289
distinguished 289
eng@@ 289
facilities 289
flight 289
my 289
transferred 289
annually 288
appearing 288
bo@@ 288
domestic 288
edge 288
fellow 288
ich 288
successor 288
Cap@@ 287
Film 287
Maya 287
Nor@@ 287
Samuel 287
big 287
biology 287
boy 287
continental 287
deep 287
glass 287
keep 287
magnitude 287
residents 287
39 286
Bi@@ 286
Common 286
Community 286
Ministry 286
Racing 286
Ross 286
VII 286
asked 286
claims 286
els 286
leap 286
no@@ 286
starred 286
stock 286
zone 286
Jews 285
contact 285
entitled 285
expected 285
parish 285
talk 285
Education 284
Mike 284
aka 284
differences 284
ki 284
let 284
morning 284
ov 284
Harrison 283
References 283
d-@@ 283
ella 283
ered 283
ker 283
mis@@ 283
row 283
3-@@ 282
Adam 282
Mat@@ 282
ast@@ 282
build 282
captured 282
fought 282
pay-per-view 282
waters 282
Av@@ 281
Bel@@ 281
Diego 281
Studios 281
paintings 281
score 281
solid 281
Among 280
Captain 280
Inter@@ 280
Iraq 280
Ke@@ 280
Tim 280
attached 280
computers 280
constant 280
earth 280
flowers 280
me@@ 280
notes 280
om 280
owner 280
universities 280
ECW 279
Kar@@ 279
Mo@@ 279
att@@ 279
charts 279
comedian 279
eyes 279
parliament 279
silver 279
uk@@ 279
47 278
Arizona 278
Provence-Alpes-C 278
Sc@@ 278
W 278
Way 278
bassist 278
determined 278
drums 278
security 278
solution 278
widespread 278
youth 278
44 277
Egyptian 277
Friday 277
Ge@@ 277
Jefferson 277
care 277
colony 277
et-@@ 277
ethnic 277
parties 277
pilot 277
rapidly 277
revealed 277
3\/4 276
Lu@@ 276
Muslims 276
NBA 276
Vancouver 276
ama 276
centre 276
ely 276
reaching 276
singing 276
13th 275
1916 275
Barcelona 275
Beatles 275
Ottoman 275
Philharmonic 275
Roger 275
VIII 275
analysis 275
cross 275
du 275
enc@@ 275
kept 275
mammals 275
maximum 275
medicine 275
processes 275
staff 275
ula 275
1921 274
42 274
Bad 274
Philippines 274
agreement 274
ard@@ 274
campus 274
ena 274
rank 274
relations 274
surrounded 274
und 274
1911 273
Aargau 273
Apple 273
Can@@ 273
Director 273
Late 273
Pittsburgh 273
Renaissance 273
Serie 273
ada 273
dogs 273
extreme 273
ff@@ 273
ious 273
races 273
soft 273
taught 273
vi@@ 273
Du@@ 272
Special 272
ess 272
importance 272
movies 272
stands 272
1917 271
But 271
Security 271
We 271
easily 271
enter 271
j 271
obtained 271
producing 271
rarely 271
Retrieved 270
adapted 270
agent 270
clear 270
ides 270
nations 270
one-@@ 270
positions 270
protect 270
radiation 270
reduced 270
reg@@ 270
speak 270
tallest 270
traffic 270
ura 270
É 270
72 269
Children 269
Fl@@ 269
Forest 269
P. 269
Puerto 269
characterized 269
chocolate 269
degrees 269
depending 269
ick 269
prevent 269
uc@@ 269
worth 269
15th 268
Afghanistan 268
Alfred 268
Del@@ 268
card 268
fight 268
linked 268
newly 268
peninsula 268
poem 268
populations 268
recognition 268
Jim 267
Muhammad 267
Virgin 267
approach 267
involving 267
iron 267
models 267
ola 267
promotion 267
salt 267
sun 267
Matthew 266
Underground 266
Wisconsin 266
agreed 266
iss@@ 266
orders 266
recordings 266
armed 265
belt 265
der@@ 265
difference 265
electrical 265
genetic 265
goes 265
guest 265
ill 265
signal 265
tried 265
Cal@@ 264
Carlos 264
Creek 264
Don 264
Geneva 264
Liverpool 264
Norwegian 264
Quebec 264
Survivor 264
Thus 264
aid 264
context 264
devices 264
micro@@ 264
municipal 264
pair 264
percent 264
pp 264
quality 264
standing 264
Professor 263
fuel 263
necessary 263
ocean 263
1-@@ 262
1913 262
:@@ 262
External 262
Hungarian 262
Mexican 262
Min@@ 262
Monday 262
Seven 262
angle 262
hence 262
pe@@ 262
script 262
store 262
two-@@ 262
Bur@@ 261
Detroit 261
Sar@@ 261
Simon 261
communication 261
contributions 261
ita 261
organic 261
quite 261
Karl 260
Power 260
ac 260
art@@ 260
ek 260
ents 260
ky 260
medium 260
nor 260
onto 260
q@@ 260
que 260
'@@ 259
Commission 259
DÃ 259
Lo@@ 259
Missouri 259
War@@ 259
disk 259
kill 259
projects 259
55 258
Anthony 258
Heritage 258
La@@ 258
WrestleMania 258
aj@@ 258
ari@@ 258
briefly 258
coming 258
derives 258
freedom 258
roots 258
soil 258
ug@@ 258
visual 258
weapons 258
Em@@ 257
Gold 257
Ros@@ 257
Sarah 257
Tower 257
Warner 257
assigned 257
cost 257
holding 257
ie@@ 257
ren@@ 257
str@@ 257
sw@@ 257
ung 257
wine 257
Ac@@ 256
Carl 256
Tony 256
ain@@ 256
fossil 256
institutions 256
maintained 256
produces 256
ranging 256
reality 256
storage 256
ue 256
Anna 255
Patrick 255
Socialist 255
audience 255
authorities 255
ea 255
fighting 255
hundred 255
hydrogen 255
-like 254
Char@@ 254
Chile 254
Country 254
Friedrich 254
ash 254
biggest 254
command 254
follow 254
phrase 254
search 254
settled 254
speaking 254
tells 254
-based 253
Far@@ 253
Ian 253
Real 253
VendÃ 253
ber 253
graduated 253
ins@@ 253
ou 253
protection 253
visit 253
waves 253
1903 252
1931 252
Band 252
Between 252
Bros. 252
Due 252
Mas@@ 252
Member 252
Organization 252
Ticino 252
We@@ 252
Westminster 252
bed 252
bordered 252
fantasy 252
goods 252
ible 252
inner 252
painting 252
plastic 252
template 252
6th 251
About 251
Antonio 251
BCE 251
Do 251
Is@@ 251
Phoenix 251
Potter 251
Unlike 251
min@@ 251
reaction 251
tea 251
54 250
G. 250
Is 250
Master 250
Vaucluse 250
affected 250
banks 250
consisted 250
gen@@ 250
leadership 250
oh@@ 250
ow 250
premiered 250
stream 250
tri@@ 250
Alice 249
Ardèche 249
Guinea 249
K. 249
Pal@@ 249
Police 249
arrived 249
beyond 249
extinct 249
fine 249
goddess 249
physicist 249
speakers 249
Cam@@ 248
Hebrew 248
Independence 248
Taiwan 248
Ter@@ 248
au@@ 248
com@@ 248
ech@@ 248
journalist 248
output 248
underground 248
unknown 248
vehicle 248
Ali 247
Dis@@ 247
For@@ 247
Neptune 247
confused 247
critics 247
deaths 247
negative 247
orbits 247
oxygen 247
reasons 247
treatment 247
Ë 247
At@@ 246
Glasgow 246
Howard 246
Out 246
Wal@@ 246
ats 246
avoid 246
crust 246
dr@@ 246
eleven 246
escape 246
floor 246
focus 246
leaders 246
mat@@ 246
mathematician 246
meters 246
periods 246
planned 246
present-day 246
setting 246
teaching 246
transfer 246
1865 245
MTV 245
Mu@@ 245
Sa@@ 245
Sam@@ 245
actions 245
brown 245
forest 245
nickname 245
passenger 245
processing 245
providing 245
tail 245
tall 245
wear 245
yl@@ 245
Fe@@ 244
Finnish 244
Kennedy 244
What 244
atmosphere 244
bone 244
ness 244
publication 244
ti 244
41 243
Conservative 243
Ex@@ 243
Good 243
Hor@@ 243
Human 243
Medicine 243
São 243
Temple 243
bear 243
characteristics 243
classes 243
es-@@ 243
invasion 243
murder 243
reports 243
subtropical 243
visited 243
whereas 243
ys 243
2.@@ 242
Cold 242
Hills 242
R&B 242
Rangers 242
Xbox 242
Years 242
concerts 242
converted 242
ish@@ 242
map 242
receive 242
to@@ 242
wanted 242
Die 241
Indonesia 241
Mayor 241
bound 241
ign@@ 241
mathematical 241
museum 241
otherwise 241
report 241
spelling 241
stores 241
thousands 241
/O. 240
66 240
Gaelic 240
Zone 240
arch@@ 240
begin 240
secret 240
styles 240
succession 240
w 240
/ 239
1895 239
5th 239
Byzantine 239
Dark 239
Local 239
Mil@@ 239
Page 239
attempts 239
branches 239
ce 239
equipment 239
governor 239
heavily 239
ize 239
met@@ 239
rocks 239
steel 239
temperatures 239
walls 239
1904 238
Ap@@ 238
De 238
Lewis 238
Mac 238
address 238
broad 238
failure 238
gradually 238
operates 238
poetry 238
press 238
referring 238
renowned 238
require 238
ste@@ 238
sugar 238
techniques 238
Miller 237
Pierre 237
Sol@@ 237
Statistics 237
act@@ 237
ger 237
lie 237
ordered 237
passing 237
shaped 237
tennis 237
800 236
Bishop 236
Britannica 236
Draft 236
Matt 236
Ray 236
chairman 236
dominant 236
introduction 236
7th 235
Franklin 235
academic 235
broke 235
coffee 235
kin 235
wh@@ 235
æ 235
Century 234
Ferdinand 234
Les 234
Marshall 234
Pol@@ 234
Trophy 234
brief 234
conference 234
elections 234
genera 234
library 234
meant 234
mission 234
partner 234
ri 234
unusual 234
Arkansas 233
Ben 233
Fre@@ 233
Period 233
Republican 233
SI 233
ash@@ 233
belief 233
goaltender 233
items 233
nÃ 233
sub-@@ 233
suffered 233
treaty 233
violin 233
warm 233
1906 232
1915 232
Kim 232
Memorial 232
Super@@ 232
Television 232
bu@@ 232
cards 232
consider 232
covering 232
ect@@ 232
ik 232
novelist 232
question 232
semi-@@ 232
stand 232
vehicles 232
Garden 231
UEFA 231
Vice 231
anthem 231
eighth 231
establishment 231
hall 231
lan@@ 231
ona 231
oph@@ 231
resources 231
shell 231
st 231
uk 231
43 230
Bor@@ 230
Bruce 230
Caesar 230
Charlotte 230
Cuba 230
Jerusalem 230
Lawrence 230
Mer@@ 230
Pat@@ 230
Project 230
Third 230
Your 230
aut@@ 230
dropped 230
ida 230
joint 230
northeastern 230
ster 230
1000 229
1891 229
71 229
Ages 229
Bre@@ 229
Chancellor 229
Moon 229
Ro@@ 229
Sub@@ 229
ala 229
component 229
flowering 229
offered 229
personality 229
politics 229
post-@@ 229
regularly 229
releases 229
sequence 229
texts 229
26@@ 228
Development 228
agency 228
bor@@ 228
eat 228
empire 228
exclusively 228
gods 228
horse 228
ises 228
message 228
opposition 228
q 228
technical 228
ying 228
Catherine 227
Edinburgh 227
I. 227
Language 227
Seattle 227
Standard 227
ades 227
boundaries 227
couple 227
historically 227
massive 227
mo@@ 227
oxide 227
planets 227
resistance 227
ruler 227
Bon@@ 226
Eric 226
Heavyweight 226
Rose 226
Tennessee 226
chemistry 226
condition 226
giant 226
kilometers 226
knowledge 226
seeds 226
1905 225
Five 225
Flanders 225
Li@@ 225
Ukraine 225
Welsh 225
and\/or 225
defense 225
headed 225
lists 225
narrow 225
printed 225
tourist 225
1902 224
250 224
Graham 224
Jordan 224
Up 224
comprising 224
defensive 224
divisions 224
substance 224
trial 224
worn 224
ä@@ 224
-de-@@ 223
1907 223
9-@@ 223
98 223
Chess 223
Darwin 223
Events 223
Mel@@ 223
Sciences 223
an-@@ 223
biological 223
challenge 223
decision 223
onic 223
plans 223
say 223
ski 223
1882 222
best-known 222
capture 222
charged 222
increasing 222
lasted 222
meat 222
presidential 222
ru@@ 222
scoring 222
53 221
6-@@ 221
Americans 221
Crown 221
Fer@@ 221
Hel@@ 221
Ser@@ 221
Te@@ 221
developing 221
fame 221
high-@@ 221
income 221
manner 221
medal 221
mining 221
8-@@ 220
99 220
Bu@@ 220
Dor@@ 220
Online 220
Testament 220
ase 220
bacteria 220
belonging 220
capable 220
ey@@ 220
identity 220
logic 220
measured 220
ory 220
ranges 220
someone 220
sur@@ 220
7-@@ 219
85 219
Alan 219
Atlanta 219
Junior 219
MP 219
bring 219
clothing 219
contested 219
executed 219
extension 219
layer 219
lin 219
of@@ 219
paid 219
passes 219
prize 219
replace 219
supply 219
08 218
12th 218
J 218
ach 218
backing 218
ding 218
engineer 218
expression 218
her@@ 218
hits 218
instance 218
istic 218
mode 218
ro 218
views 218
Communist 217
Foreign 217
Ger@@ 217
Ha@@ 217
Mars 217
Nicholas 217
Po@@ 217
Solar 217
T. 217
add 217
beat 217
continent 217
designer 217
em 217
emerged 217
ew@@ 217
falls 217
involves 217
leads 217
saying 217
ser@@ 217
si@@ 217
spot 217
straight 217
vertical 217
Defense 216
Las 216
Red@@ 216
ceremony 216
childhood 216
ern@@ 216
reading 216
rel@@ 216
rhythm 216
ric 216
voted 216
52 215
Alpes-Maritimes 215
Girl 215
My@@ 215
Wagner 215
ality 215
bur@@ 215
drug 215
ese 215
insects 215
km\/h 215
offers 215
picture 215
proved 215
rugby 215
sal@@ 215
2,@@ 214
56 214
74 214
Billy 214
Bobby 214
Davis 214
Ru@@ 214
Total 214
broken 214
components 214
crew 214
debuted 214
external 214
hill 214
indicate 214
mayor 214
organism 214
principle 214
quantum 214
unlike 214
ó@@ 214
18@@ 213
AC 213
Manhattan 213
architect 213
candidate 213
choice 213
fell 213
historian 213
ong@@ 213
poly@@ 213
request 213
1889 212
Hart 212
Prior 212
Video 212
carry 212
competed 212
felt 212
fresh 212
hosts 212
movements 212
parent 212
plot 212
plus 212
preserved 212
scheduled 212
sovereign 212
statesman 212
supporting 212
49 211
Cast@@ 211
GNU 211
Kevin 211
Once 211
Voyager 211
aff@@ 211
autonomous 211
ba 211
dia 211
entertainment 211
grounds 211
heard 211
ian@@ 211
injury 211
land@@ 211
phase 211
prey 211
sm@@ 211
suggests 211
traveled 211
1898 210
58 210
59 210
Arctic 210
Houston 210
Hu@@ 210
SS 210
Tor@@ 210
advanced 210
asteroids 210
composers 210
ett@@ 210
forests 210
interview 210
marks 210
modified 210
occupation 210
offices 210
origins 210
strings 210
tube 210
í@@ 210
600 209
Idaho 209
Ir@@ 209
Tar@@ 209
Works 209
_ 209
air@@ 209
alism 209
ational 209
details 209
efforts 209
fer@@ 209
ha 209
hy@@ 209
identical 209
ingen 209
moons 209
oo@@ 209
retrograde 209
safety 209
severe 209
showed 209
stages 209
tool 209
1857 208
Arena 208
Mah@@ 208
Tak@@ 208
Universal 208
Wii 208
adjacent 208
intensity 208
learning 208
scientists 208
shares 208
trans@@ 208
ures 208
96 207
Affairs 207
Ban@@ 207
Championships 207
Giovanni 207
Janeiro 207
Moore 207
employed 207
kmÂ 207
routes 207
year-old 207
(/O@@ 206
Christians 206
D.C. 206
DC 206
FRS 206
Gothic 206
Hal@@ 206
Im@@ 206
Iron 206
Media 206
Wil@@ 206
brain 206
ches 206
circulation 206
mixture 206
officers 206
serious 206
tools 206
68 205
Ol@@ 205
ath@@ 205
attempted 205
circle 205
cultures 205
ening 205
fast 205
mann 205
observations 205
perfect 205
waste 205
1,000 204
Cat@@ 204
Convention 204
CÃ 204
Queensland 204
Web 204
Y 204
bright 204
co 204
connection 204
councils 204
distinctive 204
legs 204
offer 204
reviews 204
situation 204
Allen 203
FIA 203
Water 203
artistic 203
educated 203
establish 203
frequency 203
hills 203
moves 203
ny 203
po@@ 203
ve 203
25@@ 202
28@@ 202
360 202
Agency 202
Bengal 202
Douglas 202
Gl@@ 202
Point 202
Russell 202
computing 202
ff 202
fishing 202
foundation 202
greatly 202
job 202
labor 202
lo@@ 202
males 202
mobile 202
ote 202
1909 201
Homo 201
I-@@ 201
Journal 201
Only 201
Serbia 201
bounded 201
burg 201
documents 201
ek@@ 201
electricity 201
exists 201
invited 201
la@@ 201
magnetic 201
requires 201
traditions 201
ul 201
81 200
Board 200
Brothers 200
Celtic 200
Gal@@ 200
Not 200
Pet@@ 200
activist 200
arrested 200
back@@ 200
boat 200
changing 200
citizens 200
drawn 200
flower 200
huge 200
ities 200
minute 200
molecules 200
monarch 200
palace 200
purchased 200
scholars 200
shear 200
starts 200
to-@@ 200
ultimately 200
workers 200
Ak@@ 199
Austin 199
Ben@@ 199
Even 199
Franz 199
Hospital 199
Rolling 199
Romans 199
Sam 199
Sl@@ 199
agricultural 199
ators 199
characteristic 199
civilization 199
distinction 199
document 199
factors 199
hardware 199
holiday 199
laid 199
ora 199
path 199
thousand 199
try 199
10,000 198
88 198
José 198
Kal@@ 198
Located 198
Monroe 198
RNA 198
Rhine-Westphalia 198
Site 198
amateur 198
assistant 198
cre@@ 198
explorer 198
extends 198
launch 198
neither 198
organist 198
pr@@ 198
rapid 198
sa 198
sen 198
sing 198
ys@@ 198
Be 197
End 197
Prussia 197
Shakespeare 197
West@@ 197
accompanied 197
anime 197
arrival 197
cat 197
colored 197
consecutive 197
constitution 197
educational 197
effort 197
evolutionary 197
ly@@ 197
meets 197
peaked 197
promoted 197
receiving 197
screen 197
shortened 197
86 196
Alliance 196
Dead 196
Father 196
Norman 196
Orange 196
Sw@@ 196
Tri@@ 196
Uranus 196
administered 196
advantage 196
amb@@ 196
aspects 196
compete 196
cyclones 196
description 196
door 196
drivers 196
garden 196
geometry 196
hip 196
ix 196
passengers 196
references 196
ros@@ 196
sections 196
shore 196
standards 196
t-@@ 196
toward 196
vocal 196
1899 195
Hindu 195
Hol@@ 195
Louisiana 195
NBC 195
Norse 195
Oliver 195
Southeast 195
accessed 195
actors 195
commissioned 195
crime 195
dated 195
ement 195
expressed 195
illa 195
imperial 195
instruction 195
izing 195
kn@@ 195
know 195
partly 195
prepared 195
queen 195
representative 195
says 195
scientist 195
trading 195
ü@@ 195
1930s 194
Amsterdam 194
BÃ 194
Don@@ 194
Gen@@ 194
Jura 194
Na@@ 194
Sindh 194
Thailand 194
ai@@ 194
background 194
bones 194
codes 194
gain 194
int@@ 194
lowest 194
networks 194
non@@ 194
teeth 194
14th 193
77 193
79 193
Clinton 193
Encyclopedia 193
Era 193
Gordon 193
Hardy 193
Jeff 193
Men@@ 193
cur@@ 193
iÃ 193
ninth 193
ological 193
orange 193
participated 193
wheel 193
É@@ 193
Angel 192
Bach 192
Boys 192
Cook 192
Drama 192
FÃ 192
Google 192
Jan 192
Light 192
ace 192
adding 192
beach 192
controversial 192
determine 192
dÃ 192
institution 192
license 192
mechanics 192
plain 192
rem@@ 192
server 192
target 192
und@@ 192
vast 192
weekly 192
1892 191
78 191
Chase 191
Go@@ 191
Homer 191
Napoleon 191
^ 191
bit 191
cooking 191
cousin 191
grand 191
har@@ 191
ington 191
lakes 191
ock 191
ori 191
pattern 191
persons 191
powered 191
stable 191
subjects 191
thin 191
worship 191
ö@@ 191
1896 190
73 190
9th 190
Athens 190
Delta 190
Jonathan 190
Ring 190
Sri 190
centers 190
exception 190
extent 190
heads 190
herself 190
instructions 190
promote 190
1893 189
19@@ 189
83 189
Hugo 189
Note 189
Pan@@ 189
Roosevelt 189
Youth 189
amp@@ 189
categories 189
count 189
eaten 189
editing 189
ere 189
fluid 189
four-@@ 189
inches 189
ique 189
maintain 189
occasions 189
useful 189
10th 188
2.5 188
5,000 188
Geography 188
Haiti 188
Native 188
Overview 188
Pakistani 188
So 188
ab 188
arm 188
assumed 188
combat 188
defeating 188
effective 188
females 188
irregular 188
multi-@@ 188
populated 188
reputation 188
root 188
sleep 188
sur-@@ 188
twenty 188
unt@@ 188
volcanic 188
1890 187
Baron 187
Ca@@ 187
Forbes 187
Fr@@ 187
ISO 187
Maryland 187
Story 187
abandoned 187
astronomer 187
attacking 187
authors 187
considerable 187
defeats 187
lifetime 187
manufacturer 187
publishing 187
sum 187
1887 186
200@@ 186
And 186
Baltimore 186
Depression 186
Heart 186
Margaret 186
Mercury 186
Syria 186
Ur@@ 186
all-@@ 186
arranged 186
colonies 186
dioxide 186
losing 186
n-@@ 186
peoples 186
pur@@ 186
rival 186
succeeds 186
survived 186
900 185
All@@ 185
Austen 185
Ba@@ 185
Cleveland 185
Gar@@ 185
Land@@ 185
Lennon 185
Slavic 185
Zeus 185
accident 185
accounts 185
crown 185
duo 185
exclusive 185
legend 185
motor 185
operate 185
physician 185
plate 185
rates 185
ron 185
seats 185
su@@ 185
1861 184
Al-@@ 184
Hercules 184
Holland 184
Magazine 184
Mus@@ 184
Romanian 184
Thompson 184
Urban 184
_@@ 184
aux 184
belongs 184
coat 184
dancer 184
diverse 184
filled 184
inhabited 184
input 184
joining 184
ko 184
locations 184
look 184
mainstream 184
ont@@ 184
practical 184
refused 184
registered 184
returning 184
tributary 184
1867 183
Az@@ 183
GÃ 183
Hans 183
Mart@@ 183
Miami 183
Place 183
Pro 183
Reich 183
Tamil 183
ail 183
chamber 183
chi 183
cloud 183
fly 183
fundamental 183
household 183
ico 183
junior 183
ney 183
showing 183
significantly 183
stay 183
subdivision 183
varies 183
violence 183
wins 183
69 182
Bou@@ 182
Express 182
Gre@@ 182
Jon 182
Kent 182
Pre@@ 182
Six 182
currency 182
ded 182
designs 182
documentary 182
drink 182
files 182
hundreds 182
lime 182
lying 182
martial 182
mineral 182
oral 182
ron@@ 182
rÃ 182
62 181
Books 181
Champions 181
Health 181
Ly@@ 181
Official 181
Rec@@ 181
Sel@@ 181
Tel@@ 181
Upon 181
elevation 181
girls 181
installed 181
kh@@ 181
molecular 181
occasional 181
officials 181
plural 181
reduce 181
so-called 181
sol@@ 181
ten@@ 181
ular 181
00@@ 180
8th 180
Commons 180
Corps 180
Girls 180
Jason 180
Mad@@ 180
Mi@@ 180
Original 180
Orton 180
Silver 180
Str@@ 180
Such 180
ais 180
audio 180
beliefs 180
charges 180
concentration 180
destruction 180
ef@@ 180
lawyer 180
leg@@ 180
mind 180
ns 180
rac@@ 180
rainfall 180
residence 180
resort 180
slowly 180
tim@@ 180
vary 180
1879 179
1881 179
Airlines 179
Americas 179
CE 179
Connecticut 179
Field 179
Iranian 179
Luis 179
New@@ 179
Rom@@ 179
ami 179
client 179
drawing 179
elli 179
equator 179
establishing 179
ett 179
neck 179
ps 179
representation 179
steam 179
successfully 179
ut 179
writings 179
zero 179
5,@@ 178
Bull 178
Chapel 178
Cou@@ 178
Dan@@ 178
Madison 178
Tuscany 178
USD 178
altitude 178
ao 178
atoms 178
banned 178
conducting 178
corresponding 178
execution 178
fixed 178
gene 178
generated 178
horizontal 178
ii 178
ima 178
ited 178
regarding 178
subdivided 178
th-@@ 178
A-@@ 177
Bernard 177
Coll@@ 177
Kat@@ 177
anus 177
belong 177
bits 177
can@@ 177
closest 177
faith 177
fleet 177
interior 177
kinds 177
mile 177
minority 177
pol@@ 177
sentence 177
subsidiary 177
subspecies 177
themes 177
tower 177
well-@@ 177
× 177
63 176
82 176
Arnold 176
Edmund 176
Herbert 176
Jerry 176
LÃ 176
Northwest 176
Percy 176
Stewart 176
US@@ 176
edit 176
enberg 176
experienced 176
ional 176
journey 176
learned 176
necessarily 176
ose 176
particle 176
rep@@ 176
seconds 176
somewhat 176
step 176
unable 176
uncle 176
voiced 176
wings 176
Berkeley 175
Dakota 175
Dem@@ 175
Ed@@ 175
Kurt 175
Midlands 175
Otto 175
Ra@@ 175
Reg@@ 175
Rico 175
amounts 175
ato 175
axis 175
ceremonial 175
copy 175
cr@@ 175
dem@@ 175
den@@ 175
ened 175
hole 175
inus 175
ising 175
ito 175
phenomenon 175
pi@@ 175
post@@ 175
seed 175
yn@@ 175
Barry 174
Cu@@ 174
Dar@@ 174
Ko@@ 174
Pi@@ 174
Rhine 174
Shah 174
Stars 174
Whedon 174
aria 174
boys 174
cable 174
calls 174
copper 174
disc 174
dish 174
displayed 174
eldest 174
gate 174
hal@@ 174
inventor 174
manufactured 174
proof 174
sisters 174
understanding 174
Baptist 173
Brooklyn 173
Carter 173
Leeds 173
dominated 173
fairly 173
farm 173
ful 173
increasingly 173
internationally 173
mer 173
operas 173
ost@@ 173
our@@ 173
painted 173
print 173
publisher 173
societies 173
specialized 173
treated 173
án 173
Along 172
Capital 172
How 172
Jammu 172
Key 172
Pokémon 172
Productions 172
Ram@@ 172
Statistical 172
Wood 172
arian 172
contributed 172
dec@@ 172
diesel 172
estate 172
favorite 172
focused 172
hospital 172
lay 172
off@@ 172
oid 172
overseas 172
termed 172
the@@ 172
watch 172
~ 172
1894 171
Blues 171
Cena 171
Cooper 171
Dallas 171
Dave 171
Edition 171
Electric 171
Francesco 171
Hamburg 171
Kam@@ 171
Men 171
Our 171
Peru 171
Pri@@ 171
Route 171
Sony 171
Stuart 171
Vi@@ 171
absence 171
ads 171
approved 171
attributed 171
breaking 171
che@@ 171
consist 171
ean 171
flavor 171
form@@ 171
markets 171
op 171
passage 171
retained 171
sand 171
strongly 171
struck 171
,@@ 170
57 170
87 170
Administration 170
Canadiens 170
Cour@@ 170
Cr@@ 170
Jacques 170
Ri@@ 170
Star@@ 170
Strait 170
Until 170
Wh@@ 170
achieve 170
adaptation 170
cheese 170
concerned 170
dissolved 170
electrons 170
eth@@ 170
finishing 170
gun 170
hop 170
imp@@ 170
inland 170
lens 170
osa 170
poems 170
rating 170
sharp 170
sung 170
variations 170
-sur-@@ 169
Arabia 169
Initially 169
Isle 169
Kr@@ 169
Richmond 169
Sonic 169
Sound 169
Urdu 169
WCW 169
alist 169
anc@@ 169
bro@@ 169
desert 169
distinguish 169
el-@@ 169
gray 169
homes 169
ide@@ 169
ified 169
integrated 169
intense 169
ives 169
lin@@ 169
occurring 169
ova 169
parks 169
pay 169
pole 169
rat@@ 169
ric@@ 169
sauce 169
sell 169
signs 169
tend 169
trained 169
varieties 169
videos 169
Ann 168
Antarctic 168
Cur@@ 168
Dec@@ 168
Ham@@ 168
Java 168
Jimmy 168
Khyber-Pakhtunkhwa 168
Liberal 168
Malaysia 168
Part@@ 168
Serbian 168
Throughout 168
Wall 168
Wind 168
apart 168
aw 168
camps 168
cher 168
commercially 168
connects 168
drafted 168
driving 168
firm 168
inclination 168
inf@@ 168
ing-@@ 168
iting 168
ments 168
moment 168
naturally 168
ota 168
reform 168
retirement 168
roll 168
shire 168
snow 168
tw@@ 168
virus 168
weakened 168
winger 168
1897 167
80@@ 167
92 167
Alex 167
Anglican 167
Around 167
License 167
Renault 167
RÃ 167
abolished 167
ahead 167
aine 167
amongst 167
carrying 167
daughters 167
elling 167
experiment 167
governing 167
governments 167
millions 167
od 167
premiere 167
remembered 167
risk 167
scales 167
three-@@ 167
A.@@ 166
Ann@@ 166
Flemish 166
Historically 166
The@@ 166
Tur@@ 166
Vendée 166
Z 166
ante 166
balls 166
cake 166
conservative 166
damaged 166
extant 166
graduate 166
loosely 166
notation 166
prayer 166
provincial 166
rig@@ 166
rop@@ 166
save 166
session 166
signature 166
suggest 166
supports 166
trying 166
21st 165
Antarctica 165
Augustus 165
Authority 165
Comics 165
Ernst 165
Fantasy 165
Gabriel 165
Harvard 165
L'@@ 165
Mur@@ 165
Newfoundland 165
Rem@@ 165
Software 165
Venice 165
Woman 165
atom 165
begun 165
demand 165
erg@@ 165
eu@@ 165
faster 165
foods 165
guard 165
ification 165
ms 165
needs 165
ping 165
quarter 165
reaches 165
statement 165
stress 165
traveling 165
3,@@ 164
700 164
94 164
Avenue 164
Down 164
Forces 164
Hesse 164
Il@@ 164
Lithuania 164
Luc@@ 164
Tuesday 164
acclaimed 164
aki 164
ax 164
bought 164
cy@@ 164
departments 164
dies 164
enters 164
horror 164
ias 164
indigenous 164
infection 164
optical 164
portrayed 164
sharing 164
studying 164
tissue 164
wider 164
+@@ 163
1870 163
1878 163
1888 163
9.@@ 163
Cemetery 163
Frankfurt 163
Gilbert 163
Long@@ 163
Lost 163
Louise 163
May@@ 163
Murray 163
Nelson 163
Representatives 163
adults 163
coined 163
column 163
committee 163
describing 163
experiments 163
iro 163
mor@@ 163
ole 163
soap 163
talent 163
thick 163
ties 163
turns 163
ç 163
120 162
1920s 162
76 162
ABC 162
Ay@@ 162
Brabant 162
Bri@@ 162
Energy 162
Guerrero 162
Hampshire 162
Head 162
Je@@ 162
Nevada 162
Nick 162
Prefecture 162
Thursday 162
ances 162
aries 162
concerns 162
courts 162
des@@ 162
dialect 162
ello 162
fan 162
fre@@ 162
geographical 162
gets 162
ji 162
ken 162
ots 162
ous@@ 162
repeated 162
replacement 162
sole 162
soundtrack 162
spiritual 162
sweet 162
understood 162
1.5 161
1885 161
89 161
Croatian 161
Derby 161
Julius 161
Ku@@ 161
Soccer 161
Ta@@ 161
Trek 161
Trinity 161
Yugoslavia 161
agriculture 161
ame 161
attacked 161
calling 161
cat@@ 161
choose 161
coal 161
debate 161
del@@ 161
disaster 161
don 161
editors 161
essential 161
estimates 161
favor 161
filmed 161
head@@ 161
ij@@ 161
inducted 161
mid 161
policies 161
prominence 161
pronunciation 161
suitable 161
survive 161
telephone 161
transition 161
una 161
ung@@ 161
united 161
whilst 161
Number 160
Oregon 160
Shire 160
Suffolk 160
Wayne 160
__ 160
ably 160
bre@@ 160
cer@@ 160
dispute 160
doing 160
ears 160
economics 160
ja 160
mate 160
merger 160
ni@@ 160
ning 160
ois 160
preferred 160
93 159
Adventures 159
Alps 159
Batman 159
Core 159
Economic 159
Hy@@ 159
IP 159
Kings 159
Labour 159
Leonese 159
Ludwig 159
Natural 159
Slovakia 159
Vol@@ 159
airline 159
breed 159
bury 159
chloride 159
du@@ 159
evening 159
ging 159
hom@@ 159
latest 159
limit 159
patterns 159
pool 159
quantity 159
sitcom 159
soul 159
symbols 159
verse 159
180 158
61 158
Aires 158
Anton 158
Au@@ 158
Basketball 158
Buenos 158
Frontier 158
Horse 158
Hull 158
Knight 158
Knowles 158
Michelle 158
Nine 158
No@@ 158
Pop 158
UN 158
arrangement 158
col@@ 158
critic 158
def@@ 158
ense 158
equ@@ 158
expedition 158
heating 158
iers 158
jo 158
mosque 158
relatives 158
revolution 158
secure 158
specified 158
strike 158
terrestrial 158
trip 158
Circle 157
Classical 157
Dream 157
Dublin 157
Flag 157
Georg 157
Ok@@ 157
Pot@@ 157
Steven 157
Titan 157
Utah 157
Warren 157
ake 157
ali 157
are@@ 157
birthday 157
cal@@ 157
connecting 157
contest 157
continuous 157
creator 157
driven 157
ecliptic 157
electron 157
elsewhere 157
enemy 157
hand@@ 157
ices 157
km2 157
mosques 157
née 157
osaurus 157
predominantly 157
publicly 157
sciences 157
spacecraft 157
thermal 157
vision 157
visitors 157
6,@@ 156
97 156
Baby 156
Campbell 156
Clark 156
Color 156
Costa 156
Digital 156
Falls 156
Guide 156
Here 156
Ken 156
Nar@@ 156
Q 156
Rights 156
Senator 156
UNESCO 156
USB 156
UTC 156
ack 156
acted 156
aro 156
colleges 156
controversy 156
egg 156
exactly 156
hum@@ 156
interested 156
pain 156
pin 156
playoffs 156
protected 156
replacing 156
sought 156
stored 156
thr@@ 156
tor@@ 156
va 156
're 155
Arch@@ 155
Bad@@ 155
Canton 155
Dan 155
Fu@@ 155
Ga@@ 155
Gold@@ 155
IX 155
Mali 155
Morgan 155
NASA 155
Ober@@ 155
Reserve 155
Simpsons 155
Terry 155
Thames 155
Trade 155
Vill@@ 155
acy 155
alized 155
boards 155
bread 155
caught 155
coalition 155
depicted 155
faced 155
fossils 155
genres 155
headquartered 155
hero 155
hunting 155
ine@@ 155
kers 155
ologist 155
shorter 155
sodium 155
thereafter 155
ty 155
1848 154
Den@@ 154
FA 154
Hotel 154
Ju@@ 154
Luke 154
Miss 154
Mos@@ 154
Player 154
Saudi 154
Stockholm 154
Volkswagen 154
Wild 154
convention 154
eccentricity 154
eman 154
environmental 154
ern 154
households 154
ingredients 154
leagues 154
lot 154
naval 154
ni 154
originating 154
oy@@ 154
partially 154
predecessor 154
progressive 154
restricted 154
ros 154
second-@@ 154
slow 154
slower 154
spirit 154
stick 154
streets 154
tion 154
walk 154
ye 154
1886 153
50@@ 153
Anderson 153
Ant@@ 153
Ash@@ 153
Barbara 153
Bundesliga 153
Camp@@ 153
Grace 153
Gustav 153
Hemisphere 153
Jan@@ 153
Leo 153
Lou@@ 153
Mak@@ 153
Mol@@ 153
Naples 153
Tibetan 153
armies 153
breeding 153
businessman 153
corner 153
ed-@@ 153
hub 153
ick@@ 153
instrumental 153
isolated 153
oceans 153
ond@@ 153
review 153
tenth 153
tier 153
ì 153
11th 152
1883 152
CBE 152
Castile 152
Gh@@ 152
Gregory 152
Harris 152
Johnny 152
Military 152
Mis@@ 152
Nuremberg 152
Piper 152
Soul 152
Sur@@ 152
To@@ 152
artificial 152
ching 152
commander 152
competing 152
crossing 152
domain 152
elder 152
etic 152
ils 152
indicates 152
ire 152
legendary 152
offensive 152
proclaimed 152
protein 152
pure 152
radi@@ 152
ries 152
screenwriter 152
usual 152
votes 152
ón 152
(/O2004/O) 151
1876 151
Article 151
Beijing 151
Buddhism 151
Columbus 151
Donald 151
Ernest 151
Leipzig 151
Part 151
Robin 151
Santo 151
ales 151
ast 151
beauty 151
conquest 151
consumption 151
crowned 151
desktop 151
do@@ 151
emergency 151
entity 151
feed 151
finish 151
gravity 151
independently 151
inger 151
mel@@ 151
nervous 151
ography 151
plates 151
ration 151
receives 151
tax 151
tone 151
1791 150
1862 150
1880 150
5.@@ 150
84 150
Batista 150
Duchy 150
Examples 150
Kreis 150
Lane 150
Met@@ 150
Pu@@ 150
San@@ 150
Santos 150
Studies 150
Tu@@ 150
ado 150
ap 150
arm@@ 150
bearing 150
beautiful 150
carbonate 150
correct 150
decline 150
expensive 150
hemisphere 150
hor@@ 150
ker@@ 150
learn 150
mal@@ 150
mine 150
platinum 150
protagonist 150
rit@@ 150
roads 150
sentenced 150
tip 150
transportation 150
1856 149
1874 149
Abu 149
Braille 149
Buddhist 149
Buffalo 149
Bulgaria 149
Cat 149
Councils 149
Israeli 149
Medal 149
Nuclear 149
Op@@ 149
Orleans 149
Pen@@ 149
Persia 149
Regional 149
Soon 149
Vegas 149
Within 149
chemist 149
cop@@ 149
criminal 149
crossed 149
delivered 149
distances 149
facto 149
factory 149
frequent 149
ha@@ 149
igny 149
improve 149
keeping 149
looking 149
measurement 149
nomination 149
playwright 149
rat 149
romantic 149
serial 149
tal@@ 149
twin 149
ym@@ 149
za 149
60@@ 148
Back 148
Croatia 148
Cyrillic 148
Dun@@ 148
Heinrich 148
Ivan 148
Kl@@ 148
Leader 148
Manuel 148
Out@@ 148
Petersburg 148
Rise 148
Sebastian 148
Sicily 148
Silva 148
Suceava 148
Technology 148
Vincent 148
acoustic 148
ae@@ 148
apply 148
baby 148
bad 148
binary 148
cent@@ 148
iel@@ 148
manufacturing 148
maps 148
messages 148
minerals 148
muscle 148
neighborhood 148
newspapers 148
roc@@ 148
stat@@ 148
ther@@ 148
1872 147
1877 147
2,000 147
67 147
AS@@ 147
Air@@ 147
Cro@@ 147
Gall@@ 147
Indus 147
Lar@@ 147
Nation 147
Ronald 147
Sav@@ 147
Systems 147
Then 147
Transport 147
US$ 147
Village 147
aga 147
bishop 147
clay 147
comp@@ 147
cont@@ 147
drives 147
eb@@ 147
eta 147
evil 147
fastest 147
ink 147
keys 147
laureate 147
liberal 147
orchestral 147
ox@@ 147
pick 147
processor 147
reactions 147
ref@@ 147
republic 147
shall 147
simultaneously 147
theorem 147
3D 146
Black@@ 146
Building 146
Charlie 146
Colombia 146
Culture 146
Currently 146
Germanic 146
Han 146
Information 146
Lor@@ 146
Observatory 146
Ralph 146
Rh@@ 146
Sim@@ 146
Spirit 146
ag 146
aya 146
burned 146
cap@@ 146
chair 146
cipher 146
collapse 146
dancing 146
dangerous 146
editions 146
ements 146
entrance 146
exact 146
exposed 146
historians 146
hu@@ 146
iano 146
ked 146
loan 146
orbital 146
part@@ 146
price 146
ram 146
ratio 146
restaurants 146
tur@@ 146
viewed 146
yan 146
Aberdeen 145
CBS 145
Classic 145
Fin@@ 145
Han@@ 145
JosÃ 145
Just 145
McCartney 145
Neu@@ 145
Population 145
RA@@ 145
Springs 145
Tal@@ 145
absorbed 145
apparent 145
best-selling 145
companion 145
cream 145
dos 145
enjoyed 145
erc@@ 145
esh@@ 145
facility 145
flooding 145
generations 145
governed 145
hydro@@ 145
lat@@ 145
returns 145
rev@@ 145
single-@@ 145
then-@@ 145
tive 145
une 145
universal 145
vector 145
wars 145
yn 145
zones 145
zz@@ 145
í 145
Bas@@ 144
Cameron 144
Canal 144
F1 144
Hume 144
Instead 144
Ker@@ 144
Lucy 144
Med@@ 144
Sainte-@@ 144
Sat@@ 144
Sil@@ 144
Solothurn 144
Sussex 144
Victorian 144
ax@@ 144
chance 144
doctrine 144
estimate 144
fat 144
ila 144
leg 144
marketed 144
monastery 144
none 144
pitch 144
qualified 144
sa@@ 144
satellites 144
skills 144
sn@@ 144
symptoms 144
temple 144
ux 144
Code 143
Collins 143
Des@@ 143
Grey 143
Isaac 143
Ryan 143
Sand@@ 143
Ten 143
Ukrainian 143
admitted 143
basin 143
bears 143
bronze 143
caps 143
compositions 143
cult 143
extending 143
inae 143
interests 143
lasting 143
leaf 143
loc@@ 143
nothing 143
philosophical 143
planning 143
remove 143
rescue 143
scheme 143
synthesis 143
temperate 143
thirteen 143
wooden 143
è 143
1815 142
1860 142
Against 142
Archbishop 142
Dean 142
Globe 142
Hudson 142
Link 142
Mozart 142
Nova 142
Pradesh 142
Si@@ 142
Sy@@ 142
Tag 142
Through 142
compilation 142
concluded 142
conventional 142
descendants 142
ert 142
extratropical 142
icus 142
locomotives 142
metals 142
neighbouring 142
random 142
respect 142
rice 142
scholar 142
tag 142
toxic 142
uss@@ 142
1830 141
4,@@ 141
91 141
Advance 141
Apollo 141
Bear 141
Cabinet 141
Hope 141
Laboratory 141
Lat@@ 141
Legend 141
Members 141
Mir@@ 141
Motor 141
Range 141
Tro@@ 141
alcohol 141
continuing 141
eating 141
experiences 141
heir 141
joins 141
och@@ 141
osis 141
prot@@ 141
relation 141
sale 141
statistical 141
statistics 141
ured 141
weak 141
04 140
Card 140
Cretaceous 140
Heaven 140
Kirby 140
Nazis 140
Norfolk 140
Palm 140
Pap@@ 140
Pyrénées 140
Raymond 140
Sometimes 140
Tre@@ 140
affairs 140
ath 140
blind 140
draw 140
drop 140
ero 140
freshwater 140
interface 140
ison 140
matters 140
ome 140
org@@ 140
owing 140
ped 140
priest 140
ria 140
soldier 140
strip 140
tied 140
transmission 140
100,000 139
Art@@ 139
Comedy 139
Lieutenant 139
Minor 139
Os@@ 139
Oscar 139
Por@@ 139
Pres@@ 139
Professional 139
Report 139
Santiago 139
Tan@@ 139
advertising 139
alternate 139
appropriate 139
ass 139
certified 139
convection 139
depth 139
disorder 139
edited 139
finds 139
frame 139
getting 139
heim 139
ille 139
junction 139
monarchy 139
oy 139
penis 139
pioneer 139
principles 139
ques 139
shift 139
tions 139
traded 139
1859 138
1863 138
3.@@ 138
Athletic 138
Bryan 138
Cas@@ 138
Extreme 138
IS@@ 138
Iceland 138
Lebanon 138
MM@@ 138
Maine 138
Pass 138
Tasmania 138
Ubuntu 138
Var@@ 138
acids 138
anyone 138
attracted 138
ay-@@ 138
ballet 138
compact 138
environments 138
functional 138
heritage 138
housing 138
hypothesis 138
injured 138
itions 138
keyboard 138
latitude 138
missing 138
net@@ 138
oth@@ 138
pen@@ 138
platforms 138
rejected 138
reproduction 138
rising 138
rows 138
signals 138
signing 138
stein 138
substantial 138
suicide 138
ves 138
worst 138
1852 137
Baker 137
Countess 137
Dam@@ 137
Desert 137
Dog 137
Gary 137
Lin@@ 137
Marcus 137
Nature 137
O'@@ 137
Sega 137
Thuringia 137
Tim@@ 137
Valencia 137
app@@ 137
cattle 137
championships 137
chose 137
communes 137
convicted 137
cup 137
dale 137
detailed 137
differ 137
draft 137
duties 137
ensis 137
epic 137
grass 137
hi 137
hol@@ 137
is-@@ 137
k-@@ 137
legislative 137
lock 137
owners 137
preceding 137
presidency 137
resigned 137
rounds 137
sounds 137
structural 137
threat 137
ush@@ 137
ère 137
3,000 136
Adolf 136
Atlas 136
Bat@@ 136
Der 136
Jurassic 136
Ni@@ 136
Ob@@ 136
Simpson 136
Up@@ 136
Will 136
animation 136
aster 136
atmospheric 136
circular 136
fin@@ 136
fur 136
gases 136
grandson 136
hidden 136
intelligence 136
km/h 136
la-@@ 136
maker 136
mental 136
pan@@ 136
proteins 136
provisional 136
responsibility 136
rings 136
ruling 136
spots 136
verb 136
wealthy 136
,000 135
1866 135
1884 135
8,@@ 135
Ang@@ 135
Baltic 135
Bastille 135
Buffy 135
Burma 135
Confederation 135
Dam 135
Design 135
Edgar 135
Hom@@ 135
Hugh 135
Jacob 135
Kane 135
Kur@@ 135
Left 135
Literature 135
Marvel 135
Mother 135
Physiology 135
Post 135
Shortly 135
Tom@@ 135
ancestor 135
competitions 135
ete 135
flying 135
geographic 135
habitat 135
jet 135
membership 135
oz@@ 135
package 135
presents 135
producers 135
restored 135
ridge 135
seems 135
sponsored 135
stem 135
sustained 135
tape 135
varying 135
want 135
1871 134
:00 134
Andy 134
Atlantiques 134
Debian 134
Edge 134
Emirates 134
Hearts 134
Ice 134
Independent 134
Management 134
Marco 134
Medical 134
Neil 134
Operation 134
Pel@@ 134
Prague 134
ST@@ 134
Universe 134
Wright 134
diet 134
discussion 134
dollars 134
downtown 134
emb@@ 134
employees 134
engaged 134
everything 134
exp@@ 134
gone 134
grade 134
idi@@ 134
measures 134
merging 134
mont 134
oma 134
protocol 134
raise 134
rapper 134
stayed 134
strongest 134
suite 134
testing 134
thing 134
trilogy 134
Bay@@ 133
Blood 133
Carlo 133
Dance 133
Days 133
Luxembourg 133
Michaels 133
Romance 133
Sierra 133
Studio 133
adi@@ 133
archipelago 133
birthplace 133
chapel 133
cited 133
constituent 133
enn@@ 133
eville 133
extensively 133
fewer 133
horn 133
hurricanes 133
interpretation 133
kings 133
les-@@ 133
limits 133
liver 133
nes 133
ok 133
oxidation 133
pale 133
ranking 133
resolution 133
restaurant 133
rotation 133
scenes 133
settlements 133
sixteen 133
squ@@ 133
ta@@ 133
ulate 133
writes 133
1849 132
1854 132
1864 132
7.@@ 132
Bab@@ 132
Computer 132
Intel 132
Lam@@ 132
Lion 132
Mand@@ 132
McMahon 132
Mill@@ 132
Nile 132
Pearl 132
Sab@@ 132
Spring 132
Sun@@ 132
Tran@@ 132
Vista 132
absolute 132
algorithm 132
alliance 132
berry 132
ca@@ 132
champions 132
clothes 132
conquered 132
constitutional 132
credit 132
denominations 132
det@@ 132
ear@@ 132
express 132
falling 132
ged 132
incident 132
ingly 132
l'@@ 132
mice 132
minimum 132
naming 132
oo 132
pat@@ 132
questions 132
ranks 132
relationships 132
trophy 132
variant 132
websites 132
Claude 131
Cre@@ 131
Daily 131
Dr@@ 131
Hard 131
JÃ 131
Mun@@ 131
Salzburg 131
Server 131
Sheffield 131
Tampa 131
Tyler 131
Venus 131
Villa 131
Windsor 131
ables 131
bombing 131
cats 131
centered 131
char@@ 131
collected 131
comm@@ 131
conc@@ 131
concentrated 131
defend 131
dist@@ 131
drugs 131
ez 131
friendly 131
hired 131
mil@@ 131
rated 131
rear 131
short-lived 131
sized 131
threatened 131
val@@ 131
130 130
9,@@ 130
Arabian 130
Ball@@ 130
Cab@@ 130
Deep 130
Emmy 130
Gardens 130
Gi@@ 130
Musical 130
N. 130
Pin@@ 130
Rad@@ 130
Sultan 130
ati 130
attraction 130
boxing 130
clockwise 130
etta 130
geological 130
golden 130
increases 130
journal 130
parliamentary 130
phone 130
practices 130
raw 130
resembles 130
sang 130
sy@@ 130
terminus 130
theatrical 130
venue 130
viewers 130
wa 130
window 130
000 129
1836 129
AN@@ 129
Actress 129
Circuit 129
Colin 129
Der@@ 129
Derbyshire 129
Dom@@ 129
Edwards 129
Es@@ 129
Explorer 129
Front 129
Further 129
Gra@@ 129
Movement 129
Osaka 129
Pan 129
Pop@@ 129
Son 129
Whit@@ 129
collectively 129
communications 129
comparison 129
conduct 129
destination 129
doctor 129
dubbed 129
ear 129
familiar 129
fit 129
helps 129
ke@@ 129
logo 129
not@@ 129
numbered 129
ores 129
oss@@ 129
pen 129
pointed 129
recognize 129
sim@@ 129
supporters 129
weapon 129
wearing 129
yard 129
07 128
30@@ 128
AR@@ 128
AT@@ 128
Alb@@ 128
Chelsea 128
D-@@ 128
Hay@@ 128
Jo@@ 128
Ned 128
Rob 128
Scale 128
Soundgarden 128
Tam@@ 128
Vol 128
assistance 128
ate@@ 128
az 128
blocks 128
canceled 128
carries 128
channels 128
colloquially 128
conclusion 128
creates 128
eda 128
ele 128
enh@@ 128
fort 128
fr@@ 128
ga 128
glands 128
grandfather 128
inaugural 128
ip 128
ith@@ 128
locomotive 128
mer@@ 128
organs 128
popularly 128
predators 128
recipient 128
run@@ 128
sing@@ 128
sizes 128
sk 128
stood 128
styled 128
supposed 128
sword 128
warning 128
worms 128
è@@ 128
1869 127
23@@ 127
Action 127
Arsenal 127
Dal@@ 127
Ep@@ 127
Executive 127
Fourth 127
Grande 127
Jamaica 127
Joan 127
Kin@@ 127
Lanka 127
Leonard 127
Lucas 127
Maple 127
Newton 127
Normandy 127
Parker 127
Pedro 127
Rumble 127
SE@@ 127
Shadow 127
Ste@@ 127
Trust 127
Yellow 127
ager 127
alis 127
angles 127
assassinated 127
athletes 127
blocked 127
bomb 127
bringing 127
cave 127
choir 127
clock 127
committed 127
corporation 127
devoted 127
diseases 127
ender 127
extra 127
false 127
iana 127
illegal 127
immediate 127
indicated 127
isation 127
mid@@ 127
mot@@ 127
noble 127
ographic 127
organised 127
ort@@ 127
ports 127
retail 127
rulers 127
significance 127
span 127
theories 127
tongue 127
trio 127
tu@@ 127
turning 127
ure@@ 127
volumes 127
why 127
90@@ 126
Album 126
Alexandria 126
Fiction 126
Freedom 126
Image 126
Keith 126
Lim@@ 126
Maurice 126
Mouse 126
Movie 126
Review 126
Victor 126
ashi 126
assassination 126
ays 126
considerably 126
cy 126
dollar 126
earning 126
ences 126
encyclopedia 126
fifteen 126
ition 126
ix@@ 126
lÃ 126
mounted 126
north-west 126
oi 126
preparation 126
rays 126
rises 126
sil@@ 126
strengthened 126
substances 126
tehsil 126
think 126
ule 126
wor@@ 126
ã 126
ée 126
160 125
1789 125
1800 125
Bul@@ 125
Eddie 125
Gran@@ 125
Kids 125
Now 125
Romantic 125
SA 125
Singles 125
Sou@@ 125
Sport 125
Tehsil 125
VÃ 125
Warsaw 125
accused 125
aging 125
analog 125
anything 125
balance 125
coins 125
collective 125
entering 125
gang 125
go@@ 125
ily 125
lab@@ 125
mechanism 125
millennium 125
monuments 125
north-east 125
onia 125
ously 125
percussion 125
primitive 125
rap@@ 125
singers 125
spanning 125
syn@@ 125
1801 124
7,@@ 124
Additionally 124
Bermuda 124
DJ 124
Dolj 124
Ed 124
Friends 124
Kan@@ 124
Liga 124
Lorenzo 124
Panama 124
Planet 124
Ul@@ 124
Vis@@ 124
Wednesday 124
Win@@ 124
arrives 124
browser 124
centres 124
differs 124
effectively 124
experimental 124
fe@@ 124
finding 124
hosting 124
ial@@ 124
ian-@@ 124
itis 124
legislature 124
namely 124
oe 124
offering 124
opportunity 124
participate 124
prefecture 124
purple 124
seek 124
shop 124
theoretical 124
ths 124
ware 124
wealth 124
1873 123
24@@ 123
Allied 123
Ari@@ 123
Camp 123
Campaign 123
Chairman 123
Che@@ 123
Go 123
Gray 123
Indonesian 123
Isabella 123
Mul@@ 123
Personal 123
Physics 123
Rugby 123
Sanskrit 123
Wood@@ 123
anniversary 123
assembly 123
awa 123
ball@@ 123
conversion 123
crash 123
essentially 123
ez@@ 123
factor 123
flowing 123
guide 123
ight 123
illo 123
ination 123
influences 123
magic 123
ologists 123
ony 123
patron 123
psychology 123
reigning 123
revised 123
rope 123
sel@@ 123
siege 123
spin-off 123
strategy 123
studios 123
theology 123
ti@@ 123
ven@@ 123
wa@@ 123
war@@ 123
-en-@@ 122
40@@ 122
6.@@ 122
Bristol 122
Bro@@ 122
Dur@@ 122
Every 122
Fall 122
Fernando 122
Kn@@ 122
Luigi 122
Near 122
Port@@ 122
Rob@@ 122
Rocky 122
SP@@ 122
Theodore 122
Together 122
aimed 122
ately 122
attend 122
ava 122
burn 122
crimes 122
disambiguation 122
download 122
ges 122
graphic 122
iko 122
jump 122
manga 122
med@@ 122
moral 122
nucleus 122
oon 122
powder 122
rats 122
remainder 122
resident 122
sacred 122
segment 122
settlers 122
slavery 122
spectrum 122
tale 122
tar@@ 122
thereby 122
uniform 122
variation 122
yp@@ 122
10,@@ 121
101 121
Ball 121
Based 121
Bran@@ 121
Chemistry 121
Cruz 121
D.M. 121
Entry 121
Jun@@ 121
Kor@@ 121
Medieval 121
Metro 121
Mrs. 121
Nickelodeon 121
OBE 121
Often 121
Queens 121
Salt 121
Songs 121
Theory 121
bel@@ 121
bill 121
cantons 121
civilian 121
five-@@ 121
flood 121
grave 121
harbor 121
ication 121
ier@@ 121
illustrated 121
improved 121
ira 121
lim@@ 121
machines 121
oriented 121
perceived 121
pope 121
radioactive 121
sessions 121
sheet 121
sporting 121
ston 121
stor@@ 121
suspended 121
victims 121
yr@@ 121
(/O2007/O) 120
110 120
1841 120
Brandenburg 120
Business 120
Cos@@ 120
Dick 120
Floyd 120
Germans 120
Manitoba 120
Nigeria 120
Trans@@ 120
Venezuela 120
Vince 120
Vladimir 120
abilities 120
acronym 120
apparently 120
attending 120
bat@@ 120
belonged 120
bon@@ 120
citizen 120
creatures 120
decay 120
dense 120
dinosaurs 120
don@@ 120
dramatic 120
dwarf 120
easy 120
emphasis 120
exhibition 120
handheld 120
inspiration 120
interval 120
mix 120
ownership 120
regard 120
regime 120
releasing 120
retain 120
revival 120
sculpture 120
secretary 120
sheep 120
terminal 120
unless 120
Ê 120
1850 119
Arm@@ 119
Aut@@ 119
Broadway 119
CC@@ 119
Easter 119
Engineering 119
Food 119
Gro@@ 119
Harold 119
Hawaiian 119
Kon@@ 119
Nag@@ 119
Notes 119
Ottawa 119
Phil@@ 119
Somerset 119
Surrey 119
Toyota 119
Vic@@ 119
afterwards 119
ail@@ 119
anian 119
arrest 119
broadcasting 119
cemetery 119
easier 119
efficient 119
ei 119
ensure 119
farming 119
fibers 119
grows 119
log@@ 119
loop 119
mutual 119
ows 119
rad@@ 119
role-playing 119
separation 119
sit@@ 119
task 119
transformed 119
violent 119
voices 119
voting 119
winners 119
ú@@ 119
1853 118
Amazon 118
Base 118
Basque 118
Brighton 118
Declaration 118
Greatest 118
Guy 118
IN@@ 118
Never 118
Not@@ 118
Prussian 118
RAID 118
Res@@ 118
Ry@@ 118
Slayer 118
Stanford 118
USSR 118
Ze@@ 118
Zoo 118
advice 118
argued 118
audiences 118
automobile 118
butter 118
communist 118
conductors 118
conf@@ 118
crops 118
ency 118
fair 118
formats 118
immigrants 118
inho 118
interaction 118
interpreted 118
involve 118
justice 118
kg 118
linear 118
mature 118
mill 118
mus@@ 118
ops 118
profile 118
rebuilt 118
religions 118
ress 118
shock 118
south-west 118
suburban 118
surrender 118
touring 118
weekend 118
wire 118
1858 117
Beyoncé 117
Cincinnati 117
Do@@ 117
Ec@@ 117
Ferrari 117
Flight 117
Hum@@ 117
Kir@@ 117
Much 117
SPD 117
SR 117
Stock 117
Strauss 117
Township 117
Vil@@ 117
abbreviation 117
ack@@ 117
atic 117
aver@@ 117
bel 117
ben@@ 117
ched 117
closer 117
conceived 117
connect 117
conservation 117
database 117
dependent 117
dev@@ 117
ection 117
efficiency 117
else 117
holy 117
honorary 117
illness 117
ith 117
jurisdiction 117
layers 117
libretto 117
ls 117
medi@@ 117
mod@@ 117
oll@@ 117
opponent 117
outbreak 117
pur 117
remote 117
revolutionary 117
rolling 117
spaces 117
specimens 117
stopped 117
tic 117
till 117
tourism 117
tournaments 117
tries 117
unified 117
1868 116
Abraham 116
All-Star 116
Catalonia 116
Chakwal 116
Greeks 116
Hen@@ 116
Latvia 116
Morris 116
Nixon 116
North-West 116
Paramount 116
Ron 116
Wallace 116
accept 116
agu@@ 116
ams 116
atory 116
bal@@ 116
boats 116
cabinet 116
celebration 116
declined 116
dy 116
graphics 116
hydroxide 116
initiated 116
lineup 116
managing 116
ordinary 116
pictures 116
prestigious 116
pri@@ 116
radical 116
ree 116
rest@@ 116
sphere 116
swimming 116
topic 116
tornado 116
ums 116
1824 115
1940s 115
Actor 115
Alberta 115
Alexandra 115
Andrea 115
Bouches-du-Rh 115
Hyderabad 115
IC@@ 115
Lan@@ 115
Lev@@ 115
Limited 115
Name 115
Nav@@ 115
Phillip 115
Roberts 115
Susan 115
Traditional 115
acclaim 115
ander 115
archaeological 115
ban@@ 115
bo 115
camera 115
chapter 115
departure 115
dress 115
eliminated 115
feel 115
flies 115
gauge 115
ied 115
ili@@ 115
index 115
itch 115
my@@ 115
ode 115
papers 115
percentage 115
pleasure 115
possession 115
probability 115
really 115
ren 115
roof 115
send 115
trademark 115
09 114
1842 114
20,000 114
4.@@ 114
Avatar 114
Azerbaijan 114
Basin 114
Bell@@ 114
Bond 114
Cayce 114
Domingo 114
Europeans 114
Fil@@ 114
Get 114
Intelligence 114
Jay 114
Johannes 114
Judaism 114
Ka@@ 114
Kate 114
Let 114
Medici 114
Newcastle 114
Orlando 114
Roberto 114
SA@@ 114
Sn@@ 114
Staff 114
Wolfgang 114
arid 114
ation@@ 114
cello 114
ci@@ 114
cuisine 114
democratic 114
ela 114
han 114
hel@@ 114
ion-@@ 114
layout 114
li 114
mantle 114
onwards 114
opens 114
or-@@ 114
pairs 114
patients 114
possibility 114
potassium 114
prince 114
readers 114
recommended 114
rubber 114
so@@ 114
struggle 114
supplies 114
teachings 114
touch 114
tran@@ 114
ua 114
ute 114
-up 113
/O) 113
06 113
Any 113
Cass@@ 113
Chilean 113
Crusade 113
Cy@@ 113
Democrat 113
Durham 113
Ev@@ 113
Gil@@ 113
Grant 113
Green@@ 113
Malta 113
Mot@@ 113
Nicolas 113
PPV 113
Pete 113
Rudolf 113
Sean 113
Syn@@ 113
Unions 113
Wa@@ 113
Wells 113
Will@@ 113
abuse 113
acc@@ 113
agents 113
agree 113
algae 113
bas@@ 113
bul@@ 113
circles 113
comprehensive 113
constituency 113
corporate 113
dig@@ 113
duty 113
eponymous 113
erected 113
feathers 113
fighter 113
fires 113
holes 113
industries 113
judge 113
mines 113
murdered 113
pa 113
personnel 113
presenter 113
properly 113
relief 113
reserve 113
resignation 113
ris 113
shells 113
solutions 113
taste 113
technically 113
tel@@ 113
tours 113
tract 113
ude 113
valleys 113
velocity 113
vessel 113
volcano 113
wet 113
wish 113
Aang 112
Bah@@ 112
Cent@@ 112
Challenge 112
Estonia 112
Having 112
Mikhail 112
Morocco 112
Norwood 112
Pass@@ 112
Political 112
Rogers 112
Saints 112
Technical 112
Units 112
adventures 112
ancy 112
atus 112
bit@@ 112
brands 112
comprise 112
dimensions 112
diplomat 112
diversity 112
divorced 112
ecting 112
enemies 112
ig 112
indie 112
legally 112
ma@@ 112
marketing 112
median 112
mountainous 112
nd@@ 112
nephew 112
non-profit 112
operator 112
pet 112
pot@@ 112
reptiles 112
scattered 112
segments 112
slave 112
spend 112
steps 112
synthetic 112
ud 112
vo@@ 112
ward 112
15-@@ 111
1\/@@ 111
Bruins 111
Chevrolet 111
Ipswich 111
Len@@ 111
Leonardo 111
Living 111
Ltd. 111
Luther 111
Mitchell 111
Princeton 111
Ren@@ 111
Revolutionary 111
Roma 111
Sen@@ 111
Stitch 111
Tommy 111
Tra@@ 111
ans@@ 111
appointment 111
bert 111
busiest 111
charter 111
combining 111
confluence 111
eries 111
exile 111
iy@@ 111
killer 111
minimal 111
publications 111
purchase 111
reforms 111
ska 111
snakes 111
sort 111
spawned 111
tro@@ 111
ues 111
unrelated 111
vol@@ 111
width 111
01 110
10-@@ 110
1834 110
Antilles 110
Bil@@ 110
Blackhawks 110
Edmonton 110
Eg@@ 110
Gor@@ 110
Household 110
Mass@@ 110
Mich@@ 110
NASCAR 110
On@@ 110
Ran@@ 110
Snow 110
Tibet 110
UN@@ 110
aph@@ 110
ards 110
argument 110
ave 110
bin 110
broadcasts 110
circumstances 110
deity 110
edible 110
extinction 110
famously 110
favorable 110
fourteen 110
graduating 110
habitats 110
icon 110
ien 110
intermediate 110
load 110
merchant 110
nia 110
opinion 110
productions 110
respective 110
saint 110
stating 110
syndrome 110
topics 110
u-@@ 110
water@@ 110
(/O2006/O) 109
1790 109
1803 109
1837 109
CEO 109
Cant@@ 109
Cel@@ 109
Chuck 109
Copenhagen 109
Fred 109
Harvey 109
Indians 109
Kaz@@ 109
MVP 109
Malcolm 109
Miguel 109
Mosque 109
NATO 109
Plymouth 109
Pont@@ 109
Race 109
Religion 109
Tech 109
Wat@@ 109
Wolf 109
automatically 109
boroughs 109
charity 109
concerning 109
cryptography 109
depends 109
documented 109
electromagnetic 109
emp@@ 109
ently 109
founders 109
identify 109
immune 109
ink@@ 109
logical 109
metre 109
neighboring 109
northernmost 109
owns 109
printing 109
ras 109
remnants 109
representatives 109
si 109
stones 109
subfamily 109
twentieth 109
umb@@ 109
1840 108
Aaron 108
Allies 108
Broadcasting 108
Calvin 108
Chemical 108
Constantine 108
HÃ 108
Indo-European 108
Kenneth 108
Larry 108
Ma 108
Marine 108
Mongolia 108
Motors 108
Noble 108
Pulitzer 108
Scala 108
Seoul 108
Sky 108
Waterloo 108
abundant 108
accessible 108
amm@@ 108
breeds 108
budget 108
burning 108
cartoon 108
concrete 108
declares 108
elled 108
elles 108
ex-@@ 108
explained 108
feeding 108
fiber 108
generate 108
hearing 108
insurance 108
linguistic 108
lit 108
mo 108
neutral 108
oms 108
orbiting 108
pink 108
polar 108
reducing 108
ris@@ 108
sample 108
seas 108
shorts 108
teach 108
tre@@ 108
veteran 108
work@@ 108
wounded 108
ão 108
1825 107
8,000 107
Anglo-@@ 107
Brisbane 107
Burton 107
Cairo 107
Construction 107
Dante 107
Dragon 107
Esperanto 107
Helen 107
Helsinki 107
Hun@@ 107
Mach@@ 107
Mass 107
Mobile 107
Perth 107
Plan 107
Raj@@ 107
Sudan 107
Theater 107
True 107
annexed 107
arose 107
battles 107
cache 107
catch 107
clearly 107
contents 107
crowd 107
deceased 107
deer 107
democracy 107
ener 107
facing 107
funds 107
iding 107
illy 107
inherited 107
injuries 107
inst@@ 107
installment 107
kernel 107
landscape 107
ly-@@ 107
planted 107
portions 107
prisoners 107
professionally 107
prolific 107
rie 107
south-east 107
temporarily 107
toured 107
zinc 107
1,0@@ 106
1846 106
50,000 106
Aragon 106
Are 106
Articles 106
Bill@@ 106
Boeing 106
Bos@@ 106
Chart 106
Command 106
Craig 106
Crystal 106
Eagle 106
Essex 106
Figure 106
Hard@@ 106
Jose 106
Lab@@ 106
Lakes 106
Magic 106
Memphis 106
Ming 106
Nov@@ 106
Pablo 106
Phil 106
Players 106
Rod@@ 106
Sag@@ 106
Skating 106
acute 106
advance 106
anna 106
asks 106
astronomy 106
beneath 106
clouds 106
coastline 106
commenced 106
concepts 106
concern 106
cooked 106
deemed 106
disorders 106
ente 106
etti 106
fee 106
funded 106
grandmother 106
ideal 106
ika 106
itive 106
labels 106
les@@ 106
lesser 106
lev@@ 106
line-up 106
merely 106
mu@@ 106
nit@@ 106
oceanic 106
olog@@ 106
phylum 106
placing 106
pot 106
quoted 106
relocated 106
ride 106
sec@@ 106
symphony 106
tell 106
ticket 106
v. 106
vertebrates 106
voltage 106
walking 106
yer 106
zoo 106
1812 105
Animal 105
Ass@@ 105
Caucasus 105
Chi@@ 105
Clar@@ 105
Delaware 105
Dev@@ 105
Devil 105
Est@@ 105
Felix 105
Greenland 105
Hermann 105
Lang@@ 105
Leafs 105
Lotus 105
Nic@@ 105
Randy 105
Roy 105
Season 105
Secret 105
Sem@@ 105
Tales 105
Thunder 105
Witch 105
abroad 105
adventure 105
ains 105
aÃ 105
breast 105
celestial 105
chord 105
critically 105
dozen 105
ex 105
finals 105
fled 105
funeral 105
gender 105
heated 105
hr@@ 105
iga 105
ining 105
involvement 105
lar@@ 105
massacre 105
meetings 105
oes 105
option 105
originates 105
oro 105
plac@@ 105
popularized 105
presentation 105
pun@@ 105
rell 105
seeing 105
shooting 105
translations 105
Ö 105
â@@ 105
11@@ 104
1832 104
1875 104
Beginning 104
Da@@ 104
Discovery 104
Duchess 104
Eventually 104
God@@ 104
Grove 104
Ho@@ 104
IOC 104
Lancashire 104
Lightning 104
Mess@@ 104
Pink 104
Plains 104
Pur@@ 104
Salvador 104
Ted 104
Triassic 104
Wings 104
administrator 104
approval 104
aud@@ 104
cloth 104
completing 104
comune 104
continents 104
drinking 104
eh@@ 104
elementary 104
encouraged 104
focuses 104
forcing 104
fruits 104
icism 104
jobs 104
legislation 104
locally 104
marry 104
mixing 104
ng 104
pal@@ 104
perspective 104
plains 104
plat@@ 104
rh@@ 104
rian 104
sector 104
slide 104
strategic 104
stroke 104
sun@@ 104
uck 104
ulated 104
unofficial 104
urs 104
variants 104
variously 104
whale 104
ès 104
(/O2009/O) 103
10.@@ 103
22@@ 103
8.@@ 103
Agreement 103
Bachelor 103
C-@@ 103
CH 103
Cardinals 103
Co. 103
Commander 103
Danny 103
Gate 103
Gospel 103
Hindenburg 103
Inca 103
KÃ 103
Lesser 103
Machine 103
Meanwhile 103
Melina 103
Physical 103
Section 103
Set 103
Slovak 103
Sunderland 103
V. 103
Water@@ 103
affect 103
alised 103
allies 103
ania 103
approached 103
arena 103
ban 103
beer 103
bishops 103
bonds 103
borne 103
cons@@ 103
counter@@ 103
counting 103
cricket 103
dialects 103
du-@@ 103
encompasses 103
ensemble 103
eration 103
exc@@ 103
exposure 103
finger 103
fired 103
generic 103
happened 103
hind 103
hyper@@ 103
ime 103
informally 103
inorganic 103
itz 103
laboratory 103
landed 103
m-@@ 103
magazines 103
medals 103
multi-sport 103
og 103
oni 103
permission 103
pump 103
quantities 103
reigned 103
ry@@ 103
seal 103
seeking 103
slaves 103
southernmost 103
spanned 103
surname 103
tenure 103
ulation 103
widow 103
1821 102
1:@@ 102
Bra@@ 102
Citrus 102
Devon 102
Ethiopia 102
Evil 102
Guatemala 102
Idol 102
Macedonia 102
Maz@@ 102
Municipality 102
Nancy 102
Od@@ 102
Officer 102
Post@@ 102
Rep@@ 102
Sor@@ 102
Tat@@ 102
Todd 102
Ty@@ 102
Volume 102
Weimar 102
aan 102
abortion 102
afternoon 102
alleged 102
ask 102
attained 102
band@@ 102
bases 102
collaborated 102
consumed 102
crisis 102
ders 102
desire 102
dictionary 102
double-@@ 102
dragon 102
eling 102
encountered 102
ept@@ 102
erson 102
ert@@ 102
everyone 102
exercise 102
fur@@ 102
gay 102
grant 102
guilty 102
half-@@ 102
horses 102
implemented 102
item 102
ively 102
kingdoms 102
low-@@ 102
maintains 102
manufacture 102
nose 102
offspring 102
oring 102
paint 102
pepper 102
periodic 102
pioneering 102
precipitation 102
ram@@ 102
ratings 102
referendum 102
revolt 102
settings 102
shallow 102
smooth 102
statue 102
storyline 102
stripes 102
sulfate 102
territorial 102
tourists 102
unincorporated 102
virtual 102
wheat 102
1851 101
2000s 101
4,000 101
Anastasia 101
Andreas 101
Award-winning 101
Bag@@ 101
Brother 101
Car 101
Child 101
Davies 101
Fro@@ 101
Gun@@ 101
Hainaut 101
Hughes 101
Lem@@ 101
Lisa 101
Log@@ 101
Maxwell 101
Oslo 101
Pa@@ 101
Peak 101
Romeo 101
S.@@ 101
Scots 101
So@@ 101
Speed 101
Sum@@ 101
Thai 101
Thurgau 101
Turner 101
ancestors 101
arc@@ 101
archive 101
assist 101
aug@@ 101
bach 101
backs 101
bars 101
cel@@ 101
completion 101
consort 101
custom 101
deposits 101
dust 101
gardens 101
hope 101
hotel 101
induction 101
ishing 101
labeled 101
legitimate 101
men@@ 101
metallic 101
mit@@ 101
obtain 101
occasion 101
ock@@ 101
partition 101
pet@@ 101
precise 101
psychological 101
remarkable 101
reserved 101
salts 101
secular 101
seem 101
theaters 101
uring 101
victories 101
virtually 101
140 100
1804 100
Albany 100
Baroque 100
Bol@@ 100
Clarke 100
Confederate 100
Cornell 100
Elder 100
Fair 100
Jer@@ 100
Kom@@ 100
Lib@@ 100
Liu 100
Mahler 100
Principal 100
abad 100
agencies 100
alists 100
angular 100
businesses 100
campaigns 100
chemicals 100
collision 100
cool 100
decisions 100
define 100
dissipated 100
drum 100
equation 100
excellent 100
flights 100
full-length 100
gam@@ 100
grav@@ 100
infrastructure 100
integer 100
internet 100
invention 100
lava 100
mes@@ 100
moderate 100
partial 100
performs 100
planetary 100
por@@ 100
racial 100
riv@@ 100
row@@ 100
safe 100
suburbs 100
sufficient 100
surfaces 100
tiny 100
understand 100
usa 100
ä 100
125 99
1831 99
35@@ 99
AFC 99
AS 99
Advanced 99
Augusta 99
B-@@ 99
Beethoven 99
Blan@@ 99
CA@@ 99
CO@@ 99
Capitol 99
Concerto 99
Congo 99
Control 99
Delhi 99
Eng@@ 99
Evolution 99
Feder@@ 99
Historic 99
Hunter 99
IT@@ 99
Jos@@ 99
Kiss 99
Knights 99
Lachlan 99
Mail 99
Nashville 99
Reformation 99
Schools 99
Stallone 99
Stand 99
Ten@@ 99
U-@@ 99
Under@@ 99
Undertaker 99
Vampire 99
Zelda 99
airing 99
ali@@ 99
bay 99
breaks 99
bridges 99
by@@ 99
cha 99
clean 99
closing 99
criticism 99
displays 99
disputed 99
excluding 99
expand 99
fear 99
finest 99
followers 99
imm@@ 99
lap 99
masses 99
mes 99
ned 99
nitrogen 99
odi@@ 99
phenomena 99
picked 99
practiced 99
scholarship 99
sees 99
skull 99
tenor 99
thirty 99
top-@@ 99
transcription 99
ulating 99
violinist 99
volcanoes 99
watches 99
ér@@ 99
1844 98
1845 98
193@@ 98
196@@ 98
500,000 98
All-@@ 98
Amherst 98
Beverly 98
Bremen 98
Bulgarian 98
CF 98
Cologne 98
Div@@ 98
Environment 98
Glen 98
Hanover 98
Kyoto 98
Li 98
Lilo 98
Manager 98
Marina 98
NCAA 98
Pic@@ 98
Primary 98
Released 98
Rick 98
Slovenia 98
Tehsils 98
Tottenham 98
Transit 98
Versailles 98
Wang 98
Wy@@ 98
ading 98
al. 98
ammonia 98
answer 98
aqu@@ 98
ault 98
bat 98
beating 98
bid 98
celebrity 98
civilians 98
collections 98
competitive 98
counted 98
coup 98
deals 98
defended 98
destroy 98
dinosaur 98
endangered 98
ental 98
fairy 98
foundations 98
highway 98
hometown 98
investigation 98
lion 98
mag@@ 98
memorial 98
ministry 98
nar@@ 98
pizza 98
prove 98
quarterback 98
quick 98
residential 98
residing 98
stra@@ 98
theatre 98
tt@@ 98
unitary 98
ust 98
valuable 98
vs. 98
zi 98
és 98
1500 97
1798 97
Algeria 97
Bart 97
Bog@@ 97
Calcio 97
Collection 97
Dennis 97
EMI 97
FSF 97
Franco 97
Gallery 97
Georges 97
Hannibal 97
Hiroshima 97
Historical 97
Ki@@ 97
Kosovo 97
Marc@@ 97
Metallica 97
Ner@@ 97
Philippe 97
Program 97
Smash 97
Stuttgart 97
aboard 97
anda 97
asa 97
aspect 97
astronomers 97
astronomical 97
aul@@ 97
bordering 97
candidates 97
challenges 97
claiming 97
collaboration 97
compl@@ 97
developers 97
distant 97
faces 97
fortified 97
gen 97
genes 97
globe 97
holder 97
ic-@@ 97
impossible 97
intellectual 97
juice 97
knew 97
molecule 97
motorway 97
narrative 97
och 97
ord@@ 97
permanently 97
possess 97
radius 97
rooms 97
rot@@ 97
self 97
ses 97
similarly 97
skill 97
sponsor 97
squad 97
suggesting 97
ton@@ 97
top@@ 97
travels 97
tribal 97
voyage 97
warfare 97
windows 97
ë 97
200,000 96
Adelaide 96
Airways 96
Amadeus 96
Baba 96
Barker 96
Bern@@ 96
Bird 96
Bohemia 96
Britten 96
ChÃ 96
Gon@@ 96
Greg 96
Icelandic 96
Kenya 96
Keynes 96
Leon@@ 96
Mega 96
Metal 96
Midland 96
Mission 96
Naval 96
Neolithic 96
Powell 96
Rivers 96
Rock@@ 96
Stevens 96
Watson 96
Weber 96
anism 96
approximate 96
attendance 96
ature 96
behalf 96
black@@ 96
but@@ 96
cargo 96
chicken 96
configuration 96
cultivated 96
cutting 96
defines 96
discoveries 96
entities 96
eo 96
fertile 96
flash 96
framework 96
handle 96
ify 96
implementation 96
ingham 96
inv@@ 96
ios 96
lo 96
long-@@ 96
long@@ 96
meter 96
ols 96
play@@ 96
poets 96
puppet 96
resemble 96
rocket 96
separately 96
son@@ 96
stand-up 96
star@@ 96
tie 96
tunnel 96
ture 96
ust@@ 96
vacuum 96
variable 96
ve@@ 96
zh@@ 96
(/O2005/O) 95
1.2 95
100@@ 95
1833 95
27@@ 95
Alternative 95
Baja 95
Cornwall 95
Curitiba 95
Fab@@ 95
Guard 95
Guitar 95
Hall@@ 95
Handel 95
Honda 95
Mm 95
Morning 95
Next 95
Owen 95
Parma 95
Pichilemu 95
Rain 95
Sak@@ 95
Services 95
Spencer 95
Therefore 95
Transportation 95
Wehrmacht 95
add@@ 95
aves 95
ba@@ 95
calcium 95
chest 95
chin 95
consumer 95
controller 95
cotton 95
eck@@ 95
electro@@ 95
eng 95
ential 95
honors 95
igh@@ 95
ih@@ 95
imprisoned 95
inception 95
installation 95
investment 95
itation 95
iva 95
limestone 95
looks 95
numbering 95
onne 95
ox 95
parameters 95
portraits 95
reliable 95
sensitive 95
shield 95
ship@@ 95
shops 95
stri@@ 95
tin 95
tra@@ 95
transmitted 95
varied 95
ôte 95
(/O2002/O) 94
1835 94
1847 94
30,000 94
3:@@ 94
8/O) 94
Acts 94
Antwerp 94
Buddha 94
Caroline 94
Dubai 94
Düsseldorf 94
Exchange 94
Governor-General 94
Hab@@ 94
Holocaust 94
Industrial 94
Jesse 94
KG 94
Lav@@ 94
Leon 94
Lombardy 94
OM 94
Perry 94
PÃ 94
Railways 94
Ravens 94
Rey 94
Riv@@ 94
Shaw 94
Shawn 94
Tul@@ 94
Valais 94
Version 94
abbey 94
administratively 94
ails 94
aire 94
aquatic 94
asc@@ 94
at-@@ 94
ater 94
bing 94
bs 94
carved 94
commercials 94
commission 94
constitute 94
continuously 94
criticized 94
de-@@ 94
decides 94
default 94
descended 94
doors 94
dor@@ 94
doubles 94
drew 94
ema 94
fifty 94
finance 94
grain 94
gre@@ 94
hausen 94
ility 94
inaugurated 94
inch 94
informal 94
invaded 94
landing 94
lunar 94
lès-@@ 94
mammal 94
modern-day 94
of-@@ 94
otic 94
penalty 94
promoting 94
proximity 94
ral 94
situations 94
suffering 94
teachers 94
triangle 94
vegetables 94
worker 94
yl 94
zy 94
1809 93
1820 93
2.0 93
36@@ 93
Aboriginal 93
Administrative 93
Balochistan 93
Bir@@ 93
Boris 93
Canterbury 93
Chamber 93
Deutsche 93
Dob@@ 93
Dol@@ 93
Empress 93
FO@@ 93
Fi@@ 93
Fischer 93
Global 93
Indianapolis 93
Intercontinental 93
Kuwait 93
LP 93
Leopold 93
MA 93
Madagascar 93
Montenegro 93
Montgomery 93
Mysterio 93
Nebraska 93
Reading 93
Rel@@ 93
Sahara 93
Sr. 93
Torres 93
Tw@@ 93
Walker 93
Weather 93
Work 93
Yokohama 93
alia 93
anywhere 93
appeal 93
assault 93
auer 93
bee 93
bell 93
biologist 93
boxer 93
celebrate 93
chapters 93
clan 93
consensus 93
dam 93
detail 93
eau 93
elite 93
elongated 93
embedded 93
finite 93
first-@@ 93
gn@@ 93
gran@@ 93
icate 93
ista 93
itt@@ 93
margin 93
nominations 93
ored 93
partnership 93
patent 93
pel@@ 93
phot@@ 93
praised 93
probe 93
progress 93
pursue 93
pushed 93
readily 93
recurring 93
regulations 93
removal 93
sequels 93
shopping 93
skating 93
tension 93
truth 93
uda 93
visiting 93
yards 93
,6@@ 92
1806 92
1829 92
1855 92
190@@ 92
70@@ 92
Alt@@ 92
Arg@@ 92
Bak@@ 92
Bar 92
CPU 92
Cambrian 92
Casals 92
Cher@@ 92
Cop@@ 92
Czechoslovakia 92
Eve 92
Hir@@ 92
Katrina 92
Lima 92
Mes@@ 92
Monte 92
Oblast 92
Plat@@ 92
Portland 92
Roll 92
S-@@ 92
Tanzania 92
Those 92
Ti@@ 92
Wesley 92
XII 92
XIV 92
accordance 92
achievements 92
aims 92
alization 92
ancestry 92
arcade 92
architectural 92
ases 92
boarding 92
book@@ 92
bri@@ 92
broadly 92
canal 92
chy 92
comprised 92
directors 92
dome 92
economist 92
eless 92
eleventh 92
ep 92
eus 92
fel@@ 92
flux 92
fold 92
fran@@ 92
helping 92
intensified 92
ische 92
kills 92
lem@@ 92
meanings 92
ment@@ 92
nearest 92
nineteenth 92
numerals 92
off-@@ 92
operational 92
pie 92
populationof 92
raising 92
rebellion 92
rick 92
saving 92
sch 92
se-@@ 92
sens@@ 92
shapes 92
sight 92
silk 92
speeds 92
thinking 92
treat 92
triple 92
udes 92
umm@@ 92
-to-@@ 91
115 91
Burgundy 91
Catalan 91
Clay 91
Constantinople 91
Cont@@ 91
Deputy 91
Electronic 91
Eugene 91
Fe 91
Flash 91
Golf 91
Gul@@ 91
Hunt 91
IA@@ 91
Int@@ 91
Libya 91
Lloyd 91
MB 91
Monaco 91
Montana 91
Odyssey 91
RE@@ 91
Rachel 91
Scotia 91
She@@ 91
Tribal 91
Tsar 91
Vit@@ 91
apple 91
benefit 91
biography 91
bulk 91
bull 91
challenged 91
climbing 91
collecting 91
counts 91
dealing 91
debt 91
definitions 91
demonstrated 91
ect 91
elevated 91
eness 91
enko 91
explain 91
fal@@ 91
folklore 91
fusion 91
girlfriend 91
landlocked 91
lets 91
lob@@ 91
lung 91
mac@@ 91
mention 91
olive 91
olo 91
opposing 91
oun@@ 91
pan 91
peaks 91
pitcher 91
poorly 91
popofyear 91
portable 91
posted 91
prec@@ 91
profession 91
punishment 91
quad@@ 91
ready 91
roller 91
sem@@ 91
shoulder 91
singular 91
skater 91
spoke 91
stems 91
ster@@ 91
tales 91
taxes 91
toys 91
ume 91
updated 91
uta 91
utt@@ 91
whales 91
wick 91
wrestlers 91
yt@@ 91
zo 91
00 90
170 90
1817 90
Acc@@ 90
Areas 90
Berg 90
Bour@@ 90
Calgary 90
Catholics 90
Cav@@ 90
Cer@@ 90
Chad 90
Christ@@ 90
Cultural 90
Danube 90
Democrats 90
Emily 90
Eu@@ 90
Evans 90
Giuseppe 90
Hundred 90
IBM 90
Karachi 90
Lords 90
McLaren 90
Mongol 90
Notable 90
Previously 90
Rab@@ 90
Reagan 90
Troy 90
Verde 90
Wall@@ 90
X-@@ 90
aim 90
aks 90
ar-@@ 90
bark 90
beef 90
bonus 90
cam@@ 90
ce@@ 90
cleaning 90
confusion 90
constellation 90
contexts 90
contribution 90
copyright 90
divides 90
divine 90
electoral 90
encryption 90
ests 90
feud 90
forty 90
grammar 90
grouped 90
indeed 90
jaw 90
licensed 90
lizards 90
looked 90
measuring 90
moth 90
ner@@ 90
occupies 90
oria 90
oul@@ 90
outs 90
ove 90
ovich 90
patient 90
physically 90
pres@@ 90
principally 90
recipes 90
recovered 90
researchers 90
rub@@ 90
sen@@ 90
sle@@ 90
stretch 90
technologies 90
templates 90
undergraduate 90
unsuccessful 90
vessels 90
12-@@ 89
1843 89
Artist 89
Baldwin 89
Benoit 89
Bus@@ 89
CC 89
Calendar 89
Chin@@ 89
Cloud 89
EU 89
F-@@ 89
Faith 89
Flora 89
G-@@ 89
Hero 89
IS 89
Jam@@ 89
Jar@@ 89
Liberty 89
Location 89
Lorraine 89
Lugano 89
MS@@ 89
Martha 89
Milton 89
O. 89
Oc@@ 89
Picture 89
Pluto 89
RO@@ 89
Ridge 89
Rou@@ 89
Ruth 89
Side 89
Small 89
South@@ 89
Timothy 89
Viking 89
Warwickshire 89
Wel@@ 89
anti@@ 89
attain 89
attempting 89
attract 89
brass 89
chassis 89
cinema 89
collapsed 89
commentator 89
controls 89
depicting 89
dots 89
earn 89
enormous 89
eter 89
festivals 89
fill 89
fitness 89
fle@@ 89
focal 89
forth 89
fortress 89
genetics 89
hard@@ 89
hat 89
heading 89
ichi 89
infected 89
ished 89
iter 89
kin@@ 89
lord 89
mail 89
marking 89
mercury 89
mill@@ 89
monument 89
oda 89
ope 89
pastor 89
perennial 89
performers 89
photographer 89
photographs 89
pig 89
pm 89
pos@@ 89
resistant 89
s\/@@ 89
seasonal 89
stadt 89
sulfur 89
tests 89
tin@@ 89
trough 89
ty@@ 89
vegetation 89
waiting 89
wald 89
120@@ 88
AD@@ 88
Alba 88
Arms 88
Being 88
Body 88
Bosnia 88
Brittany 88
Byron 88
Cad@@ 88
Charter 88
Claudius 88
Continental 88
Cul@@ 88
Dist@@ 88
Esc@@ 88
Guinness 88
Harbour 88
Hawks 88
Head@@ 88
Inn 88
Ken@@ 88
Lov@@ 88
Market 88
Ot@@ 88
PC@@ 88
Phillips 88
Pon@@ 88
Rush 88
Sin@@ 88
Yam@@ 88
agg@@ 88
aking 88
beaches 88
burial 88
coin 88
cones 88
desired 88
direct-to-video 88
discipline 88
ede 88
elaborate 88
eled 88
eria 88
essay 88
exceptions 88
extend 88
fac@@ 88
fallen 88
feld 88
freight 88
iles 88
ine-@@ 88
jointly 88
judicial 88
mouse 88
objective 88
oper@@ 88
partners 88
permitted 88
potentially 88
protocols 88
pupils 88
stretching 88
subcontinent 88
survey 88
topped 88
twenty-@@ 88
tz@@ 88
ulus 88
versus 88
ç@@ 88
(/O2003/O) 87
02 87
1776 87
1795 87
Autonomous 87
Basilica 87
Bismarck 87
Buc@@ 87
But@@ 87
Cardinal 87
Career 87
Cricket 87
Current 87
Euro 87
Finance 87
Gol@@ 87
Hampton 87
Istanbul 87
It@@ 87
King@@ 87
Leg@@ 87
MCD@@ 87
Macquarie 87
Nicol@@ 87
Niger 87
Porto 87
Sheppard 87
Vale 87
Vel@@ 87
XI 87
alternatively 87
berries 87
bet 87
bore 87
bow 87
colon@@ 87
combustion 87
complexity 87
decide 87
deputy 87
detected 87
diagnosed 87
diplomatic 87
earthquakes 87
enburg 87
esses 87
guitars 87
guns 87
ido 87
instant 87
iser 87
linguistics 87
listing 87
meal 87
prehistoric 87
processors 87
quarters 87
rap 87
regardless 87
requirements 87
revenue 87
second-largest 87
secured 87
sending 87
shipping 87
slight 87
statements 87
subway 87
sy 87
systematic 87
temples 87
thrash 87
tissues 87
toy 87
vice 87
vitamin 87
ñ@@ 87
05 86
1792 86
192@@ 86
37@@ 86
Alberto 86
Angle 86
Annie 86
Anton@@ 86
Ara@@ 86
Artemis 86
Avon 86
Bavarian 86
Besides 86
Budapest 86
Contest 86
Dav@@ 86
Denver 86
Fritz 86
Heat 86
Herzegovina 86
Immunity 86
Indies 86
Inf@@ 86
Jamie 86
Jean-@@ 86
Jet 86
Juliet 86
Know 86
Leicester 86
Mang@@ 86
Mill 86
Non-@@ 86
Ou@@ 86
Ow@@ 86
Plant 86
Plateau 86
Presidency 86
SV 86
Sauber 86
Serv@@ 86
Springfield 86
Wor@@ 86
aba 86
ally-@@ 86
ann 86
ashed 86
aur@@ 86
automatic 86
bicycle 86
buy 86
chen 86
ck 86
cryptographic 86
deck 86
developments 86
difficulty 86
directions 86
discussed 86
drinks 86
eland 86
encounter 86
foot@@ 86
gs 86
ho@@ 86
immunity 86
ish-@@ 86
key@@ 86
long-running 86
lose 86
mar 86
melodic 86
missions 86
momentum 86
mÃ 86
na@@ 86
oke 86
perception 86
petroleum 86
pil@@ 86
pit 86
please 86
posts 86
poverty 86
preceded 86
reflected 86
sat@@ 86
scripts 86
sculptor 86
shirt 86
sin 86
six-@@ 86
sous-@@ 86
sovereignty 86
spr@@ 86
suit 86
sup@@ 86
tasks 86
thanks 86
tit@@ 86
trace 86
ually 86
ult@@ 86
vel@@ 86
wheels 86
ê@@ 86
(/O2001/O) 85
.org 85
1.8 85
105 85
1797 85
Adventure 85
Ashley 85
Atlético 85
Aur@@ 85
BA 85
Baden-W 85
Biblical 85
Bun@@ 85
CM@@ 85
Chiba 85
Cole 85
Conservatory 85
Cross@@ 85
Einstein 85
Emma 85
Fal@@ 85
Future 85
Gettysburg 85
Grameen 85
Jennifer 85
MS 85
McDonald 85
Meteorological 85
Mickey 85
Moses 85
Mé@@ 85
Nero 85
Pall@@ 85
Plata 85
Roman@@ 85
Short 85
Slam 85
Starting 85
Tem@@ 85
Tennis 85
Test 85
Top@@ 85
Uncle 85
Vatican 85
Vermont 85
YouTube 85
accurate 85
anatomy 85
arrive 85
arrondissement 85
atively 85
bombs 85
delivery 85
dried 85
eclipse 85
endorf 85
equally 85
explains 85
faculty 85
fever 85
gar@@ 85
ger@@ 85
glacial 85
ho 85
humanity 85
ibn 85
integral 85
intensive 85
jersey 85
jo@@ 85
judges 85
larvae 85
leather 85
lessons 85
log 85
longitude 85
migration 85
mud 85
naturalist 85
observation 85
odon 85
ories 85
panel 85
pipe 85
playoff 85
portrait 85
prop@@ 85
rant 85
remake 85
reward 85
rid@@ 85
seriously 85
sexually 85
sits 85
socialist 85
speaker 85
spin 85
surgery 85
telling 85
uma 85
underlying 85
ush 85
16-@@ 84
20-@@ 84
6,000 84
AC@@ 84
Admiral 84
Ash 84
Attorney 84
Berg@@ 84
Brett 84
BrÃ 84
Burke 84
Canucks 84
Cham@@ 84
Clara 84
Cow@@ 84
Dresden 84
Grosso 84
IRC 84
Index 84
Institution 84
Jessica 84
Joey 84
Ky@@ 84
Liv@@ 84
Lubbock 84
Money 84
Nash 84
Oriental 84
Philosophy 84
Plain 84
Platinum 84
Portsmouth 84
Railroad 84
Rat@@ 84
Rebellion 84
Search 84
Southampton 84
Sus@@ 84
Tiberius 84
Tulsa 84
Ultimate 84
Using 84
Woods 84
XP 84
abstract 84
achi 84
achievement 84
adoption 84
altered 84
athletic 84
bison 84
boiling 84
bond 84
bra@@ 84
ceased 84
co-founder 84
cocoa 84
compiled 84
courses 84
coverage 84
creative 84
criteria 84
currents 84
defending 84
des-@@ 84
descendant 84
digits 84
discovers 84
een 84
equations 84
ext@@ 84
funding 84
ibility 84
implies 84
introduce 84
izes 84
kan 84
lavender 84
licenses 84
lighting 84
long-term 84
mascot 84
min 84
naked 84
nie 84
oa 84
oli 84
oth 84
pass@@ 84
psych@@ 84
putting 84
ray 84
riding 84
select 84
sign@@ 84
snow@@ 84
spiral 84
strain 84
superior 84
switch 84
switched 84
tables 84
tos 84
upgraded 84
wan@@ 84
,4@@ 83
1819 83
220 83
4.5 83
@@ 83
Chapter 83
Ecuador 83
GameCube 83
Gill@@ 83
Hand@@ 83
Ish@@ 83
Jackie 83
Kil@@ 83
Kingston 83
Lancaster 83
Laura 83
Liberation 83
Maj@@ 83
Mik@@ 83
Mit@@ 83
Nu@@ 83
Opposition 83
Qing 83
Rhode 83
Richter 83
Senior 83
Sky@@ 83
Son@@ 83
T-@@ 83
Train 83
Twin 83
Vo@@ 83
affiliated 83
anchor 83
array 83
chiefly 83
citing 83
claws 83
consistent 83
consistently 83
convert 83
cooling 83
dimensional 83
dium 83
domesticated 83
eller 83
enabled 83
enne 83
eth 83
evacuated 83
homeland 83
incarnation 83
insect 83
iya 83
ming 83
museums 83
notice 83
ort 83
participants 83
payment 83
port@@ 83
preferences 83
prices 83
prints 83
pulled 83
reverse 83
scar@@ 83
sel 83
snake 83
sudden 83
test@@ 83
thrown 83
vapor 83
wind@@ 83
wrong 83
'll 82
1810 82
1818 82
3.5 82
AL@@ 82
Archipelago 82
Baden 82
Banks 82
Boy@@ 82
Brit@@ 82
CH@@ 82
Cla@@ 82
Come 82
Comp@@ 82
Data 82
Dawn 82
Encyclopædia 82
Episode 82
Fa@@ 82
Fair@@ 82
Genesis 82
Georg@@ 82
Guin 82
Julia 82
Lahore 82
Large 82
León 82
Municipal 82
Nacional 82
Nathan 82
Ori@@ 82
Performance 82
Pisa 82
Presidential 82
Protection 82
Rhodes 82
Slipknot 82
Thile 82
Tiger 82
Timor 82
Toledo 82
Tour@@ 82
Turks 82
Twelve 82
Where 82
Wyoming 82
XIII 82
ank@@ 82
anth@@ 82
approaches 82
aps 82
au-@@ 82
boot 82
bottle 82
boxes 82
carrier 82
check 82
columns 82
connections 82
contestants 82
daytime 82
derivative 82
dynamic 82
edits 82
ells 82
enrolled 82
erman 82
error 82
escaped 82
eâ 82
hem@@ 82
ially 82
ires 82
manufacturers 82
membrane 82
nor@@ 82
otes 82
overhead 82
pack 82
predicted 82
pregnancy 82
read@@ 82
register 82
ring@@ 82
rocky 82
roe 82
rush 82
saved 82
shaft 82
shooter 82
sson 82
sworn 82
tobacco 82
tor 82
ved 82
vocabulary 82
withdrew 82
z-@@ 82
ze@@ 82
zer 82
zer@@ 82
Õ 82
ín 82
-shaped 81
08@@ 81
165 81
2012 81
Alexand@@ 81
Animation 81
Aub@@ 81
Blu@@ 81
Bonn 81
Bud@@ 81
Carroll 81
Chronicles 81
Cinderella 81
Commerce 81
Fol@@ 81
Fur@@ 81
Georgian 81
Habsburg 81
Hell 81
Hell@@ 81
Liszt 81
Michelangelo 81
Mod@@ 81
Nepal 81
Plate 81
Pos@@ 81
Qur 81
Rosa 81
Sassanid 81
Scout 81
Secondary 81
Sul 81
TA 81
Teen 81
Traditionally 81
Travelcard 81
Wikimedia 81
Wonder 81
Xena 81
aded 81
alive 81
arch 81
bell@@ 81
broadcaster 81
consequence 81
costs 81
counter 81
craft 81
discontinued 81
drawings 81
duc@@ 81
ections 81
eruption 81
exceptionally 81
fil@@ 81
filming 81
flags 81
fort@@ 81
giants 81
gravitational 81
guards 81
ham@@ 81
ister 81
lighter 81
lights 81
mere 81
noticed 81
oku 81
preserve 81
proportion 81
proposal 81
pupil 81
railroad 81
rol@@ 81
samples 81
schedule 81
shifted 81
shrine 81
slopes 81
sponsorship 81
static 81
su 81
terrain 81
tomb 81
tons 81
transformation 81
trav@@ 81
uch@@ 81
ugg@@ 81
wants 81
wil 81
ws 81
yg@@ 81
yst@@ 81
ères 81
(/O194@@ 80
11,@@ 80
1787 80
198@@ 80
Ah@@ 80
Albania 80
Anglo-Saxon 80
Att@@ 80
Auto 80
BSD 80
Bahrain 80
Bedford 80
Brandon 80
Brunswick 80
Competition 80
Dep@@ 80
Drive 80
Dundee 80
Echidna 80
Form@@ 80
Gotha 80
Greenwich 80
Heights 80
Lulu 80
Lyon 80
Mam@@ 80
Marc 80
Marilyn 80
Mozilla 80
Nevertheless 80
Nicole 80
Olga 80
Piedmont 80
Purple 80
RAF 80
Rig@@ 80
Sang@@ 80
Scientific 80
Style 80
Uruguay 80
Waters 80
Winnipeg 80
ache 80
achieving 80
akes 80
athlete 80
bats 80
beg@@ 80
benefits 80
ciphers 80
colour 80
combines 80
consoles 80
contr@@ 80
cri@@ 80
dawn 80
displaced 80
down@@ 80
duration 80
engineers 80
enz@@ 80
equipped 80
expert 80
fa@@ 80
fitted 80
folded 80
fri@@ 80
hardcore 80
heavyweight 80
ieu 80
ined 80
inj@@ 80
interrupted 80
keyboards 80
landmark 80
logarithm 80
past@@ 80
philosophers 80
phon@@ 80
prayers 80
prophet 80
realized 80
rttemberg 80
sam@@ 80
severely 80
siblings 80
sitting 80
solely 80
sou@@ 80
sulfide 80
surpassed 80
survival 80
tracked 80
tribute 80
variables 80
venture 80
vers@@ 80
viruses 80
westward 80
(/O2008/O) 79
1788 79
1813 79
1816 79
Climate 79
Cyrus 79
Finally 79
Fran@@ 79
Gm 79
Hello 79
Henri 79
Jazz 79
Katie 79
Limburg 79
MP@@ 79
Malay 79
Metroid 79
Narnia 79
Negro 79
North@@ 79
Ox@@ 79
Parade 79
Pat 79
Ph. 79
Poly@@ 79
RC 79
Rhône 79
Ron@@ 79
Rot@@ 79
Salisbury 79
Sinn 79
Sweet 79
Trail 79
Use 79
Whig 79
Wit@@ 79
aled 79
amino 79
ased 79
associate 79
beck 79
believes 79
cash 79
catal@@ 79
chambers 79
choral 79
cone 79
credits 79
crosses 79
crystal 79
cylinder 79
denoted 79
devised 79
divide 79
dot 79
dramas 79
easternmost 79
emotional 79
endemic 79
erectus 79
explanation 79
fi@@ 79
fronts 79
geography 79
gross 79
han@@ 79
hunt 79
iel 79
imaginary 79
imposed 79
ione 79
ision 79
itz@@ 79
ju@@ 79
lio 79
loose 79
nik 79
opponents 79
performer 79
plateau 79
privately 79
protest 79
recovery 79
relativity 79
revived 79
sar 79
sheets 79
sin@@ 79
spar@@ 79
sq 79
stronger 79
tailed 79
tragedy 79
www.@@ 79
'm 78
1.4 78
1839 78
:1861 78
Abel 78
Accessed 78
Adobe 78
Alfonso 78
Benedict 78
Bennett 78
Billie 78
Blackpool 78
Bloc 78
Call@@ 78
Falling 78
Fat 78
Figaro 78
Fle@@ 78
Grammar 78
Gödel 78
Hed@@ 78
How@@ 78
Jac@@ 78
Juventus 78
Lincolnshire 78
Lithuanian 78
Liège 78
Marseille 78
Mathematics 78
Mato 78
Meg@@ 78
Morse 78
PDF 78
Rice 78
Rings 78
Saf@@ 78
Shane 78
Sichuan 78
Solomon 78
Tal 78
Te 78
Turkic 78
Vauxhall 78
Vietnamese 78
Week 78
Workers 78
aftermath 78
allied 78
anarchist 78
and/or 78
aris 78
autumn 78
blade 78
buses 78
butterflies 78
cardamom 78
casualties 78
cellist 78
ceremonies 78
circuits 78
cit@@ 78
communicate 78
complicated 78
decoration 78
delayed 78
destinations 78
diary 78
din@@ 78
discuss 78
dying 78
ected 78
electronics 78
ester 78
expanding 78
finale 78
flagship 78
fragments 78
gameplay 78
gap 78
homeless 78
hoped 78
hotels 78
idal 78
iness 78
inheritance 78
let@@ 78
lightning 78
ll@@ 78
obvious 78
outstanding 78
participation 78
poker 78
politically 78
prefer 78
qualifying 78
remix 78
repertoire 78
repl@@ 78
reportedly 78
retreat 78
rez 78
riots 78
school@@ 78
screenplay 78
shadow 78
skeleton 78
sters 78
targeted 78
teen 78
theorist 78
ton-@@ 78
transit 78
translates 78
typ@@ 78
universally 78
vic@@ 78
wiki 78
wore 78
ø@@ 78
'd 77
3000 77
Amy 77
Anglia 77
Animated 77
Anjou 77
Anti-@@ 77
Arc@@ 77
Artists 77
Auschwitz 77
Austria-Hungary 77
BMW 77
Bis@@ 77
Bod@@ 77
CS@@ 77
Cle@@ 77
Cohen 77
Cork 77
Cru@@ 77
Erich 77
GP 77
Gabrielle 77
Generation 77
Ground 77
Ham 77
Kart 77
Ligue 77
Lil 77
Manila 77
Michel 77
Naz@@ 77
Over@@ 77
Pac@@ 77
Pascal 77
Ped@@ 77
Pit@@ 77
Publishing 77
R.@@ 77
Situated 77
Southwest 77
Students 77
Sunni 77
Usually 77
Various 77
XL@@ 77
a.m. 77
alla 77
argue 77
assembled 77
athletics 77
atta 77
attractions 77
aud 77
ble 77
chromosomes 77
comb@@ 77
commanded 77
cord 77
crystalline 77
curved 77
customers 77
cycles 77
differential 77
disappeared 77
dorf 77
dream 77
dy@@ 77
emen 77
enclosed 77
friendship 77
golf 77
ician 77
indicating 77
ingredient 77
ishes 77
itor 77
ministers 77
minus 77
mun@@ 77
mysterious 77
negotiations 77
nel 77
occ@@ 77
orial 77
ost 77
ounded 77
parody 77
pe 77
peaking 77
phases 77
princely 77
processed 77
prof@@ 77
regulated 77
ress@@ 77
restoration 77
rotating 77
springs 77
sty@@ 77
suspected 77
telescope 77
thermodynamics 77
thirteenth 77
throat 77
uki 77
uv@@ 77
valve 77
wal@@ 77
watching 77
.5 76
0,000 76
1770 76
194@@ 76
350 76
Active 76
Alexandre 76
Andrews 76
Armstrong 76
Atari 76
Barb@@ 76
Basil 76
Belarus 76
Bern 76
Canyon 76
Chamberlain 76
Cyprus 76
DE@@ 76
Din@@ 76
Eurasia 76
Farm 76
Furthermore 76
Gem@@ 76
Gene 76
Gerald 76
Giant 76
Invasion 76
Iv@@ 76
Kas@@ 76
Lind@@ 76
Lutheran 76
Magn@@ 76
Oakland 76
Outside 76
PE@@ 76
Pad@@ 76
Pepper 76
Pole 76
Preston 76
Reformed 76
Rica 76
Rich@@ 76
Rovers 76
Rub@@ 76
Run 76
SC 76
SC@@ 76
Serenity 76
Shore 76
Siberia 76
Thur@@ 76
Typically 76
Vall@@ 76
Webster 76
Without 76
WÃ 76
addressed 76
assisted 76
beans 76
bees 76
canon 76
cas@@ 76
cast@@ 76
combine 76
construct 76
controlling 76
conventionally 76
cour@@ 76
cross-@@ 76
demanded 76
divorce 76
donated 76
drove 76
eck 76
eds 76
elastic 76
enforcement 76
flour 76
heaven 76
hiding 76
hydr@@ 76
incorporating 76
int 76
iri@@ 76
itting 76
len 76
m. 76
moths 76
natur@@ 76
ogn@@ 76
onian 76
ook 76
ough 76
pap@@ 76
phil@@ 76
pocket 76
posthumous 76
prepare 76
projection 76
rag@@ 76
realm 76
recreational 76
reef 76
rist@@ 76
rodents 76
sequences 76
sey 76
show@@ 76
sunlight 76
surprise 76
thriller 76
traits 76
tre 76
vent@@ 76
vit@@ 76
wedding 76
wireless 76
wound 76
1/O) 75
1814 75
Af@@ 75
Almost 75
Armenians 75
Classics 75
Classification 75
Corn@@ 75
Crawford 75
Cromwell 75
Dame 75
Def@@ 75
Eton 75
Everton 75
Fish 75
Fisher 75
Fun@@ 75
Good@@ 75
Gran 75
Guru 75
Hyde 75
Josh 75
Justin 75
Kornberg 75
Mind 75
NT 75
Names 75
Norwich 75
Nottingham 75
Ny@@ 75
O'Connor 75
RT@@ 75
Rafael 75
Ricardo 75
Shirley 75
Sioux 75
Thor@@ 75
Tolkien 75
Voivodeship 75
Ward 75
Well 75
Yale 75
actively 75
aise 75
arc 75
assuming 75
autonomy 75
bombings 75
bre 75
cameras 75
celebrations 75
cou@@ 75
cycl@@ 75
detect 75
dian 75
disc@@ 75
dre@@ 75
ecological 75
edi@@ 75
ems 75
enders 75
fare 75
farmers 75
fÃ 75
gland 75
governmental 75
hitting 75
identification 75
ilia 75
infinite 75
informed 75
iÄ 75
ler@@ 75
lined 75
lizard 75
marries 75
mirror 75
missionary 75
monarchs 75
monster 75
nitrate 75
noun 75
oot@@ 75
ori@@ 75
oshi 75
ough@@ 75
paste 75
paying 75
pent@@ 75
princess 75
pro 75
proxy 75
pseud@@ 75
publishes 75
realistic 75
reflecting 75
relating 75
requiring 75
rough 75
shelter 75
shrubs 75
slang 75
soci@@ 75
specialist 75
sperm 75
subdivisions 75
theological 75
tra 75
transliterated 75
uted 75
viola 75
yo 75
,5@@ 74
1.3 74
1784 74
Additional 74
AndrÃ 74
Bath 74
Blair 74
Blake 74
Churches 74
Clarence 74
Colonel 74
Colony 74
Conductor 74
Danzig 74
EA 74
Esp@@ 74
Euclid 74
Europa 74
Fighting 74
Flor@@ 74
Foster 74
Gang 74
Horn 74
Jon@@ 74
Kid 74
Marion 74
Miles 74
Oasis 74
PS@@ 74
Plan@@ 74
Recordings 74
Saxon 74
Sophia 74
Spe@@ 74
Squ@@ 74
Suite 74
T.@@ 74
Table 74
Tin 74
Trojan 74
Ut@@ 74
Ven@@ 74
Yankees 74
Zanzibar 74
acks 74
alls 74
apartment 74
apping 74
as-@@ 74
automaker 74
beam 74
bil@@ 74
bol@@ 74
bred 74
campuses 74
compatible 74
competitors 74
constantly 74
crashed 74
delta 74
dh@@ 74
draws 74
ees 74
enjoy 74
everyday 74
excess 74
explored 74
famed 74
fed 74
gospel 74
grunge 74
hist@@ 74
hollow 74
honey 74
ider 74
iki 74
inn@@ 74
intelligent 74
intention 74
iter@@ 74
je@@ 74
march 74
methane 74
nam@@ 74
nest 74
new@@ 74
nobility 74
nos 74
ogen@@ 74
omin@@ 74
patch 74
protests 74
pseudonym 74
relevant 74
short-@@ 74
similarities 74
stretches 74
tram 74
valid 74
vital 74
yâ 74
ó 74
-de@@ 73
1600 73
240 73
29@@ 73
AM 73
Agriculture 73
Albums 73
Anaheim 73
Andes 73
Apostles 73
Bow@@ 73
Box 73
Bradley 73
Branch 73
Burnham 73
CE@@ 73
Cameroon 73
Carnegie 73
Cherokee 73
DS@@ 73
Date 73
Dhabi 73
Dr 73
Ear@@ 73
Finals 73
Fitzgerald 73
Galaxy 73
Generally 73
Gerhard 73
Giants 73
Guardian 73
Herman 73
Hinduism 73
IM@@ 73
IP@@ 73
Ing@@ 73
Josef 73
Kazakhstan 73
Lom@@ 73
Lynn 73
Masters 73
Midwest 73
Moh@@ 73
Occitan 73
Orson 73
PS 73
Papua 73
Please 73
Powers 73
Pride 73
Programme 73
RAM 73
RC@@ 73
Raffles 73
Sport@@ 73
Still 73
Stor@@ 73
Study 73
Tab@@ 73
Treasury 73
Tristan 73
Vesta 73
Wind@@ 73
Wol@@ 73
accomplished 73
auc@@ 73
ayed 73
bal 73
beings 73
cav@@ 73
cell@@ 73
ces 73
ch-@@ 73
chorus 73
chromosome 73
corresponds 73
countryside 73
crucial 73
demo 73
discrete 73
eable 73
employment 73
ent-@@ 73
eon 73
feelings 73
geographically 73
iTunes 73
ifies 73
je 73
lam@@ 73
literal 73
masters 73
mol@@ 73
motto 73
ne-@@ 73
ogenic 73
ont 73
orientation 73
oto 73
photos 73
programme 73
provider 73
revol@@ 73
sharks 73
spending 73
spiders 73
squares 73
strictly 73
tubes 73
uniforms 73
upcoming 73
venues 73
voluntary 73
1826 72
186@@ 72
197@@ 72
40,000 72
A&M 72
Adrian 72
Away 72
Belfast 72
Block 72
CDs 72
Cart@@ 72
Cecil 72
Ci@@ 72
Clarkson 72
Conservatoire 72
Cra@@ 72
Crazy 72
Cups 72
Drake 72
Ds 72
EPs 72
English-speaking 72
Fly 72
Former 72
Fra 72
François 72
Gam@@ 72
German-born 72
Gur@@ 72
Harbor 72
Hav@@ 72
Industry 72
Internazionale 72
Jorge 72
Julie 72
Labrador 72
Lob@@ 72
MW 72
Mare 72
Nat@@ 72
Northampton 72
Obama 72
Olympiad 72
Pas@@ 72
Penguin 72
Piano 72
Pocket 72
RC4 72
Release 72
Right 72
Sagan 72
Shin@@ 72
Stock@@ 72
Take 72
Tav@@ 72
Tchaikovsky 72
TÃ 72
Wing 72
XVI 72
Yas@@ 72
Yosh@@ 72
acknowledged 72
adaptations 72
addresses 72
affects 72
algorithms 72
amed 72
ames 72
anta 72
borrowed 72
brackish 72
calculated 72
capped 72
chant 72
civilizations 72
corn 72
curve 72
dar@@ 72
denied 72
derive 72
disbanded 72
discover 72
dishes 72
distributions 72
ects 72
edo 72
elect@@ 72
ented 72
esh 72
ettes 72
eu 72
eventual 72
examination 72
fluoride 72
focusing 72
für 72
graph 72
heter@@ 72
implement 72
inated 72
jan 72
kinetic 72
light-@@ 72
liqu@@ 72
maintaining 72
med 72
metric 72
monthly 72
myth 72
narrator 72
nationalist 72
navy 72
non-fiction 72
orth@@ 72
oux 72
pod 72
precursor 72
purely 72
redirects 72
rod 72
sailed 72
scores 72
servant 72
short@@ 72
sick 72
skyscraper 72
substantially 72
summit 72
tly 72
tributaries 72
tz 72
ules 72
unusually 72
wake 72
welding 72
.A. 71
1/@@ 71
39@@ 71
57@@ 71
Antoine 71
Bahamas 71
Bh@@ 71
Bombay 71
Bruno 71
Cao 71
Co 71
Consequently 71
Cuban 71
Fel@@ 71
Fri@@ 71
Heidelberg 71
Horton 71
Jul@@ 71
K-@@ 71
Lambert 71
Leslie 71
Livingstone 71
Magnus 71
Mark@@ 71
Maroon 71
Mighty 71
Mughal 71
NHC 71
Nan@@ 71
Origin 71
Return 71
Rev@@ 71
Run@@ 71
Sacramento 71
Scouting 71
Trav@@ 71
Undated 71
Unter@@ 71
Wer@@ 71
accidentally 71
age@@ 71
all-time 71
alternating 71
and-@@ 71
asking 71
autobiography 71
bacterial 71
bes 71
beta 71
boy@@ 71
cent 71
certification 71
character@@ 71
chor@@ 71
class@@ 71
convicts 71
denotes 71
diagram 71
entrepreneur 71
evolve 71
fet@@ 71
foothills 71
fraction 71
gift 71
graphical 71
happens 71
hybrid 71
ict@@ 71
inal 71
isa 71
jin 71
lacking 71
lee 71
left-wing 71
los 71
lu@@ 71
multimedia 71
mut@@ 71
nan 71
neuro@@ 71
nut 71
nuts 71
occupying 71
organize 71
outdoor 71
photography 71
postal 71
reflects 71
resides 71
restrictions 71
seismic 71
stamps 71
succeed 71
supreme 71
sure 71
tomato 71
trials 71
tune 71
ub 71
valued 71
wood@@ 71
å@@ 71
(/O1999/O) 70
,3@@ 70
102 70
Antioch 70
Ast@@ 70
Avery 70
Azad 70
Bates 70
Bears 70
Berry 70
Bologna 70
Cave 70
Commissioner 70
Concert 70
Counties 70
Diamond 70
Eurovision 70
Feature 70
Fleet 70
Frost 70
Genocide 70
Given 70
Granada 70
Hannah 70
Hou@@ 70
I/O. 70
Ill@@ 70
Interior 70
Jeremy 70
Kill@@ 70
Lavigne 70
Linda 70
MIT 70
Majesty 70
Nev@@ 70
Nitro 70
Nordic 70
Norton 70
Pil@@ 70
Quartet 70
Record 70
Romanticism 70
SEAT 70
Sant@@ 70
Schw@@ 70
Sinclair 70
Sm@@ 70
Smoot 70
Som@@ 70
Stalin 70
Strong 70
Swan 70
TC 70
Ton@@ 70
Toro 70
Tree 70
Wario 70
Wide 70
Zack 70
Zürich 70
aches 70
aching 70
airs 70
announcement 70
anz@@ 70
apped 70
aus 70
bling 70
broad@@ 70
bush 70
cart@@ 70
chains 70
chronology 70
convinced 70
cooler 70
crystals 70
dealt 70
decree 70
demands 70
din 70
dismissed 70
dra@@ 70
ech 70
elephant 70
emigrated 70
enting 70
essays 70
etc./O. 70
eti 70
eton 70
expelled 70
feast 70
fried 70
gaining 70
gang@@ 70
gy@@ 70
hood 70
ieux 70
infl@@ 70
interactions 70
intercourse 70
intr@@ 70
knife 70
ku 70
legacy 70
libraries 70
medium-sized 70
mic@@ 70
modes 70
most-@@ 70
north@@ 70
ocks 70
owski 70
packages 70
pools 70
procedure 70
quartet 70
quet 70
reduction 70
resource 70
sail 70
scorer 70
secret@@ 70
sit 70
steadily 70
suddenly 70
suspension 70
telecommunications 70
tern@@ 70
the-@@ 70
theologian 70
thesis 70
tones 70
twelfth 70
ual 70
ups 70
urus 70
victim 70
wan 70
yth@@ 70
128 69
13-@@ 69
1822 69
1823 69
1838 69
195@@ 69
450 69
750 69
Allan 69
Bed@@ 69
Bowie 69
Card@@ 69
Cartoon 69
Chili 69
Dorothy 69
Drivers 69
E.@@ 69
East@@ 69
Emmanuel 69
Full 69
Gates 69
Gob@@ 69
Grand@@ 69
HTML 69
Harlem 69
Holmes 69
ITV 69
Joel 69
Khyber 69
Lanarkshire 69
Lit@@ 69
Miranda 69
Mrs 69
Nadu 69
Newport 69
Oliveira 69
OpenOffice.org 69
Oxfordshire 69
PO@@ 69
Paul@@ 69
Pierce 69
Pietro 69
Private 69
Proms 69
Prot@@ 69
Rain@@ 69
Ray@@ 69
Rowling 69
SS@@ 69
Senegal 69
Shar@@ 69
Similar 69
Species 69
Staffordshire 69
Stan@@ 69
Taluka 69
Title 69
Titus 69
Tyne 69
Type 69
Ulster 69
Universities 69
ader 69
agan 69
arrangements 69
author@@ 69
aviation 69
axes 69
bean 69
beverage 69
burg@@ 69
circa 69
collect 69
comments 69
comparable 69
confined 69
constitutes 69
cos@@ 69
counterpart 69
cubic 69
developmental 69
disputes 69
dividing 69
ease 69
eligible 69
emann 69
engage 69
enhanced 69
ere@@ 69
eric@@ 69
exceptional 69
explosion 69
filling 69
fire@@ 69
flexible 69
fourteenth 69
frontman 69
graduates 69
harvest 69
hem 69
ib 69
ight@@ 69
iodine 69
ition@@ 69
kit 69
lift 69
ling@@ 69
lip@@ 69
manage 69
maternal 69
mistress 69
near-@@ 69
newer 69
nic@@ 69
ns@@ 69
ographer 69
orb@@ 69
ott 69
p.m. 69
pinned 69
postulate 69
premier 69
prevented 69
proportional 69
quit 69
recognizes 69
reflect 69
refuge 69
retains 69
rier 69
sand@@ 69
schemes 69
separates 69
settle 69
sman 69
soup 69
speculation 69
stability 69
supplied 69
sville 69
teenage 69
timber 69
tonic 69
towers 69
truly 69
twins 69
uncertain 69
vascular 69
æ@@ 69
ör@@ 69
've 68
(/O195@@ 68
03 68
3.0 68
Arab@@ 68
Aztec 68
Baldheri 68
Bayern 68
Bot@@ 68
Bridg@@ 68
Brig@@ 68
Brun@@ 68
CDU 68
Chal@@ 68
Chester 68
Das 68
Defence 68
Dei 68
Destiny 68
Dou@@ 68
Dro@@ 68
Dub@@ 68
EC 68
Ellis 68
English-language 68
Ever@@ 68
Franc@@ 68
Freak 68
Geographic 68
Gir@@ 68
Has@@ 68
Haydn 68
Herschel 68
Hesiod 68
Indo-@@ 68
Kill 68
Kyle 68
LE@@ 68
Lang 68
Linspire 68
Mall 68
Matilda 68
Merc@@ 68
Must@@ 68
NE@@ 68
NO@@ 68
Oceania 68
Passion 68
Pul@@ 68
Pun@@ 68
Radcliffe 68
Recording 68
Reed 68
Religious 68
Sacred 68
Sau@@ 68
Schumacher 68
Shah@@ 68
Stade 68
Sul@@ 68
Tale 68
Tokugawa 68
Tun@@ 68
aea 68
anim@@ 68
anne 68
ark 68
brick 68
bud@@ 68
cap 68
citizenship 68
closure 68
commentary 68
compare 68
considering 68
contestant 68
contributing 68
corners 68
cru@@ 68
decisive 68
decorated 68
denote 68
doubt 68
dro@@ 68
drops 68
edges 68
eps 68
equilibrium 68
esis 68
ested 68
eternal 68
federation 68
gathering 68
gers 68
handling 68
healthy 68
hon@@ 68
ian-born 68
ident@@ 68
ifer 68
incorporates 68
itter 68
ladder 68
macro@@ 68
mp@@ 68
nationwide 68
nov@@ 68
numeral 68
occupy 68
odd 68
old@@ 68
openly 68
osaurs 68
osh@@ 68
oured 68
ourt 68
pers 68
pound 68
pregnant 68
public@@ 68
pul@@ 68
rains 68
recover 68
referee 68
refugees 68
ret 68
rip@@ 68
rivalry 68
rum 68
simplest 68
smell 68
smoking 68
speaks 68
steep 68
subset 68
tan@@ 68
til@@ 68
trams 68
trust 68
ump@@ 68
underwear 68
viewing 68
wat@@ 68
win@@ 68
wr@@ 68
,0@@ 67
0.1 67
00-@@ 67
1794 67
1802 67
1828 67
38@@ 67
47@@ 67
4:@@ 67
5.5 67
A3@@ 67
Aud@@ 67
BC@@ 67
Barnes 67
Bec@@ 67
Da 67
Denis 67
Dhaka 67
Duck 67
Economy 67
Ellen 67
Ey@@ 67
FR@@ 67
Fiat 67
Fine 67
Fraser 67
Geoffrey 67
German-speaking 67
Gibraltar 67
Guar@@ 67
Hak@@ 67
Haven 67
Haz@@ 67
Higher 67
Hil@@ 67
Hood 67
Hopkins 67
Inner 67
Internationale 67
Jericho 67
Johnston 67
Lic@@ 67
Lines 67
Lions 67
Lisbon 67
MCCC@@ 67
Mills 67
Nebula 67
Norris 67
NÃ 67
Oak 67
Others 67
Paradise 67
Penny 67
Pius 67
Pow@@ 67
Room 67
Sardinia 67
Sha@@ 67
Shizuoka 67
Silesia 67
Similarly 67
Sir@@ 67
Susanna 67
Ther@@ 67
Til@@ 67
Vid@@ 67
Wimbledon 67
Written 67
Yucatán 67
acres 67
aer@@ 67
anger 67
arg@@ 67
arriving 67
aside 67
asing 67
att 67
barrier 67
bitter 67
burgh 67
butterfly 67
cellular 67
crater 67
cul@@ 67
decorative 67
depicts 67
destroying 67
directing 67
eff@@ 67
enza 67
esian 67
etymology 67
exploration 67
fer 67
ferry 67
firing 67
fun 67
grams 67
gun@@ 67
icated 67
ifying 67
interference 67
ionist 67
ipp@@ 67
isotope 67
lieutenant 67
lifestyle 67
losses 67
maintenance 67
manual 67
melting 67
nav@@ 67
organizing 67
ott@@ 67
plasma 67
proven 67
re-elected 67
re-released 67
rendered 67
reporting 67
respected 67
reveals 67
right-@@ 67
ritual 67
sed 67
servers 67
sh 67
spl@@ 67
spreading 67
standardized 67
stolen 67
stre@@ 67
striking 67
superhero 67
sâ 67
tank 67
tar 67
targets 67
th-century 67
underwent 67
vegetable 67
vest@@ 67
volunteers 67
wil@@ 67
wool 67
ë@@ 67
,8@@ 66
,9@@ 66
1.1 66
1827 66
187@@ 66
Ach@@ 66
Alonso 66
Anno 66
Aqu@@ 66
Archer 66
Armed 66
Auburn 66
Bast@@ 66
Bon 66
Bonaparte 66
Brussels 66
Caliphate 66
Catarina 66
Churchill 66
Constable 66
D.@@ 66
DO@@ 66
Dodd 66
Donkey 66
Dover 66
Ell@@ 66
Equ@@ 66
FM 66
Far 66
Gibson 66
Glenn 66
Gunnedah 66
HD 66
Helena 66
Hera 66
Joss 66
Jur@@ 66
Kirk@@ 66
Koror 66
Lag@@ 66
Locarno 66
MD@@ 66
Mick 66
Nak@@ 66
Nicaragua 66
Nights 66
OH 66
Og@@ 66
Oldham 66
Origins 66
Peppers 66
Pir@@ 66
Prov@@ 66
Rather 66
Rein@@ 66
Richardson 66
Robson 66
Rodrigo 66
Rules 66
Scandinavian 66
Shim@@ 66
Singh 66
Stat@@ 66
Steel 66
Stern 66
Sug@@ 66
Things 66
Tot@@ 66
Trinidad 66
Us 66
Voldemort 66
Weekly 66
Winchester 66
Yoshi 66
Zagreb 66
acceleration 66
adj@@ 66
aker 66
animator 66
antiquity 66
ares 66
ashes 66
aver 66
chronic 66
clade 66
clusters 66
com 66
comics 66
conv@@ 66
cow@@ 66
crustaceans 66
dances 66
demolished 66
demonstrate 66
developer 66
div@@ 66
elephants 66
emerge 66
estuary 66
explicitly 66
facilitate 66
feeling 66
fermentation 66
floating 66
friction 66
fund 66
gaming 66
greenhouse 66
grid 66
handed 66
hanging 66
honored 66
ift 66
imes 66
infantry 66
inge 66
inhabit 66
intervals 66
keyboardist 66
lenses 66
linking 66
lith@@ 66
loved 66
marble 66
mask 66
muscles 66
mythological 66
nan@@ 66
neighbors 66
neu@@ 66
organisation 66
pawn 66
phosphorus 66
ple 66
prefix 66
radar 66
reader 66
reception 66
recipe 66
recruited 66
reggae 66
sensory 66
slope 66
specialty 66
staged 66
stal@@ 66
stomach 66
stops 66
suff@@ 66
tehsils 66
tering 66
throw 66
tidal 66
tiger 66
trunk 66
uch 66
un-@@ 66
ury 66
verses 66
web@@ 66
zed 66
Û 66
1.0 65
1.6 65
1200 65
122 65
1648 65
1707 65
1805 65
2:@@ 65
97@@ 65
AT 65
Airbender 65
Bet@@ 65
Bo 65
Buckinghamshire 65
CA 65
Ca 65
Ch 65
Cities 65
Communications 65
Corsica 65
DVDs 65
Dig@@ 65
Divine 65
Dreams 65
Duncan 65
Edith 65
Eye 65
Famous 65
Feistel 65
Fire@@ 65
Forum 65
Gan@@ 65
Ghost 65
Glarus 65
Hon@@ 65
Introduction 65
Isles 65
Iz@@ 65
J.@@ 65
Jules 65
Just@@ 65
Kamakura 65
Kol@@ 65
Kun@@ 65
Literary 65
Lives 65
Marne 65
McClane 65
Mesopotamia 65
Methodist 65
Milwaukee 65
Mom@@ 65
Monica 65
Navarre 65
Nice 65
Noel 65
Nun@@ 65
Off@@ 65
Punk 65
Recent 65
Ret@@ 65
Savoy 65
Sep@@ 65
Sher@@ 65
Siege 65
Sig@@ 65
Sint-@@ 65
Stockport 65
Survey 65
Thousand 65
Truman 65
Vie@@ 65
Vir@@ 65
Website 65
Worcester 65
aca 65
agreements 65
aku 65
ald 65
amar@@ 65
amba 65
apples 65
asp@@ 65
atch@@ 65
authorized 65
aws 65
bag 65
baked 65
bandwidth 65
beaten 65
beds 65
bubbles 65
burg-@@ 65
carnivorous 65
cathedrals 65
cavalry 65
chip 65
chlor@@ 65
concentrate 65
depend 65
dialogue 65
earth@@ 65
employs 65
etto 65
fins 65
flu@@ 65
furniture 65
gh@@ 65
grey 65
hide 65
hospitals 65
hur@@ 65
iate 65
iconic 65
improving 65
inter-@@ 65
interviews 65
introducing 65
itic 65
kar 65
km@@ 65
lik@@ 65
lor@@ 65
lover 65
magical 65
measurements 65
mist@@ 65
monks 65
navigation 65
nerve 65
nominal 65
offshore 65
oids 65
oils 65
omy@@ 65
ped@@ 65
pin@@ 65
pine 65
portrayal 65
precisely 65
pulmonary 65
quest 65
red-@@ 65
reinforced 65
relates 65
remnant 65
repeatedly 65
retrieved 65
rob@@ 65
scope 65
sends 65
spherical 65
sul@@ 65
summary 65
swe@@ 65
tested 65
thirty-@@ 65
transform 65
trumpet 65
ug 65
urine 65
var 65
wards 65
yield 65
| 65
Ú 65
.3 64
1,500 64
1,5@@ 64
1782 64
199@@ 64
30-@@ 64
46@@ 64
9/O) 64
Alpha 64
Ana 64
Attack 64
Aurora 64
Beau@@ 64
C.@@ 64
Can 64
Cassini 64
Choice 64
Chun 64
Cit@@ 64
D'@@ 64
Dee 64
Dy@@ 64
Flames 64
Fund 64
Fédération 64
Glacier 64
Halo 64
Hindi 64
Kle@@ 64
Known 64
Kö@@ 64
Lad@@ 64
Ltd 64
Marsh 64
Massacre 64
Mesoamerican 64
Model 64
Mut@@ 64
Myanmar 64
NOTOC 64
Organisation 64
PA 64
Paterson 64
Piccadilly 64
Prison 64
Production 64
Provence 64
Reference 64
Roc@@ 64
Sah@@ 64
Seth 64
Shanghai 64
Shuttle 64
Sofia 64
Stefan 64
Stephenie 64
Stirling 64
Superior 64
Territories 64
Thr@@ 64
Touch 64
WB 64
Wellington 64
Winston 64
acceptance 64
accurately 64
affiliate 64
agn@@ 64
agrees 64
analogous 64
apes 64
bending 64
broader 64
coefficient 64
coll@@ 64
correspond 64
cross@@ 64
customary 64
customs 64
decimal 64
denomination 64
determining 64
disturbance 64
dramatically 64
dressed 64
duchy 64
employ 64
enable 64
ento 64
entries 64
ethanol 64
etus 64
evergreen 64
exhibit 64
explore 64
extr@@ 64
floods 64
free-@@ 64
frequencies 64
ful@@ 64
galaxy 64
gener@@ 64
guests 64
hereditary 64
humorous 64
imagery 64
imprisonment 64
induced 64
innovative 64
ire@@ 64
itas 64
jurisdictions 64
las 64
lem 64
lia 64
loses 64
merge 64
mood 64
non 64
northward 64
oath 64
observe 64
options 64
orum 64
ouse 64
palm 64
participating 64
plaintext 64
pling 64
pose 64
preservation 64
real-time 64
restore 64
reveal 64
sandy 64
separating 64
shores 64
sor@@ 64
specially 64
spell 64
spinal 64
spirits 64
sport@@ 64
stamp 64
state-@@ 64
ten-@@ 64
tens 64
terminology 64
throwing 64
township 64
trucks 64
usion 64
ux@@ 64
var@@ 64
vir@@ 64
warriors 64
water-@@ 64
whis@@ 64
wildlife 64
yu 64
ía 64
185 63
185@@ 63
AG 63
African-American 63
Albans 63
Alvin 63
Archive 63
Basic 63
Beg@@ 63
Bronze 63
Bundestag 63
CM 63
Cell 63
Cheshire 63
Claudio 63
Clube 63
Copa 63
Cosworth 63
Daveigh 63
Dum@@ 63
Eisenstein 63
Established 63
Estonian 63
Euro@@ 63
Fields 63
Fra@@ 63
Ful@@ 63
Fulham 63
Garfield 63
Gut@@ 63
Happy 63
Harding 63
Heinz 63
Hendrix 63
Hewitt 63
Honduras 63
ISA 63
Knut 63
Krist@@ 63
Lé@@ 63
MBE 63
MEPIS 63
McC@@ 63
Meowth 63
Mind@@ 63
NFC 63
Parish 63
Popular 63
Prop@@ 63
Put@@ 63
Rav@@ 63
Rib@@ 63
Satan 63
Sho@@ 63
Soci@@ 63
Spot 63
Stra@@ 63
Stre@@ 63
Tang@@ 63
Tet@@ 63
Theodor 63
Va@@ 63
Very 63
Viv@@ 63
Web@@ 63
Wik@@ 63
Wildlife 63
Willie 63
abundance 63
adopt 63
alt@@ 63
anga 63
anic 63
arians 63
aux-@@ 63
aye 63
aying 63
believing 63
berger 63
boom 63
boss 63
ceded 63
citrus 63
commerce 63
composing 63
conjunction 63
contribute 63
defining 63
densely 63
distribute 63
dog@@ 63
empty 63
eral 63
ev 63
feminine 63
fore 63
formations 63
fortune 63
funk 63
geologic 63
geyser 63
gra@@ 63
happy 63
hed@@ 63
housed 63
humor 63
iba 63
id-@@ 63
ills 63
incumbent 63
indoor 63
infections 63
install 63
integrity 63
interchange 63
ired 63
jumping 63
kidney 63
l-@@ 63
lasts 63
lav@@ 63
liberation 63
lifted 63
matrix 63
mechanisms 63
monetary 63
mult@@ 63
notion 63
omb@@ 63
ond 63
ons@@ 63
ophone 63
orous 63
oval 63
pel 63
pop@@ 63
pork 63
pornography 63
posthumously 63
preventing 63
pro-@@ 63
promise 63
pu@@ 63
quarks 63
rape 63
rivals 63
searching 63
ser 63
sex@@ 63
sided 63
sled 63
sociology 63
som@@ 63
specimen 63
successive 63
suffix 63
te-@@ 63
therapy 63
trad@@ 63
trapped 63
turn@@ 63
tut@@ 63
ultimate 63
ump 63
undertaken 63
uz@@ 63
valence 63
warrior 63
wishes 63
witness 63
(/O1997/O) 62
1772 62
1807 62
1811 62
4/O) 62
68@@ 62
AM@@ 62
Again 62
Associated 62
Augustine 62
Ax@@ 62
Background 62
Bear@@ 62
Beat@@ 62
Beeton 62
Canary 62
Cardiff 62
Catholicism 62
Charleston 62
Cons@@ 62
Conservation 62
Des 62
Description 62
División 62
Dorian 62
Ely 62
Eredivisie 62
Eurasian 62
Eva 62
GPL 62
Gaius 62
Gellar 62
Ghana 62
Go-@@ 62
Gy@@ 62
Had@@ 62
Hat@@ 62
Heath 62
Heavy 62
Hershey 62
Housing 62
Hubble 62
Jam 62
Johan 62
Juno 62
Kab@@ 62
Kellner 62
Loc@@ 62
Marshal 62
Maur@@ 62
Micro@@ 62
Mikoto 62
Minneapolis 62
Morrison 62
NY 62
Net@@ 62
Nigerian 62
Orion 62
Outer 62
Palau 62
Pirates 62
Profile 62
Protocol 62
Rainbow 62
Regent 62
RhÃ 62
Rising 62
Roads 62
Seymour 62
Sims 62
Spec@@ 62
Sullivan 62
Sz@@ 62
Tru@@ 62
Twilight 62
Vengeance 62
Vik@@ 62
WWII 62
Word 62
abdomen 62
accompanying 62
adi 62
adjective 62
aggressive 62
alg@@ 62
arguably 62
asse 62
attributes 62
backed 62
battery 62
blend 62
botanical 62
bran@@ 62
brings 62
cacao 62
colorless 62
commented 62
composite 62
concerto 62
conflicts 62
continuation 62
cu@@ 62
cycling 62
danger 62
decrease 62
deities 62
designing 62
disks 62
diving 62
dolphins 62
e.com 62
eded 62
eiro 62
enables 62
export 62
fate 62
favored 62
flavored 62
funnel 62
glacier 62
hymn 62
ike 62
ind 62
interesting 62
iodide 62
kick 62
lineage 62
liv@@ 62
lungs 62
manif@@ 62
manuscript 62
manuscripts 62
microscopic 62
mig@@ 62
mills 62
mud@@ 62
odor 62
olic 62
ologically 62
oud 62
oz 62
persuaded 62
poll@@ 62
preference 62
prizes 62
prominently 62
quar@@ 62
railways 62
red@@ 62
reproduce 62
resting 62
saffron 62
shoes 62
shoot 62
spans 62
stand@@ 62
strat@@ 62
strict 62
sts 62
tang@@ 62
tes@@ 62
texture 62
thir@@ 62
transported 62
ull 62
um-@@ 62
uncommon 62
vis@@ 62
visits 62
warnings 62
weakening 62
winters 62
(/O1998/O) 61
103 61
400,000 61
5/O) 61
Abbott 61
Ajax 61
Augsburg 61
Batt@@ 61
Beautiful 61
Brah@@ 61
Brooks 61
Built 61
Buxton 61
Chang 61
Coldplay 61
Countries 61
Crete 61
Cycl@@ 61
EM@@ 61
Everett 61
Exp@@ 61
FIDE 61
File 61
Flair 61
Gas 61
Hann@@ 61
Highland 61
Igor 61
Islamabad 61
Jinnah 61
Jud@@ 61
Karnataka 61
Kel@@ 61
Kiev 61
Killer 61
Klaus 61
Langston 61
Languages 61
Leone 61
Lod@@ 61
Low 61
MT@@ 61
Maltese 61
Mask 61
Mecca 61
Mid@@ 61
Mort@@ 61
Murphy 61
Murree 61
Nirvana 61
Oracle 61
Pers@@ 61
Pioneer 61
Planck 61
Polo 61
Prayer 61
Rage 61
Reef 61
Riding 61
Rochester 61
Rus@@ 61
Saddam 61
Saffir-Simpson 61
Salem 61
Saskatchewan 61
Scot@@ 61
Siegfried 61
Stevenson 61
Sunshine 61
TE@@ 61
Telescope 61
Trains 61
Trent 61
Vari@@ 61
Wave 61
Working 61
acre 61
af 61
algebra 61
alpine 61
alter 61
ame@@ 61
ancestral 61
auto 61
awareness 61
barium 61
breakthrough 61
conventions 61
count@@ 61
crop 61
dimension 61
dissolution 61
dly 61
dropping 61
dual 61
duke 61
e-like 61
eagle 61
eighteen 61
ennes 61
erupted 61
fa 61
fault 61
fib@@ 61
floors 61
footage 61
foremost 61
freely 61
fungi 61
gall@@ 61
governance 61
halfway 61
hanged 61
harmonic 61
hectares 61
ige 61
il-@@ 61
illon 61
impressive 61
ionary 61
kÃ 61
licence 61
luxury 61
machinery 61
medalist 61
mentor 61
mother@@ 61
nutrients 61
ograph 61
ologies 61
oping 61
ounding 61
owed 61
ower 61
phones 61
pounds 61
pred@@ 61
qualify 61
raid 61
ratified 61
real@@ 61
recalled 61
rely 61
republics 61
rounded 61
ruins 61
satirical 61
seeks 61
sentences 61
sequ@@ 61
serv@@ 61
sink 61
six@@ 61
sixteenth 61
soils 61
soprano 61
spectators 61
spices 61
sseldorf 61
stic 61
tal 61
talks 61
three-time 61
traced 61
underneath 61
uranium 61
urb@@ 61
van@@ 61
ving 61
watched 61
y-sur-@@ 61
à@@ 61
(/O2000/O) 60
11-@@ 60
111 60
135 60
1730 60
1779 60
1808 60
48@@ 60
AA 60
Abdul 60
Anal@@ 60
Angelico 60
Angels 60
Approximately 60
Aston 60
BS 60
Bang 60
Bengali 60
Bes@@ 60
Bradshaw 60
Break@@ 60
Byrne 60
Clare 60
Darling 60
Eleanor 60
Fielding 60
Fifth 60
GM 60
Gandhi 60
Gay 60
Gener@@ 60
Gimnasia 60
Giro 60
Goethe 60
Grandmaster 60
Hannover 60
Hart@@ 60
Hastings 60
High@@ 60
Hurricanes 60
IAUC 60
IC 60
Jes@@ 60
Jo 60
Journey 60
Klein 60
Komodo 60
Kos@@ 60
Kyneton 60
Mont 60
N.@@ 60
Nab@@ 60
Napoleonic 60
Offenbach 60
Op 60
Philippine 60
Plot 60
Pom@@ 60
PrÃ 60
Ruby 60
ST 60
Tudor 60
Tunisia 60
Unit 60
Vin@@ 60
Voice 60
Worlds 60
aar 60
acle 60
acquisition 60
advances 60
aided 60
antagonist 60
archaeologist 60
asses 60
autism 60
bb@@ 60
bigger 60
bin@@ 60
body@@ 60
bubble 60
bunker 60
captures 60
certainly 60
cin@@ 60
considers 60
consolidated 60
conspiracy 60
custom@@ 60
cuts 60
dan@@ 60
dancers 60
diabetes 60
difficulties 60
disciplines 60
dramatist 60
dynamics 60
eg 60
elect 60
ematic 60
emperors 60
encing 60
encompassing 60
ern-@@ 60
fingers 60
flesh 60
full-time 60
gar 60
gathered 60
genome 60
geology 60
glaciers 60
hara 60
ht 60
ient 60
iker 60
impl@@ 60
inos 60
intact 60
ioned 60
istically 60
lamps 60
lan 60
lips 60
mach@@ 60
makers 60
mania 60
maritime 60
mas@@ 60
matic 60
midnight 60
mild 60
ny@@ 60
oct@@ 60
optional 60
orn 60
outermost 60
parameter 60
ph 60
phrases 60
pret@@ 60
priests 60
propaganda 60
proprietary 60
protr@@ 60
rav@@ 60
rectangular 60
registration 60
resumed 60
richest 60
seven-@@ 60
shoots 60
slot 60
smoke 60
spines 60
staple 60
submitted 60
succeeding 60
sur-Mer 60
survivors 60
synonym 60
taxonomy 60
teau 60
tha 60
thread 60
trend 60
uan 60
uck@@ 60
unlikely 60
uous 60
uss 60
voters 60
vulnerable 60
weigh 60
wid@@ 60
wolf 60
woods 60
worthy 60
y-le-@@ 60
ycl@@ 60
1.7 59
22nd 59
60,000 59
Ananke 59
Angel@@ 59
Annual 59
B.@@ 59
BMI 59
Baghdad 59
Bambi 59
Baz@@ 59
Bla@@ 59
Call 59
Cand@@ 59
Carlisle 59
Carson 59
Chel@@ 59
Companion 59
Copper 59
Creation 59
Curtis 59
Def 59
Eight 59
Face 59
Fife 59
FranÃ 59
Genus 59
Haynes 59
Hes@@ 59
Hill@@ 59
Hilton 59
IA 59
IPCC 59
Iberian 59
Ibn 59
Interactive 59
Judge 59
Kra@@ 59
Lama 59
Letters 59
Lis@@ 59
Lonely 59
Lud@@ 59
Mad 59
Mast@@ 59
Nik@@ 59
Novel 59
Om@@ 59
Osbourne 59
Pakhtunkhwa 59
Pauline 59
Peruvian 59
Po 59
Politics 59
Presidents 59
Qatar 59
Ranger 59
Reich@@ 59
S\/@@ 59
Sac@@ 59
Sergei 59
Shock 59
Sid@@ 59
Silent 59
Sol 59
Sovereign 59
Speedway 59
Tasman 59
Tigers 59
Track 59
Turin 59
Vikings 59
Visual 59
Viva 59
Vog@@ 59
X-Men 59
Zh@@ 59
accommodate 59
ambassador 59
artwork 59
assume 59
astr@@ 59
atives 59
berg@@ 59
bers 59
beside 59
betting 59
boro 59
box@@ 59
cab@@ 59
casual 59
coaches 59
contemporaries 59
coordinates 59
corruption 59
cow 59
cut@@ 59
declaration 59
depths 59
dol@@ 59
eh 59
ely-@@ 59
emerging 59
eukaryotic 59
eve 59
ew 59
exiled 59
explosive 59
feudal 59
fir@@ 59
flee 59
forecast 59
grades 59
ict 59
incorrectly 59
interact 59
kangaroo 59
kov 59
len@@ 59
lip 59
lis 59
litre 59
messaging 59
nationally 59
neighbor 59
nen 59
ng@@ 59
obsolete 59
omet@@ 59
optim@@ 59
overthrow 59
pra@@ 59
pref@@ 59
preparing 59
promised 59
puzzle 59
rebels 59
recognizable 59
renewed 59
rolled 59
seaport 59
sedimentary 59
seemed 59
servants 59
strengthening 59
suffer 59
suited 59
tot@@ 59
ulates 59
vin 59
vy 59
&@@ 58
1,6@@ 58
23rd 58
41st 58
69@@ 58
7/O) 58
80,000 58
Angola 58
Ark 58
Ath@@ 58
BAFTA 58
Babylon 58
Bart@@ 58
Basil@@ 58
Beyond 58
Bundes@@ 58
Burg@@ 58
Cambodia 58
Carol 58
Caspian 58
Christina 58
Constance 58
Constitutional 58
Contemporary 58
Cri@@ 58
Daytona 58
Ducks 58
Economics 58
Elisabeth 58
Fat@@ 58
Flying 58
Galileo 58
Gray@@ 58
Gri@@ 58
Grover 58
HL 58
Hertfordshire 58
Hotspur 58
IM 58
Kirk 58
Les@@ 58
Linkin 58
Livorno 58
Lun@@ 58
Mansfield 58
Marquess 58
Mercedes 58
Miramax 58
Monarchy 58
Oper@@ 58
Opus 58
Pant@@ 58
Proc@@ 58
Register 58
Roy@@ 58
Rud@@ 58
Saint-Denis 58
Schalke 58
Seville 58
Sgt. 58
Sisters 58
Spectrum 58
Tir@@ 58
Titans 58
Toscanini 58
User 58
Van@@ 58
Wake 58
Warwick 58
XV 58
Yamato 58
Younger 58
admir@@ 58
ailed 58
amp 58
assets 58
aurus 58
avian 58
batter 58
bi 58
branded 58
brush 58
bush@@ 58
chef 58
chlorine 58
coached 58
commemorated 58
commuter 58
complications 58
deletion 58
deliver 58
deposed 58
differentiated 58
discovering 58
discussions 58
dolls 58
drainage 58
eding 58
eous 58
equality 58
erated 58
eted 58
etically 58
etz@@ 58
eum 58
eur 58
evi 58
far@@ 58
farther 58
fast@@ 58
flooded 58
flora 58
flourished 58
full-@@ 58
gifts 58
har 58
hee 58
iac 58
ianus 58
icity 58
imaging 58
institute 58
iques 58
izer 58
jud@@ 58
laying 58
lic@@ 58
liner 58
liturgical 58
longtime 58
magn@@ 58
maiden 58
manages 58
navigable 58
nurse 58
ogs 58
oll 58
oned 58
ongoing 58
ounds 58
phen@@ 58
pipes 58
posed 58
prohib@@ 58
psychologist 58
removing 58
rendering 58
reporter 58
reside 58
retro@@ 58
runner 58
sberg 58
scre@@ 58
seminal 58
shots 58
shut 58
side-@@ 58
skilled 58
solids 58
solve 58
squid 58
subjected 58
susp@@ 58
threads 58
traces 58
triggered 58
truck 58
ued 58
umi 58
uro@@ 58
urr@@ 58
worm 58
zoologist 58
(/O1996/O) 57
,7@@ 57
.S. 57
0N 57
117 57
145 57
1775 57
1778 57
A.D. 57
Aberdeenshire 57
Adult 57
Allmusic 57
Am 57
Balukas 57
Band@@ 57
Basel 57
Betty 57
Biology 57
Blizzard 57
Breton 57
Burkina 57
CD@@ 57
Chang@@ 57
Charizard 57
Cin@@ 57
Clown 57
Commiss@@ 57
Crash 57
Database 57
Double 57
Everything 57
Exeter 57
Expedition 57
FL@@ 57
Female 57
Fletcher 57
Forever 57
Formed 57
Freud 57
Gerard 57
German-@@ 57
Holly 57
Jubilee 57
Kangaroo 57
Kent@@ 57
Kre@@ 57
Lak@@ 57
Laur@@ 57
Lil@@ 57
Lip@@ 57
Mystery 57
NT@@ 57
O'Brien 57
Orig@@ 57
Outstanding 57
P.@@ 57
Palestinian 57
Perm 57
Pier@@ 57
Poles 57
Pretoria 57
Qin 57
Reichs@@ 57
Santander 57
Sicilian 57
Silver@@ 57
Song@@ 57
Sprint 57
Sutton 57
Tate 57
Tel 57
Valera 57
Vend@@ 57
Ville 57
Walk 57
Wear 57
Westphalia 57
Why 57
Wolf@@ 57
Worth 57
abi 57
advocate 57
affecting 57
airports 57
aldo 57
analogy 57
antly 57
architects 57
artifacts 57
aunt 57
beetles 57
belly 57
bill@@ 57
ble@@ 57
break@@ 57
burger 57
cant@@ 57
carriage 57
chancellor 57
chemically 57
chron@@ 57
climb 57
closes 57
colleagues 57
combinations 57
comet 57
cond@@ 57
creature 57
cub@@ 57
cyclist 57
defunct 57
district-free 57
dit 57
diver@@ 57
dozens 57
e\/@@ 57
eas@@ 57
edes 57
edy 57
encies 57
entertainer 57
ethn@@ 57
etics 57
eux 57
exit 57
exits 57
fights 57
fin 57
gum 57
igo 57
interpretations 57
intersection 57
itism 57
iv 57
ived 57
ka@@ 57
kil@@ 57
knee 57
lers 57
locked 57
mem@@ 57
miss@@ 57
modification 57
multiplayer 57
notorious 57
num@@ 57
ondo 57
ool@@ 57
ours 57
peaceful 57
peanut 57
person@@ 57
pets 57
pioneered 57
planes 57
ples 57
politicians 57
precious 57
presently 57
promotions 57
proposals 57
protects 57
prov@@ 57
que@@ 57
refuses 57
relegated 57
revolves 57
rif@@ 57
rolls 57
sac 57
sailing 57
shade 57
sis 57
skepticism 57
sleeping 57
sted 57
surge 57
symbolic 57
synthesized 57
tanks 57
teamed 57
tel 57
tem@@ 57
third-@@ 57
thyroid 57
tol@@ 57
trac@@ 57
treason 57
twist 57
urban@@ 57
utility 57
vent 57
vi 57
(/O193@@ 56
-le-@@ 56
.C. 56
106 56
1536 56
1685 56
1793 56
33@@ 56
ATP 56
Aff@@ 56
Ahmad 56
André 56
Apart 56
Applied 56
Aramaic 56
Aristotle 56
Arturo 56
Ballet 56
Bass@@ 56
Beck 56
Belt 56
Bradford 56
Brahms 56
Braun 56
Campus 56
Chil@@ 56
Clayton 56
Distribution 56
Dodge 56
Dolphin 56
Downtown 56
Dwight 56
ER 56
Earthsea 56
Edwin 56
Etymology 56
Euclidean 56
Fighter 56
Fran 56
GB 56
Globetrotters 56
Grav@@ 56
HEADING 56
Hague 56
Hem@@ 56
Jasper 56
Jeffrey 56
Jonas 56
Jungle 56
Kit@@ 56
Ko 56
Lac@@ 56
Lars 56
Law@@ 56
Lea 56
Leigh 56
Logan 56
Lut@@ 56
Macintosh 56
March@@ 56
Marino 56
McK@@ 56
Mormon 56
Oil 56
Olympia 56
Ost@@ 56
PBS 56
Parliamentary 56
Pizza 56
Premiership 56
RIAA 56
Rat 56
Reichstag 56
Reverend 56
Roll@@ 56
S/@@ 56
SF 56
SM@@ 56
Saint-Martin-@@ 56
Sally 56
Samus 56
Sec@@ 56
Selena 56
Senators 56
Shinto 56
Shropshire 56
Simone 56
Spurgeon 56
Stage 56
Starr 56
Superman 56
Thief 56
Tikal 56
Turk@@ 56
V-@@ 56
Vasari 56
Well@@ 56
Writers 56
XC@@ 56
absent 56
advent 56
agne 56
alcoholic 56
alien 56
allegedly 56
alto 56
aluminium 56
anese 56
anthropology 56
any@@ 56
applying 56
approaching 56
ardo 56
backup 56
blow 56
captivity 56
cartoons 56
clinical 56
co-written 56
conceptual 56
culminating 56
debris 56
deeply 56
determines 56
devastating 56
digit 56
dissolve 56
enta 56
eri 56
ership 56
esp@@ 56
fails 56
gi@@ 56
gothic 56
gren 56
hair@@ 56
harmon@@ 56
hash 56
helium 56
herbaceous 56
herbs 56
hierarchy 56
highlands 56
hob@@ 56
humid 56
ials 56
icles 56
idd@@ 56
igan 56
immigrant 56
improvement 56
inghem 56
invertebrates 56
iop@@ 56
irrigation 56
isch 56
itable 56
iz 56
kan@@ 56
keeper 56
kreis 56
laps 56
law@@ 56
left-@@ 56
lif@@ 56
lithium 56
live-action 56
lov@@ 56
lyricist 56
matched 56
mic 56
microscope 56
missed 56
motor@@ 56
nave 56
ners 56
nocturnal 56
north-eastern 56
nur@@ 56
oba 56
oj@@ 56
oko 56
onym 56
orn@@ 56
perpendicular 56
pirate 56
pointing 56
predominant 56
primes 56
prisoner 56
procedures 56
programmer 56
prosperous 56
publicity 56
publishers 56
rebel 56
reproductive 56
resemblance 56
respond 56
responded 56
rey 56
rides 56
royalty 56
saturated 56
sav@@ 56
sectors 56
signatures 56
sticks 56
stown 56
suggestion 56
supposedly 56
teenager 56
tends 56
traders 56
trail 56
unclear 56
unofficially 56
upper-level 56
vampire 56
washed 56
withdraw 56
wrestled 56
ß@@ 56
ün@@ 56
(/O1994/O) 55
,2@@ 55
0.2 55
0/O) 55
184@@ 55
AL 55
Aguilera 55
Arn@@ 55
Auckland 55
Audio 55
Back@@ 55
Bali 55
Bam@@ 55
Barbirolli 55
Barrier 55
Belinda 55
Berkshire 55
Ble@@ 55
Bonham 55
Bouches-du-Rhône 55
Bé@@ 55
CP@@ 55
Candice 55
Carl@@ 55
Cath@@ 55
Chan 55
Chinnamalai 55
Chitral 55
Coach 55
Coptic 55
Crow@@ 55
Diamonds 55
Dodgers 55
Domenico 55
Donna 55
Down@@ 55
Eagles 55
Ext@@ 55
FBI 55
Faithful 55
Faso 55
Ferguson 55
Give 55
Hassan 55
Hole 55
Jack@@ 55
Johns 55
Koh@@ 55
Kot@@ 55
Lead 55
Locus 55
Lug@@ 55
MI@@ 55
Marge 55
Mem@@ 55
Monument 55
Mou@@ 55
Now@@ 55
Pand@@ 55
Penguins 55
Perfect 55
Presbyterian 55
Ric@@ 55
Rule 55
SE 55
Scar@@ 55
Sex 55
Sh 55
Simple 55
Sing@@ 55
Source 55
Sugar 55
Training 55
Turn@@ 55
Tyson 55
Want 55
Warrior 55
Wessex 55
Whe@@ 55
Window 55
Xavier 55
Yunus 55
Zaragoza 55
Zeta 55
ZÃ 55
affair 55
aines 55
anal@@ 55
anonymous 55
arsenic 55
astic 55
attractive 55
audi@@ 55
bacterium 55
boo@@ 55
bushranger 55
cardinal 55
climates 55
collector 55
consequently 55
convict 55
creators 55
crest 55
dam@@ 55
date-format 55
deadliest 55
demise 55
disabled 55
dolphin 55
dys@@ 55
eing 55
enia 55
eper 55
equals 55
experts 55
fabric 55
fan@@ 55
fatal 55
freed 55
frontier 55
frozen 55
gains 55
garment 55
gates 55
geneticist 55
graduation 55
handball 55
handled 55
happen 55
hyp@@ 55
imo 55
improvements 55
inclusion 55
ingo 55
isch@@ 55
itt 55
jury 55
limbs 55
meg@@ 55
mond 55
monk 55
mountain@@ 55
mov@@ 55
multinational 55
noise 55
ometer 55
ooks 55
operatic 55
opol@@ 55
optics 55
orchestras 55
parallelism 55
passion 55
poison 55
postage 55
potato 55
princes 55
prohibited 55
promotional 55
publish 55
rainbow 55
rankings 55
realizes 55
rich@@ 55
rifle 55
riot 55
scar 55
selenium 55
sent@@ 55
shark 55
shelf 55
shortest 55
simplified 55
socks 55
soluble 55
spells 55
stealing 55
stock@@ 55
storing 55
survives 55
syndicated 55
teens 55
tendency 55
toll 55
translate 55
treaties 55
tunnels 55
uba 55
ulations 55
underwater 55
uro 55
vill@@ 55
with@@ 55
Ö@@ 55
.6 54
1777 54
1796 54
25,000 54
32@@ 54
AI@@ 54
AP 54
Alban 54
And@@ 54
Ariel 54
Asc@@ 54
Assistant 54
Asturias 54
Azores 54
BR 54
Bac@@ 54
Barn@@ 54
Bash 54
Belize 54
Bronx 54
Brow@@ 54
Canberra 54
Champ@@ 54
Chance 54
Chev@@ 54
Chron@@ 54
Chronicle 54
Cox 54
Crisis 54
Democracy 54
Depending 54
Dj@@ 54
Dylan 54
Dáil 54
E-@@ 54
Ech@@ 54
Eros 54
Exhibition 54
Fen@@ 54
Formation 54
Frances 54
Gab@@ 54
German@@ 54
Gloucestershire 54
Graf 54
Hawk 54
Hornsby 54
IB@@ 54
Iberia 54
Jim@@ 54
KBE 54
Lü@@ 54
Mack@@ 54
Mim@@ 54
Motion 54
NWA 54
Nas@@ 54
Need 54
Noah 54
Nonstop 54
Overall 54
Phot@@ 54
RA 54
Rich 54
Richards 54
Rupert 54
SDS 54
Save 54
Scandinavia 54
Seasons 54
Shak@@ 54
Sodium 54
Sons 54
Southeastern 54
Spielberg 54
Sporting 54
Stan 54
Status 54
Stones 54
TNA 54
Tehran 54
Tsu@@ 54
Venetian 54
WW@@ 54
Wu 54
XX 54
Yerevan 54
ZIP 54
Zurich 54
advisory 54
afterward 54
anch@@ 54
arithmetic 54
attitude 54
aut 54
banking 54
bass@@ 54
besides 54
bled 54
bluegrass 54
botanist 54
burnt 54
by-@@ 54
bÃ 54
careers 54
categor@@ 54
chin@@ 54
chner 54
ciphertext 54
clergy 54
clos@@ 54
container 54
contributors 54
convened 54
crabs 54
culinary 54
d' 54
dairy 54
detection 54
develops 54
dom@@ 54
eastward 54
eccentric 54
edly 54
els@@ 54
enton 54
erosion 54
establishes 54
exterior 54
failing 54
fauna 54
feat 54
fertility 54
fif@@ 54
filter 54
findings 54
first-person 54
flew 54
follow-up 54
forever 54
gradient 54
granddaughter 54
graves 54
grinding 54
grossing 54
harmony 54
honour 54
hymns 54
ia@@ 54
icking 54
icons 54
identifying 54
ili 54
inating 54
inflation 54
inhib@@ 54
instances 54
isotopes 54
kar@@ 54
kes 54
lier 54
lock@@ 54
mall 54
melody 54
motorcycle 54
music@@ 54
n. 54
nineteen 54
observer 54
oga 54
operators 54
otype 54
outskirts 54
ovi 54
ow-@@ 54
personally 54
possessed 54
quotation 54
rab@@ 54
reformed 54
requirement 54
san@@ 54
sapiens 54
seating 54
sect 54
sep@@ 54
shuttle 54
sometime 54
spider 54
stance 54
step@@ 54
stit@@ 54
strikes 54
substitute 54
symphonies 54
syrup 54
tag@@ 54
thermodynamic 54
tramway 54
triangular 54
tuberculosis 54
uni 54
unity 54
veterans 54
viewer 54
villain 54
viol@@ 54
wer@@ 54
whereby 54
wholly 54
én@@ 54
(/O1988/O) 53
1,8@@ 53
121 53
144 53
18-@@ 53
1880s 53
1890s 53
2,5@@ 53
:30 53
AU 53
Albion 53
Alicia 53
Animals 53
Apostolic 53
Architecture 53
Ayers 53
Baden-Württemberg 53
Balkan 53
Barenboim 53
Berber 53
Berwickshire 53
Booker 53
Bowser 53
Butler 53
By@@ 53
Camden 53
Campo 53
Celsius 53
Champagne 53
Chiapas 53
Conn@@ 53
Cubism 53
DA@@ 53
Demographics 53
Di 53
Diana 53
Document 53
Dreamcast 53
End@@ 53
Erie 53
FC@@ 53
FI@@ 53
Females 53
Fleetwood 53
Fres@@ 53
Gloucester 53
GrÃ 53
Guam 53
HBO 53
Hartford 53
Hedgehog 53
Hermione 53
Hoh@@ 53
Honor 53
Horde 53
Hur@@ 53
IR@@ 53
Ja@@ 53
Kensington 53
Kobe 53
Lazio 53
Lingu@@ 53
Lou 53
ME@@ 53
MPs 53
McCarthy 53
Monster 53
NOAA 53
Nara 53
Natur@@ 53
Neighboring 53
Paraná 53
Principality 53
Published 53
Punch 53
Python 53
RPG 53
Rac@@ 53
Rattle 53
Rosso 53
Rouge 53
Royals 53
Sapporo 53
Satellite 53
Seal 53
Secretary-General 53
Seg@@ 53
Seminole 53
Stamford 53
Sup@@ 53
Tang 53
Threat 53
Tou@@ 53
UC@@ 53
Universit@@ 53
Urawa 53
Vega 53
Vernon 53
View 53
Vlad 53
Von 53
Wak@@ 53
Wanderers 53
Watch 53
Worcestershire 53
Zeppelin 53
aces 53
advised 53
aerial 53
alities 53
ambiguous 53
amo 53
anes 53
argues 53
ario 53
aware 53
bet@@ 53
blog 53
characterised 53
chem@@ 53
cluster 53
coloured 53
comfortable 53
commun@@ 53
comparing 53
compression 53
condemned 53
confidence 53
consequences 53
contracts 53
controllers 53
coupled 53
cultivation 53
damages 53
decreased 53
della 53
dic@@ 53
diminutive 53
dinner 53
doctorate 53
e.@@ 53
eder 53
eighteenth 53
emat@@ 53
employee 53
enabling 53
encourage 53
enzyme 53
er\/@@ 53
eson 53
garnered 53
glucose 53
great-@@ 53
gues 53
gy 53
harvested 53
iff 53
inclinations 53
isms 53
it-@@ 53
kas 53
kel@@ 53
lecturer 53
legends 53
locate 53
locks 53
logarithmic 53
man-made 53
mates 53
merchandise 53
mort@@ 53
neutrons 53
nickel 53
norm 53
number-one 53
oot 53
ord 53
paired 53
paths 53
peripheral 53
placement 53
ple@@ 53
poll 53
precipit@@ 53
prevalent 53
prim@@ 53
prom@@ 53
prompted 53
pursued 53
qin 53
qualities 53
rabbit 53
reasoning 53
resolved 53
revision 53
rookie 53
sailors 53
seized 53
senses 53
shogunate 53
soy 53
specializing 53
spite 53
stimuli 53
streams 53
stretched 53
stylized 53
successes 53
summ@@ 53
superfamily 53
symmetry 53
synonymous 53
tab@@ 53
tactics 53
tax@@ 53
tight 53
trailer 53
tul@@ 53
tun@@ 53
tuna 53
turtle 53
two-time 53
ul-@@ 53
unt 53
urred 53
vagina 53
vertebrate 53
warming 53
welfare 53
wer 53
wise 53
y-en-@@ 53
yc@@ 53
Éireann 53
* 52
1,9@@ 52
109 52
115@@ 52
118@@ 52
15,000 52
1764 52
1860s 52
2/O) 52
25th 52
AB@@ 52
Adriatic 52
Aegean 52
Amar@@ 52
Anatolia 52
Armor 52
Attitude 52
Benson 52
Boulogne 52
Camille 52
Carmen 52
Carnival 52
Cha@@ 52
Chan@@ 52
Chapelle-@@ 52
Chopin 52
Clement 52
Comman@@ 52
Complete 52
Corinth 52
Cowra 52
Crime 52
Dietrich 52
Dirty 52
Dow@@ 52
Dra@@ 52
Enlightenment 52
Environmental 52
Gang@@ 52
Genomics 52
Giza 52
HE@@ 52
Haf@@ 52
Hat 52
Helmut 52
Highlands 52
Hispaniola 52
Hop@@ 52
Howe 52
IE@@ 52
Ingrid 52
Jake 52
Kanagawa 52
Kolding 52
Lands 52
Laos 52
Lenzburg 52
Luna 52
M-@@ 52
MO@@ 52
Mann 52
Marcel 52
Mi 52
Miss@@ 52
Monkey 52
Monmouth 52
Named 52
Nikolai 52
Non@@ 52
Northeastern 52
Notre-Dame 52
OK 52
Parkes 52
Parks 52
Patricia 52
Picasso 52
Provinces 52
Rabbit 52
Riverside 52
Ross@@ 52
Shepherd 52
Shia 52
Sox 52
Student 52
Sutherland 52
Telegraph 52
Tong 52
Types 52
VHS 52
Viscount 52
Willis 52
ace@@ 52
adjoining 52
ady 52
aeus 52
altogether 52
am-@@ 52
ampl@@ 52
angry 52
ape 52
applies 52
ardi 52
aru 52
aspir@@ 52
asts 52
bac@@ 52
beloved 52
billiards 52
camp@@ 52
capitals 52
cens@@ 52
cha@@ 52
clarinet 52
clause 52
clip 52
coding 52
colours 52
commemorate 52
competitor 52
conserv@@ 52
contracted 52
coral 52
delay 52
discharge 52
duck 52
economically 52
ective 52
ego 52
ej@@ 52
eley 52
eliminating 52
eva 52
evacuation 52
expressing 52
firmly 52
flavors 52
fs 52
fuels 52
grouping 52
heart@@ 52
hop@@ 52
horns 52
icle 52
interc@@ 52
ionism 52
jurist 52
ket@@ 52
lane 52
large-scale 52
lemon 52
liquids 52
loans 52
locality 52
m/O. 52
magma 52
merchants 52
mos@@ 52
mythical 52
networking 52
nom@@ 52
oles 52
onn@@ 52
opsis 52
pioneers 52
pitched 52
pled 52
poles 52
propag@@ 52
protons 52
raced 52
readings 52
reduc@@ 52
requested 52
rer 52
rid 52
romance 52
rup@@ 52
sac@@ 52
sburg 52
schism 52
sed@@ 52
semiconductor 52
similarity 52
simplicity 52
smallpox 52
tap@@ 52
technological 52
tectonic 52
tentacles 52
terrorist 52
tes 52
textile 52
th-largest 52
underside 52
unveiled 52
urg@@ 52
ver 52
watershed 52
wells 52
wit@@ 52
-and-@@ 51
-et-@@ 51
119@@ 51
1763 51
34@@ 51
4.0 51
Abbado 51
Ald@@ 51
Amanda 51
Analysis 51
Angela 51
Australasia 51
Bayreuth 51
Beta 51
Blessed 51
Bolivia 51
Boxing 51
Brigade 51
Burns 51
Bush@@ 51
Canon 51
Castro 51
Ces@@ 51
Chapman 51
Charing 51
Clive 51
Created 51
Creative 51
Dag@@ 51
Danielle 51
Dumas 51
Edo 51
Eisenhower 51
Encyclopaedia 51
Frank@@ 51
Gaul 51
Gel@@ 51
Glory 51
Got 51
Gottfried 51
HMS 51
Heroes 51
Himalayan 51
IN 51
IRA 51
Institut 51
Ital@@ 51
LO@@ 51
Level 51
Lucius 51
Mansehra 51
Mardan 51
Marx 51
Mello 51
Mozambique 51
NME 51
NY@@ 51
Nam@@ 51
Nicaea 51
Northamptonshire 51
Oh@@ 51
Ono 51
Palestine 51
Peach 51
Phantom 51
Places 51
Plato 51
Prem@@ 51
Punjabi 51
RFC 51
Rang@@ 51
Raz@@ 51
Reform 51
Relations 51
Resident 51
Rod 51
Rutherford 51
Saarland 51
Saitama 51
Say 51
Sidney 51
Socrates 51
Steelers 51
Stories 51
Syracuse 51
Syrian 51
TV@@ 51
Tonight 51
Tort@@ 51
Toulouse 51
Toy@@ 51
Transylvania 51
Val 51
Vera 51
Vezina 51
Wald@@ 51
Wiley 51
Wilma 51
XVIII 51
Zug 51
absinthe 51
accounting 51
acet@@ 51
acles 51
activists 51
ador 51
aesthetic 51
afford 51
anchors 51
ancing 51
ank 51
ara@@ 51
ard-@@ 51
ayer 51
aâ 51
balloon 51
beginnings 51
birth@@ 51
blu@@ 51
builder 51
bun@@ 51
capturing 51
chil@@ 51
clients 51
co-wrote 51
contender 51
conversation 51
cooperation 51
correctly 51
daylight 51
discarded 51
disco 51
dé@@ 51
edia 51
editorial 51
educator 51
encompassed 51
eph@@ 51
ept 51
err@@ 51
ety 51
evangelical 51
explicit 51
extracted 51
fail 51
feared 51
filed 51
filmmaker 51
galaxies 51
gig@@ 51
granite 51
hear 51
hl 51
hook 51
ianism 51
icular 51
icum 51
idity 51
industri@@ 51
infant 51
inflammation 51
inn 51
instructor 51
integers 51
integration 51
iss 51
jam 51
jÃ 51
late-@@ 51
ller 51
mating 51
metro 51
mir@@ 51
modern@@ 51
modifications 51
moist 51
nas@@ 51
nobleman 51
nos@@ 51
nucle@@ 51
oidea 51
oons 51
opinions 51
opter@@ 51
originate 51
oscill@@ 51
oves 51
participant 51
patents 51
peer 51
petrol 51
predatory 51
py@@ 51
ranged 51
ras@@ 51
rational 51
realms 51
regulation 51
rein@@ 51
resembling 51
resurrection 51
retaining 51
reunited 51
rio 51
sacrifice 51
sley 51
specify 51
spectral 51
sponsors 51
spouse 51
strand 51
strengthen 51
stronghold 51
structured 51
summers 51
sustainable 51
tered 51
thal@@ 51
toilet 51
transm@@ 51
uncertainty 51
ural 51
virtuoso 51
withdrawal 51
zen 51
zon 51
/ORGANIZATION. 50
0.5 50
1,7@@ 50
10-day 50
117@@ 50
123 50
147 50
151 50
1547 50
29.@@ 50
Aber@@ 50
Alber@@ 50
Ard@@ 50
Ares 50
BR@@ 50
Bernardo 50
Bernstein 50
Boleyn 50
Bourbon 50
Bru@@ 50
Burgess 50
Burmese 50
Chesapeake 50
Choir 50
Clan 50
Clegg 50
Co-operative 50
Comet 50
Conc@@ 50
Corner 50
Covent 50
Curie 50
Córdoba 50
DV@@ 50
Dalmatians 50
Derek 50
Dod@@ 50
Dup@@ 50
ES 50
Enix 50
Everest 50
Financial 50
Flame 50
GP2 50
Galicia 50
Gazette 50
Genoa 50
Giorgio 50
Gom@@ 50
Gou@@ 50
H-@@ 50
Hag@@ 50
Hammond 50
Have 50
Hayez 50
Hiro@@ 50
Hitchcock 50
Horst 50
Hortons 50
Hour 50
Isolde 50
Jum@@ 50
Junction 50
KC@@ 50
Katherine 50
Kingdoms 50
Kunaich 50
Kurdish 50
KÅ 50
Ladakh 50
Ladies 50
Laureate 50
Laws 50
Led 50
Liddell 50
Linnaeus 50
Macedonian 50
Mae 50
Maker 50
Males 50
Mamm@@ 50
Mari@@ 50
Messenger 50
Ministers 50
NK 50
Neo-@@ 50
Nord 50
Off 50
Opel 50
Pick@@ 50
Protestants 50
Radi@@ 50
Regis 50
Rick@@ 50
Ride 50
Rocket 50
Rural 50
Saint-Antoine 50
Schwerin 50
Scrooge 50
Sed@@ 50
Shang 50
Six@@ 50
Sob@@ 50
Socratic 50
Soldier 50
Sophie 50
Soul@@ 50
Stoke 50
Sturt 50
TS 50
Talk 50
Tib@@ 50
Tourism 50
Uruguayan 50
Veneto 50
Virtual 50
Warriors 50
Was@@ 50
Way@@ 50
Welcome 50
Wisdom 50
Woody 50
Zimbabwe 50
additions 50
advantages 50
al\/@@ 50
ald@@ 50
aling 50
allegories 50
aller 50
animators 50
ary@@ 50
ask@@ 50
asting 50
asylum 50
baking 50
behaviors 50
binding 50
bir@@ 50
bles 50
breathing 50
bromide 50
button 50
buttons 50
canons 50
capabilities 50
cartoonist 50
casting 50
chard 50
charting 50
cio 50
circum@@ 50
coeducational 50
complementary 50
concentrations 50
conferences 50
convenient 50
cook 50
cooled 50
cruise 50
crypt@@ 50
culminated 50
culturally 50
cup@@ 50
deb@@ 50
defenceman 50
delegates 50
depiction 50
deserts 50
dictator 50
differing 50
e-mail 50
ector 50
ele@@ 50
elimination 50
encounters 50
enstein 50
eron 50
exchanged 50
exhibited 50
factories 50
ffs 50
fun@@ 50
gamma 50
generating 50
guidelines 50
habit 50
harsh 50
hex@@ 50
ice-@@ 50
ideology 50
iform 50
impressed 50
inactive 50
inscriptions 50
inserted 50
interchangeably 50
interred 50
ipe 50
irc@@ 50
irs 50
ión 50
labour 50
lady 50
land-@@ 50
loaded 50
lovers 50
loyal 50
manganese 50
mas 50
meiosis 50
mim@@ 50
nat@@ 50
niece 50
nine-@@ 50
norm@@ 50
nude 50
ordering 50
oted 50
oxides 50
papal 50
pes 50
photograph 50
phy@@ 50
possessions 50
power@@ 50
presenting 50
printer 50
promp@@ 50
proph@@ 50
reacts 50
rent 50
rov@@ 50
rus 50
sat 50
seventeen 50
slender 50
spice 50
struc@@ 50
sufficiently 50
surrounds 50
tended 50
thea 50
theism 50
themed 50
threw 50
tooth 50
transferring 50
tundra 50
uh@@ 50
under-@@ 50
uniquely 50
victorious 50
viral 50
wal 50
wisdom 50
wrapped 50
yearly 50
.7 49
0E 49
1066 49
107 49
1783 49
1786 49
2,9@@ 49
2.8 49
3.2 49
300,000 49
43@@ 49
6/O) 49
7.5 49
AP@@ 49
Aeschylus 49
Aran@@ 49
Arist@@ 49
Baader 49
Bailey 49
Bald 49
Belle 49
Bohemian 49
Butcher 49
Calder 49
Cambridgeshire 49
Cancer 49
Cann@@ 49
Cannon 49
Chihuahua 49
Claire 49
Cong@@ 49
DR 49
Dalai 49
Did 49
Dildo 49
Disneyland 49
Eis@@ 49
Elbe 49
Ender 49
Evangelical 49
Fey 49
Firefly 49
Flórez 49
G.@@ 49
Gallagher 49
Game@@ 49
Gard@@ 49
Geological 49
Gesualdo 49
Gos@@ 49
Griffin 49
Hades 49
Half 49
Hit@@ 49
Hunza 49
IMI 49
Ib@@ 49
Ike 49
Islanders 49
Joshua 49
Judy 49
Key@@ 49
Kitty 49
Labs 49
Legacy 49
LeÃ 49
Lie@@ 49
Livingston 49
LiÃ 49
Louisville 49
Marcos 49
Messiah 49
Mic@@ 49
Mir 49
Moreover 49
Moy@@ 49
Mult@@ 49
Mumbai 49
Nin@@ 49
O2 49
Peugeot 49
Polynesia 49
Post-@@ 49
Raf@@ 49
Rapid 49
Raven 49
Resort 49
Rhineland-Palatinate 49
Rosario 49
S.C. 49
Saint-Pierre-@@ 49
Saxe-@@ 49
Scholars 49
SchÃ 49
Southwestern 49
Souza 49
Speaker 49
Spider-Man 49
Sylvia 49
Tando 49
Twenty-@@ 49
Ulong 49
Utrecht 49
VC 49
Valois 49
Vilnius 49
Wilde 49
Ya@@ 49
Yu@@ 49
acidic 49
acking 49
ad-@@ 49
advisor 49
agi 49
akin 49
albeit 49
alistic 49
anal 49
angel 49
angled 49
anterior 49
approx 49
arrow 49
automotive 49
basil 49
biologists 49
borg 49
caves 49
centred 49
charted 49
chips 49
cho@@ 49
circus 49
colonists 49
costume 49
cum@@ 49
customer 49
dell 49
demonstration 49
dians 49
dict@@ 49
diocese 49
eight-@@ 49
emblem 49
empires 49
encoding 49
engineered 49
enk@@ 49
eno 49
enti@@ 49
erie 49
esch@@ 49
eze 49
faction 49
farmer 49
finishes 49
flown 49
fox 49
garage 49
ghost 49
gloves 49
gly@@ 49
grace 49
grand@@ 49
ground@@ 49
guru 49
gÃ 49
hamlet 49
hand-@@ 49
hull 49
hyd@@ 49
iled 49
illustrations 49
imb@@ 49
inert 49
inferior 49
inter 49
intervention 49
jack@@ 49
journalism 49
kids 49
kins 49
leaf@@ 49
lep@@ 49
leton 49
list@@ 49
lymphocytes 49
mid-19th-century 49
migrated 49
modify 49
neurons 49
newly-@@ 49
nez 49
omes 49
onal 49
oning 49
origin@@ 49
orts 49
peppers 49
pers@@ 49
pilgrimage 49
plague 49
ported 49
praise 49
predecessors 49
pressed 49
prodigy 49
prose 49
psychedelic 49
psychiatric 49
puzzles 49
quick@@ 49
reads 49
receiver 49
rect@@ 49
regent 49
regiment 49
requests 49
reservoir 49
resorts 49
revenge 49
sar@@ 49
sculptures 49
seaside 49
sellers 49
snout 49
solitary 49
spect@@ 49
spontaneous 49
strange 49
stripe 49
supporter 49
surgeon 49
surrendered 49
syllable 49
symphonic 49
talented 49
talking 49
tertiary 49
tet@@ 49
than@@ 49
thunderstorms 49
tram@@ 49
trance 49
tropics 49
ts@@ 49
uals 49
uel 49
uli 49
ulum 49
venomous 49
vert 49
ville-@@ 49
zina 49
ás 49
.D. 48
1.9 48
1/2 48
14-@@ 48
175 48
1768 48
2.4 48
320 48
ARC@@ 48
Airbus 48
Aj@@ 48
Amber 48
Andorra 48
Aslan 48
Ballarat 48
Barber 48
Bee 48
Bella 48
Bergen 48
Bosnian 48
Brad 48
Byrd 48
Cedar 48
Chak@@ 48
Chap@@ 48
Château 48
Cobb 48
Corsican 48
Ele@@ 48
Ella 48
Essen 48
Fairfax 48
Films 48
Finn@@ 48
Freddie 48
Furby 48
Genet 48
H.@@ 48
Hayes 48
Heatherwick 48
Hi@@ 48
Huxley 48
Hyundai 48
Iraqi 48
Italians 48
Jeanne 48
Kamp@@ 48
Kannada 48
Kap@@ 48
Kara 48
Kerala 48
Keys 48
Lanc@@ 48
Laz@@ 48
Lif@@ 48
Low@@ 48
Lund 48
Mond@@ 48
Naomi 48
Neville 48
Nolan 48
Northeast 48
Ole@@ 48
Open@@ 48
PA@@ 48
PD@@ 48
PR@@ 48
Panic 48
Performing 48
Phelps 48
Ple@@ 48
Polk 48
Publishers 48
Rap@@ 48
Rican 48
Saga 48
Saxony-Anhalt 48
Scene 48
Shop 48
Slovenian 48
Stu@@ 48
Sut@@ 48
Sv@@ 48
Tagore 48
Thatcher 48
Thirty 48
Thomson 48
Ursula 48
Violet 48
Voices 48
Wi@@ 48
Wid@@ 48
Wiltshire 48
Woodstock 48
Yar@@ 48
Zhou 48
a. 48
activated 48
adjusted 48
ahn 48
air-@@ 48
ake@@ 48
albedo 48
alleg@@ 48
amended 48
aming 48
amusement 48
archaic 48
architectures 48
arth 48
athers 48
award-winning 48
banner 48
batting 48
bio 48
blindness 48
bowl 48
canonical 48
chartered 48
chi@@ 48
cle@@ 48
co-founded 48
consciousness 48
coordinate 48
demos 48
depict 48
devil 48
dip@@ 48
ecology 48
economies 48
educ@@ 48
ega 48
embarked 48
enna 48
enrollment 48
ensen 48
exhibits 48
f-@@ 48
fall@@ 48
feminist 48
fishes 48
flame 48
flat@@ 48
flute 48
frog 48
frogs 48
ga@@ 48
handful 48
haven 48
healing 48
high-speed 48
hm 48
holders 48
hr 48
humidity 48
hypo@@ 48
icist 48
ieri 48
igh 48
igneous 48
initials 48
intestine 48
investigate 48
invitation 48
ist-@@ 48
ital 48
iving 48
kilometre 48
lay@@ 48
learns 48
lengths 48
loud 48
main-belt 48
mark@@ 48
may@@ 48
missile 48
ms@@ 48
nights 48
nowadays 48
nudity 48
oblig@@ 48
ocar@@ 48
occurrence 48
opportunities 48
orate 48
overs 48
phosph@@ 48
photographic 48
poisoning 48
pollen 48
pollution 48
pow@@ 48
principality 48
profess@@ 48
protective 48
provisions 48
puts 48
rain@@ 48
resided 48
risks 48
san 48
scandal 48
scholarly 48
semen 48
set@@ 48
shirts 48
shor@@ 48
sings 48
solstice 48
somewhere 48
specification 48
spectacular 48
spends 48
stripped 48
struggled 48
suppl@@ 48
swing 48
symmetric 48
televised 48
textiles 48
threats 48
touches 48
trainer 48
trait 48
transparent 48
trap 48
travellers 48
uka 48
vicinity 48
west-@@ 48
west@@ 48
witz 48
zel 48
zen@@ 48
ône 48
(/O1992/O) 47
113@@ 47
1492 47
1660 47
1800s 47
190 47
2014 47
280 47
50th 47
70s 47
AFL 47
Amritsar 47
Aviv 47
BS@@ 47
BahÃ 47
Barack 47
Barton 47
Bartók 47
Beatrice 47
Benelux 47
Bernhard 47
Bertrand 47
Bison 47
Bret 47
CW 47
Caldwell 47
Capcom 47
Cats 47
Chic@@ 47
Chocolate 47
Colonial 47
Commodore 47
Concerts 47
Coventry 47
Crosby 47
Deb@@ 47
Diemen 47
Disc 47
Dogs 47
Dorset 47
Duff 47
Dumbo 47
Ek@@ 47
Elvis 47
Enterprise 47
Epistle 47
Erin 47
Et@@ 47
FA@@ 47
Ferr@@ 47
Fish@@ 47
Fulda 47
Gas@@ 47
Gateway 47
Gaz@@ 47
Gladman 47
Gone 47
Halifax 47
Heart@@ 47
Inc@@ 47
Infantry 47
JBL 47
Jhelum 47
Kashima 47
Kath@@ 47
L-@@ 47
Lemon 47
Linden 47
Look 47
Madame 47
Make 47
Maritime 47
Math@@ 47
Mend@@ 47
Milk 47
Mix@@ 47
Montevideo 47
NS@@ 47
Nagar 47
Nassau 47
Nem@@ 47
Nothing 47
Olive 47
Opeth 47
Pearson 47
Pep@@ 47
Peterborough 47
Pidgin 47
Pikmin 47
Plaza 47
Previn 47
RP@@ 47
Restoration 47
Rhe@@ 47
Rhea 47
Rita 47
Robbins 47
Rouen 47
Rudolph 47
Sabres 47
Sandy 47
Saxe-Coburg 47
Say@@ 47
Schleswig-Holstein 47
Semitic 47
Sendai 47
Set@@ 47
Sinai 47
Skinner 47
Something 47
Stein@@ 47
Stro@@ 47
Sub 47
SummerSlam 47
Tah@@ 47
Test@@ 47
Than 47
Tinker 47
Traffic 47
UFC 47
Ultraman 47
Vaud 47
Velvet 47
Vida 47
Vulcan 47
Wittgenstein 47
Wonderland 47
Writing 47
Yass 47
Yes 47
a.com 47
abol@@ 47
acceptable 47
accession 47
administrators 47
admiral 47
akh@@ 47
alpha 47
armor 47
asia 47
aus@@ 47
avel@@ 47
aving 47
banana 47
beard 47
beats 47
bei 47
bio@@ 47
blades 47
builds 47
city-state 47
colloquial 47
conception 47
conglomerate 47
convenience 47
cosmopolitan 47
costumes 47
couples 47
crip@@ 47
crude 47
cultivars 47
darker 47
deficiency 47
designers 47
dest@@ 47
disciples 47
eli 47
emaker 47
emitted 47
enacted 47
engagement 47
errors 47
esc@@ 47
est-@@ 47
estuaries 47
expresses 47
fatalities 47
forbidden 47
four-time 47
frac 47
freezing 47
generals 47
glory 47
gold@@ 47
gro@@ 47
half-life 47
hue 47
iat@@ 47
icit 47
icker 47
idation 47
incorporate 47
inia 47
inian 47
ionic 47
jar 47
kel 47
kir@@ 47
kl@@ 47
knocked 47
lawn 47
lengthy 47
lit@@ 47
lithosphere 47
luck 47
main@@ 47
managers 47
mass@@ 47
metaphor 47
modest 47
moments 47
multiplication 47
negotiated 47
neutron 47
nominee 47
nuclei 47
ogo 47
omi 47
opus 47
otte 47
ourt-@@ 47
painters 47
paramilitary 47
phs 47
pirates 47
point@@ 47
pursuit 47
py 47
rail@@ 47
regulate 47
renewable 47
responsibilities 47
ridges 47
rigid 47
rite 47
rot 47
seemingly 47
sells 47
sexes 47
shr@@ 47
strips 47
suborder 47
sum@@ 47
tablets 47
teaches 47
three-dimensional 47
thumb 47
tide 47
tuning 47
uil 47
undergone 47
ution 47
vari@@ 47
vet 47
violet 47
westernmost 47
104 46
113 46
1602 46
1603 46
1850s 46
19-@@ 46
2,0@@ 46
2009-0@@ 46
32-bit 46
330 46
5:@@ 46
AIDS 46
Aar@@ 46
Acting 46
Alexei 46
Alien 46
Allison 46
Anth@@ 46
Arlington 46
Aschenbach 46
Atlantis 46
Auguste 46
Axis 46
Baden-Powell 46
Bahawalpur 46
Bass 46
Beirut 46
Bernardino 46
Bordeaux 46
Botswana 46
Boulevard 46
Boulez 46
Bron@@ 46
Bü@@ 46
CNN 46
Caliban 46
Campos 46
Carey 46
Cavaliere 46
Chambers 46
Chat@@ 46
Cheers 46
Cho@@ 46
Commercial 46
Coul@@ 46
Croydon 46
César 46
Darren 46
Doug 46
Drew 46
Etruscan 46
Evelyn 46
Fac@@ 46
Fan@@ 46
Fern@@ 46
Filipino 46
Flyers 46
GC@@ 46
GRUB 46
GS 46
Gib@@ 46
Haunted 46
Henrik 46
Himalayas 46
Hiram 46
Hob@@ 46
Holiday 46
Hos@@ 46
Irvine 46
Javier 46
Jeff@@ 46
Jets 46
Joker 46
Karen 46
Keenan 46
L.@@ 46
Latvian 46
Letter 46
M.@@ 46
Maggie 46
Marie-@@ 46
Marriage 46
Massa 46
Mauritania 46
Mersey 46
Met 46
Mirror 46
Mirza 46
Morg@@ 46
Nagorno-Karabakh 46
Namur 46
Nest@@ 46
Net 46
Nord@@ 46
Numbers 46
Nyx 46
Oilers 46
Olivier 46
Oman 46
Organ@@ 46
Paraguay 46
Pay@@ 46
Picasa 46
Play@@ 46
Pleistocene 46
Policy 46
Poseidon 46
Pug@@ 46
Rodrigues 46
Rookie 46
SM 46
SS-@@ 46
Shade 46
Short-beaked 46
Simmons 46
Solti 46
Spice 46
Stargate 46
Staten 46
Strath@@ 46
Stratus 46
Suzuki 46
TH@@ 46
Tahiti 46
Than@@ 46
Tit@@ 46
Tol@@ 46
Turn 46
Unified 46
V8 46
VA 46
Vas@@ 46
Vectra 46
Whisenhunt 46
XL 46
XXX@@ 46
Zambia 46
accuracy 46
adds 46
adian 46
ais@@ 46
akers 46
alum 46
amus 46
atten@@ 46
atures 46
avoided 46
biomass 46
breakfast 46
cadmium 46
cape 46
cardiac 46
celebrities 46
cereal 46
coconut 46
collegiate 46
colonization 46
colorful 46
commanding 46
coordinated 46
cov@@ 46
dea 46
deciduous 46
deliberately 46
demanding 46
dent@@ 46
depictions 46
determination 46
differently 46
discs 46
disposal 46
documentation 46
dom 46
dreams 46
duet 46
ecosystem 46
elderly 46
elev@@ 46
ellan@@ 46
elo 46
eminent 46
emit 46
endor@@ 46
eric 46
erroneously 46
ersch@@ 46
escal@@ 46
ession 46
ever-@@ 46
excluded 46
execute 46
exhibitions 46
exploring 46
facts 46
farms 46
fluids 46
folds 46
forum 46
fraud 46
fu@@ 46
garments 46
geometric 46
gir@@ 46
goal@@ 46
goat 46
grandparents 46
guan@@ 46
gymnastics 46
heights 46
hiatus 46
hypertension 46
hypotheses 46
hÃ 46
ice@@ 46
inas 46
inate 46
innings 46
innovation 46
intimate 46
ischer 46
ishi 46
keeps 46
ken@@ 46
lamp 46
lib@@ 46
long-time 46
lyric 46
mal 46
mb@@ 46
mel 46
mentions 46
metamorphic 46
mortality 46
murders 46
muscular 46
nasal 46
naturalized 46
nouns 46
nu@@ 46
nus 46
ois@@ 46
ongo 46
oog@@ 46
optera 46
orph@@ 46
orthography 46
phic 46
philanthropist 46
pinn@@ 46
pressing 46
prostate 46
psychiatrist 46
rabbits 46
raids 46
rainforests 46
rants 46
regiments 46
regul@@ 46
remin@@ 46
resolve 46
ropes 46
rotational 46
rous 46
selective 46
she@@ 46
shed 46
shi 46
silent 46
simpler 46
slip@@ 46
solvent 46
sorted 46
stake 46
stellar 46
stimulation 46
submerged 46
syntax 46
taxonomic 46
throws 46
tornadoes 46
tow@@ 46
trick 46
trips 46
trop@@ 46
uke 46
unions 46
uprising 46
upstream 46
val 46
wait 46
wed@@ 46
weighing 46
well-defined 46
yÅ 46
ô@@ 46
000@@ 45
1,4@@ 45
168 45
1749 45
1773 45
189@@ 45
22,@@ 45
232 45
3.6 45
4.4 45
Adri@@ 45
Agent 45
Agustín 45
Alm@@ 45
Anthem 45
Antlers 45
Atomic 45
Autom@@ 45
Avebury 45
Balkans 45
Bamberg 45
Brady 45
Buck@@ 45
Bury 45
Bus 45
Cars 45
Cassius 45
Ciudad 45
Cody 45
Coffee 45
Coleman 45
Conrad 45
Cruella 45
Cum@@ 45
Customs 45
Daleks 45
Darmstadt 45
Dayton 45
Develop@@ 45
Dickinson 45
Estates 45
Eucalyptus 45
Evening 45
FF 45
Faculty 45
Fedora 45
Forth 45
Franks 45
French-speaking 45
GA 45
Giles 45
Glass 45
Goo@@ 45
Graz 45
Guest 45
Guthrie 45
HIV 45
Haifa 45
Harper 45
Hartman 45
Hass@@ 45
Heathrow 45
Hellenistic 45
Holman 45
Incre@@ 45
Ionian 45
Ives 45
Iw@@ 45
Jal@@ 45
Johor 45
Jovi 45
Jude 45
Kah@@ 45
Karajan 45
Kuiper 45
Lah@@ 45
Lass@@ 45
Leto 45
Madras 45
Male 45
Mall@@ 45
Mannheim 45
Mar 45
Mitch 45
Moss 45
Mov@@ 45
NH@@ 45
OECD 45
Oak@@ 45
PT 45
Panthers 45
Paper 45
Past@@ 45
Pav@@ 45
Poetry 45
Price 45
Progress 45
RISC 45
Rawalpindi 45
Regiment 45
Reginald 45
Rommel 45
Round 45
Rubinstein 45
Ruhr 45
Russians 45
SP 45
Samoa 45
Sand 45
Sap@@ 45
Sergio 45
Sesame 45
Sib@@ 45
Siena 45
Southwark 45
Tay@@ 45
Tekken 45
Territorial 45
Thistle 45
Toy 45
Tribune 45
Unix 45
Vaughan 45
Vision 45
Wade 45
Wichita 45
Wiener 45
Wine 45
Yamamoto 45
Yan@@ 45
accepts 45
accompaniment 45
acker 45
admission 45
advocates 45
agen 45
agus 45
aja 45
algebraic 45
alize 45
apt@@ 45
aqueous 45
ather@@ 45
ator@@ 45
banker 45
basal 45
bend 45
bic@@ 45
billed 45
bos@@ 45
burns 45
calculate 45
calendars 45
cel 45
cf 45
cham@@ 45
communion 45
constitut@@ 45
correlation 45
crab 45
curse 45
damaging 45
declaring 45
demon 45
deposited 45
detective 45
devastated 45
discre@@ 45
dorsal 45
drain 45
ecclesiastical 45
eer 45
electrified 45
eleg@@ 45
emotions 45
entia 45
esa 45
esia 45
esâ 45
etc 45
eto 45
exceed 45
exports 45
extensions 45
fact@@ 45
fi 45
forecasts 45
four@@ 45
fron@@ 45
gather 45
ginger 45
guitarists 45
harder 45
harp 45
herbivorous 45
hrer 45
icks 45
ies@@ 45
iformes 45
immun@@ 45
impression 45
indirect 45
induc@@ 45
infamous 45
ingu@@ 45
instituted 45
ipping 45
itters 45
iÅ 45
ières 45
jail 45
jaws 45
kimono 45
legions 45
lowlands 45
loyalty 45
malaria 45
marsupial 45
moisture 45
mustard 45
nau 45
newest 45
nica 45
night@@ 45
no-@@ 45
nobles 45
obi 45
oft 45
oki 45
onset 45
ood 45
ook@@ 45
ophy@@ 45
osphere 45
ought 45
ounces 45
ourse 45
outlets 45
parishes 45
penal 45
peri@@ 45
plan@@ 45
playable 45
post-war 45
pottery 45
profit 45
pÃ 45
qualification 45
reddish 45
rel 45
reliability 45
repair 45
revisions 45
rhy@@ 45
right-handed 45
sensation 45
sensor 45
shrub 45
sixty 45
specialised 45
speeches 45
submarine 45
submit 45
sworth 45
tails 45
thallium 45
toe 45
tom@@ 45
translator 45
trouble 45
tub@@ 45
ucci 45
unconscious 45
unification 45
usc@@ 45
usions 45
utation 45
volunteer 45
weed 45
wel@@ 45
wished 45
witnessed 45
woodland 45
worlds 45
yeast 45
yi 45
yman 45
ytic 45
· 45
än@@ 45
(/O1991/O) 44
108 44
112 44
116 44
127 44
1598 44
1754 44
1759 44
2.2 44
2.6 44
3.7 44
40th 44
45@@ 44
49@@ 44
978-@@ 44
:0 44
ACT 44
Abb@@ 44
Across 44
Add@@ 44
Adv@@ 44
Ahmed 44
Alessandro 44
Andr@@ 44
Angelo 44
Astronomical 44
Australians 44
Bath@@ 44
Beauty 44
Bennington 44
Black-@@ 44
Border 44
Butterfly 44
CSS 44
Carmel 44
Cay@@ 44
Ceres 44
Cerezo 44
Charlemagne 44
Chem@@ 44
Cindy 44
Clancy 44
Coalition 44
Complex 44
Concord 44
Confederacy 44
Constantin 44
Corinthians 44
Cran@@ 44
Cycle 44
DB 44
Davenport 44
Dexter 44
Escape 44
Esch@@ 44
Eur@@ 44
Expl@@ 44
Four@@ 44
Frankenstein 44
Gods 44
Gore 44
Guild 44
Gw@@ 44
Görlitz 44
Haitian 44
Halley 44
Hand 44
Hanseatic 44
Hardcore 44
Haute-@@ 44
Honey 44
Honolulu 44
Hoover 44
Hummingbird 44
Indi@@ 44
Indigenous 44
Irene 44
Iwata 44
Jab@@ 44
Jerome 44
Job 44
Jol@@ 44
Joyce 44
Judgment 44
Kenny 44
Kojiki 44
Kozlov 44
LA@@ 44
Laing 44
Lantern 44
Lasker 44
Layer 44
Lebanese 44
Legion 44
Leh@@ 44
Leicestershire 44
Lub@@ 44
Lucia 44
MTR 44
Mandarin 44
Manning 44
Medina 44
Mendelssohn 44
Mid-@@ 44
Midwestern 44
Milky 44
Mongolian 44
Mysore 44
NC 44
Nigel 44
Nish@@ 44
ON@@ 44
Oberon 44
Omar 44
P-@@ 44
Pandora 44
Patterson 44
Pitt 44
Plautus 44
Playing 44
Plus 44
Prometheus 44
Providence 44
Py@@ 44
Reid 44
Reynolds 44
Rihanna 44
Romanesque 44
Rust@@ 44
Sandra 44
Saxe-Weimar 44
Sear@@ 44
Sev@@ 44
Sharks 44
Shi@@ 44
Sit@@ 44
Split 44
Stravinsky 44
Stri@@ 44
Structural 44
Subtropical 44
Supporting 44
THE 44
Taoiseach 44
Techn@@ 44
Tig@@ 44
Timberlake 44
Titsingh 44
Tournament 44
Tracks 44
Tric@@ 44
Tripoli 44
Um@@ 44
Unfortunately 44
Valentine 44
Verona 44
Wiki 44
Wilbur 44
Wyn@@ 44
Yok@@ 44
ZX 44
Zam@@ 44
acht 44
acus 44
adaptive 44
advertisements 44
aken 44
amine 44
aromatic 44
asted 44
aths 44
audition 44
avia 44
avoiding 44
baroque 44
batteries 44
beak 44
ben 44
bold 44
brightness 44
buff@@ 44
call@@ 44
candy 44
carriages 44
chairs 44
chronicles 44
ci 44
circumference 44
classics 44
clean@@ 44
clear@@ 44
click 44
colder 44
competes 44
conce@@ 44
conditional 44
consideration 44
consonants 44
converts 44
copied 44
coronation 44
da@@ 44
deadly 44
dez 44
distr@@ 44
disturbed 44
drift 44
ectiv@@ 44
elian 44
eliminate 44
eme 44
entary 44
evangelist 44
eville-@@ 44
exponential 44
fem@@ 44
fission 44
fol@@ 44
forestry 44
founds 44
franchises 44
ges@@ 44
gi 44
govern 44
governor@@ 44
hab@@ 44
halls 44
helicopter 44
hen@@ 44
highest-@@ 44
hil@@ 44
hilly 44
hot@@ 44
iang 44
ident 44
idol 44
iger 44
init@@ 44
inscription 44
intim@@ 44
iri 44
itors 44
ive-@@ 44
landslide 44
liber@@ 44
loading 44
manor 44
mans 44
mast@@ 44
mathematicians 44
membranes 44
memor@@ 44
merit 44
mid-19th 44
militant 44
modeled 44
mouths 44
multi-instrumentalist 44
myths 44
negoti@@ 44
oming 44
onc@@ 44
oner 44
oos 44
origami 44
orship 44
overthrown 44
pancakes 44
panels 44
parasitic 44
parking 44
path@@ 44
patronage 44
pay@@ 44
pigs 44
pitches 44
practitioners 44
pre-Columbian 44
presidents 44
probable 44
projected 44
promising 44
provision 44
psychic 44
puck 44
punctuation 44
quin 44
recognised 44
refusing 44
rescued 44
reunification 44
ripe 44
rk 44
roman@@ 44
roses 44
routine 44
ru 44
scrip@@ 44
seawater 44
self-governing 44
seventeenth 44
shades 44
simpl@@ 44
sketch 44
spec@@ 44
starch 44
start@@ 44
straight@@ 44
sultan 44
supermarket 44
switching 44
techn@@ 44
text@@ 44
thickness 44
tires 44
uated 44
unnamed 44
uto 44
visitor 44
voc@@ 44
workshop 44
zes 44
.0 43
.1 43
1,3@@ 43
114 43
146 43
150,000 43
156 43
1750 43
1774 43
188@@ 43
2,500 43
2.1 43
21-@@ 43
24th 43
6\/@@ 43
80s 43
90s 43
AB 43
AOL 43
Ale@@ 43
Alley 43
Amateur 43
Aqua 43
Arad 43
Associate 43
Athena 43
Aus@@ 43
Aziz 43
BM@@ 43
Bann@@ 43
Benedictine 43
Benton 43
Bert 43
Bin@@ 43
Blanc 43
Browns 43
Bucharest 43
Carol@@ 43
Carpenter 43
Carême 43
Case 43
Cavendish 43
Chiefs 43
Colour 43
Cotton 43
Creed 43
Crossing 43
Dale 43
Deer 43
Deutsch@@ 43
Different 43
Dividing 43
Doria 43
Dragons 43
Dre@@ 43
Dream@@ 43
Elephant 43
Eleven 43
Emergency 43
Fairy 43
Fall@@ 43
Fam@@ 43
Faust 43
Fellow 43
Fianna 43
Fir@@ 43
Firestone 43
Firth 43
Florentine 43
Format 43
Franck 43
GNOME 43
Gand@@ 43
Gesellschaft 43
Goulburn 43
Gould 43
Grade 43
Gramm@@ 43
Grass 43
Guillaume 43
HammerFall 43
Hearst 43
Hend@@ 43
Henson 43
Herald 43
Heter@@ 43
Holloway 43
Horace 43
Hot@@ 43
Hus@@ 43
Inverness 43
Isabel 43
J-@@ 43
Jacksonville 43
Jared 43
Jeremiah 43
Jug@@ 43
KDE 43
Karakoram 43
Kleiber 43
Kron@@ 43
Kum@@ 43
Laon 43
Liber@@ 43
Libyan 43
Loop 43
Lynch 43
Maira 43
Maximilian 43
Mayan 43
Melissa 43
Memories 43
Micronesia 43
Mohammed 43
Molotov 43
Mongols 43
Monsters 43
Myers 43
Napoli 43
Newman 43
OR 43
Oath 43
Old@@ 43
PRC 43
Pact 43
Pag@@ 43
Pak@@ 43
Paleolithic 43
Plants 43
Play 43
Poe 43
Portable 43
Porter 43
Posse 43
Potassium 43
Provence-Alpes-Côte 43
Provisional 43
Rath@@ 43
Revolt 43
Riga 43
Roth 43
Roth@@ 43
SAS 43
Sabbath 43
Said 43
Scholastic 43
Sexual 43
Siberian 43
Skipper 43
Snape 43
Solo 43
Strike 43
TO@@ 43
Tac@@ 43
Thing 43
Tire 43
Trial 43
Trio 43
Uppsala 43
Ural 43
Veda 43
WA 43
Winners 43
Yuk@@ 43
Zel@@ 43
alike 43
anas 43
armored 43
associations 43
atur@@ 43
aur 43
automated 43
ballad 43
banjo 43
biblical 43
bro 43
busy 43
conjecture 43
continu@@ 43
convex 43
crocodile 43
cylinders 43
d'Italia 43
deaf 43
deeper 43
demonstrates 43
deser@@ 43
destroys 43
dio 43
distinguishing 43
doll 43
dri@@ 43
egr@@ 43
encrypted 43
endurance 43
eruptions 43
escu 43
essayist 43
exceeding 43
fast-@@ 43
fatty 43
fav@@ 43
fermented 43
flour@@ 43
foster 43
gan@@ 43
gasoline 43
generates 43
genetically 43
globally 43
goats 43
gri@@ 43
harmful 43
heroes 43
high@@ 43
hof 43
honey@@ 43
hostile 43
humanitarian 43
hunter 43
hypothetical 43
ia-@@ 43
ight-@@ 43
illegitimate 43
illes 43
illion 43
ilo 43
immigration 43
inda 43
infectious 43
initiative 43
inity 43
invading 43
investigated 43
ionists 43
ips 43
ipsum 43
iqu@@ 43
isl@@ 43
islets 43
ismatic 43
isolation 43
iver 43
journalists 43
jumps 43
knowing 43
lacks 43
lions 43
livestock 43
lowered 43
maid 43
melan@@ 43
mi@@ 43
miners 43
mothers 43
motiv@@ 43
movable 43
mul@@ 43
mushrooms 43
nation@@ 43
nium 43
nodes 43
non-governmental 43
ocephal@@ 43
ographers 43
oka 43
olin 43
oline 43
ornis 43
oses 43
other@@ 43
persecution 43
pies 43
prem@@ 43
proceeds 43
professionals 43
pulp 43
push 43
pylori 43
rang@@ 43
reconstruction 43
repeat 43
repr@@ 43
representations 43
retiring 43
rever@@ 43
robot 43
rode 43
roster 43
roy 43
rum@@ 43
sealed 43
seals 43
secretly 43
sediment 43
shar@@ 43
skiing 43
south@@ 43
spa 43
spray 43
spy 43
stationed 43
strait 43
subculture 43
tain@@ 43
tains 43
tee 43
third-largest 43
tickets 43
tips 43
titular 43
tors 43
tracking 43
two-thirds 43
uel@@ 43
umbrella 43
unk 43
utions 43
vag@@ 43
virgin 43
whit@@ 43
willing 43
woody 43
xes 43
yro@@ 43
zai 43
(/O1993/O) 42
(/O1995/O) 42
(/O19@@ 42
-d 42
.2 42
149 42
1519 42
1746 42
1757 42
1780 42
1785 42
1830s 42
2013 42
215 42
3,6@@ 42
30th 42
325 42
4.1 42
42@@ 42
43rd 42
600,000 42
A1 42
Alsace 42
Apostle 42
Armageddon 42
Asimov 42
Audi 42
Axel 42
B.C. 42
Bari 42
Beast 42
Belgrade 42
Big@@ 42
Birth 42
Bit@@ 42
Blender 42
Boh@@ 42
Bolton 42
Book@@ 42
Bow 42
Broken 42
Butch 42
Cabell 42
Chalcedon 42
Chichester 42
Clank 42
Clyde 42
Compl@@ 42
Conquest 42
Crowley 42
Cusco 42
Cézanne 42
Daddy 42
Deutscher 42
Devonshire 42
Diablo 42
Dim@@ 42
Edison 42
Eliot 42
Eliza 42
Euroa 42
Fitz@@ 42
Fox@@ 42
Friend 42
Galilee 42
Giacomo 42
Gilgit 42
Glendale 42
Hamlet 42
Hash@@ 42
Henderson 42
Herod 42
Holborn 42
Hubert 42
Hunt@@ 42
ICRC 42
Indeed 42
Ins@@ 42
Insane 42
Into 42
Jacqueline 42
Jamaican 42
Jennings 42
Jewitt 42
Joint 42
Joseon 42
Joy 42
Judah 42
Kash@@ 42
Kaw@@ 42
Kurdistan 42
Lap@@ 42
Laurent 42
Legislative 42
Lennon\/McCartney 42
Lexicon 42
Lyndon 42
M1 42
MC 42
MLB 42
Macbeth 42
Mariners 42
Marty 42
Mesnil-@@ 42
Minas 42
Mk@@ 42
Mohammad 42
Morley 42
Multiple 42
NS 42
Nielsen 42
Notre 42
Ordovician 42
PR 42
Past 42
Pavia 42
Perhaps 42
Perú 42
Petro@@ 42
Pier 42
Polytechnic 42
Ponce 42
Pre-@@ 42
Prizes 42
Pé@@ 42
RKO 42
Randolph 42
Recon@@ 42
Refer@@ 42
Republicans 42
Reward 42
Roch@@ 42
Roses 42
Russ@@ 42
SF@@ 42
Scouts 42
Sikh 42
Silk 42
Single 42
Slavonic 42
Spir@@ 42
Stebbins 42
Tad@@ 42
Taliban 42
Tann@@ 42
Tap@@ 42
Theme 42
ThÃ 42
Triangle 42
Tup@@ 42
Typical 42
Uttar 42
Vettel 42
Werner 42
Yak@@ 42
accessories 42
accommodation 42
advancing 42
aft 42
agh 42
aj 42
alk@@ 42
alloy 42
amon 42
anticipated 42
arches 42
archy 42
arin 42
ark@@ 42
aton 42
attorney 42
awak@@ 42
bec@@ 42
beneficial 42
best-@@ 42
bis@@ 42
bomber 42
bot 42
bour@@ 42
burst 42
calculations 42
cavity 42
chefs 42
chromium 42
cles 42
cognitive 42
compet@@ 42
conquer 42
consumers 42
convent 42
cousins 42
critic@@ 42
debates 42
delivering 42
deployed 42
dif@@ 42
disabilities 42
disguised 42
dissolving 42
distributing 42
doc 42
doctors 42
dominance 42
drag 42
emergence 42
enbach 42
eni 42
epidemic 42
epoch 42
ersed 42
escapes 42
excessive 42
extermination 42
f. 42
feedback 42
fig@@ 42
folding 42
fract@@ 42
gent@@ 42
guided 42
hai 42
hammer 42
heaviest 42
hopes 42
hormone 42
hostages 42
iPod 42
icide 42
icon@@ 42
idel@@ 42
iev@@ 42
iller 42
illus 42
implications 42
infrared 42
inist 42
ionally 42
ital@@ 42
iti 42
izers 42
ju 42
lagoon 42
lateral 42
licensing 42
life-@@ 42
likes 42
lix 42
lyrical 42
mammalian 42
meteorology 42
mole 42
namesake 42
nett 42
nicknames 42
occup@@ 42
octave 42
ocytes 42
oh 42
open-@@ 42
orted 42
overlap 42
pale@@ 42
paranormal 42
partement 42
peasant 42
pedal 42
photo 42
phys@@ 42
physiological 42
pile 42
polo 42
possesses 42
presidencies 42
pride 42
prolonged 42
proportions 42
prototype 42
pull 42
pushing 42
rainforest 42
ration@@ 42
rations 42
reactive 42
reduces 42
remarked 42
reminiscent 42
restoring 42
ried 42
rim 42
rites 42
rock-@@ 42
rowing 42
rugged 42
rumors 42
sab@@ 42
salmon 42
separ@@ 42
settling 42
shorthand 42
sighted 42
steal 42
stip@@ 42
subscription 42
suc@@ 42
summar@@ 42
t. 42
teenagers 42
temp@@ 42
tetrapods 42
theor@@ 42
thro@@ 42
traction 42
transmitter 42
tu 42
typhoon 42
tÃ 42
undergo 42
uninhabited 42
upright 42
uprisings 42
usable 42
utes 42
vacant 42
vandalism 42
warned 42
wik@@ 42
world@@ 42
writ@@ 42
zio 42
zoology 42
-l 41
.4 41
/O@@ 41
118 41
1605 41
1688 41
179@@ 41
1870s 41
27.@@ 41
35,@@ 41
4000 41
70,000 41
9\/@@ 41
A.C. 41
AF@@ 41
AV@@ 41
Absinthe 41
Afrikaans 41
Agnes 41
Albanian 41
Alleg@@ 41
Amendment 41
Amph@@ 41
Anatomy 41
Anglo-Irish 41
Angus 41
Antioquia 41
Antony 41
Archduke 41
Aside 41
Bail@@ 41
Bathurst 41
Bilbao 41
Blois 41
Boer 41
Bolshevik 41
Bride 41
Bry@@ 41
Buddy 41
Bö@@ 41
CN@@ 41
CSU 41
Centauri 41
Chadwick 41
Chaos 41
Crist@@ 41
Dah@@ 41
DiBiase 41
Diss@@ 41
Domin@@ 41
Downs 41
Dracula 41
Dut@@ 41
Eil@@ 41
Elementary 41
Elgar 41
Eragon 41
Fag@@ 41
Finlay 41
Flowers 41
Formerly 41
Freeman 41
FrÃ 41
Féin 41
GDP 41
Giotto 41
Gogh 41
González 41
Groening 41
Hale 41
Hampden 41
Haut@@ 41
Hog@@ 41
II@@ 41
Ida 41
Il 41
Impact 41
Incorporated 41
Jaguar 41
JavaScript 41
Ji@@ 41
Judas 41
Kakadu 41
Kav@@ 41
Krosigk 41
Kush 41
LXXX@@ 41
Larkana 41
Light@@ 41
Lucerne 41
Lucky 41
Luftwaffe 41
M6 41
Maharashtra 41
Manor 41
Mariana 41
Mary@@ 41
MarÃ 41
Matrix 41
Mauritius 41
Medi@@ 41
Memory 41
Moines 41
Moldova 41
Moody 41
Moral 41
Motherwell 41
Mr 41
Muk@@ 41
Nathaniel 41
Newark 41
Nickel 41
Operations 41
Oval 41
Pack 41
Packers 41
Panhandle 41
Paolo 41
Park@@ 41
Paso 41
Penn@@ 41
Perseus 41
PhD 41
Pohjola 41
Poker 41
Prato 41
Priest 41
Psych@@ 41
Quest 41
Quincy 41
Ratchet 41
Rid@@ 41
Riemann 41
Roh@@ 41
Rox@@ 41
Ré@@ 41
SO@@ 41
Sad@@ 41
Samp@@ 41
Sas@@ 41
Satellites 41
Saw@@ 41
Segunda 41
Selected 41
Seventh 41
Sherwood 41
Shig@@ 41
Soh@@ 41
Somalia 41
Spanish-@@ 41
Staal 41
Straits 41
Sud@@ 41
Sylvester 41
Sánchez 41
Tears 41
Terminal 41
Titania 41
Tok@@ 41
Trieste 41
Tut@@ 41
Tyrol 41
Vehicle 41
Verdi 41
Vor@@ 41
Wembley 41
Whale 41
Whis@@ 41
Yankovic 41
abl@@ 41
academy 41
accelerated 41
accidents 41
aco 41
acqu@@ 41
adenine 41
aim@@ 41
airplane 41
amalgamated 41
aman 41
amplitude 41
annexation 41
annon 41
answers 41
arguments 41
arrows 41
articulated 41
asis 41
ateral 41
atism 41
attracts 41
bab@@ 41
bachelor 41
be-@@ 41
bie 41
bills 41
boot@@ 41
branched 41
caffeine 41
carbohydrates 41
castles 41
coaching 41
coincide 41
coli 41
comparative 41
compressed 41
comput@@ 41
connector 41
contraction 41
contrad@@ 41
contributor 41
cot@@ 41
counter-@@ 41
declare 41
decreases 41
definitive 41
depos@@ 41
depressions 41
descriptions 41
diag@@ 41
diamond 41
digestion 41
displacement 41
diss@@ 41
drought 41
drowned 41
dt 41
dynasties 41
elemental 41
emont 41
escence 41
eside 41
esville 41
eting 41
evaluation 41
expeditions 41
extraction 41
famine 41
fats 41
fifteenth 41
fighters 41
fits 41
flav@@ 41
flor@@ 41
footed 41
fork 41
four-year 41
frames 41
fts 41
gal@@ 41
genocide 41
geologist 41
glut@@ 41
gon@@ 41
groove 41
h-@@ 41
heav@@ 41
heim@@ 41
heresy 41
home@@ 41
human-@@ 41
icians 41
iff@@ 41
ifiable 41
ignored 41
iji 41
illing 41
illustrator 41
implements 41
inauguration 41
indirectly 41
iner 41
ingle 41
introduces 41
istan 41
itioned 41
jpg 41
kat@@ 41
knight 41
lb 41
led@@ 41
liberty 41
lish 41
loops 41
loves 41
lus 41
madrigals 41
maj@@ 41
mandatory 41
mansion 41
marching 41
melodies 41
mined 41
miner@@ 41
minim@@ 41
mistakenly 41
monasteries 41
multipl@@ 41
nam 41
nch@@ 41
noodles 41
numerical 41
ocking 41
ogenesis 41
ogram 41
omy 41
onents 41
ool 41
oughton 41
outcome 41
overs@@ 41
own@@ 41
pagan 41
paternal 41
persistent 41
pigment 41
pit@@ 41
portraying 41
positioned 41
pour 41
predator 41
prevents 41
proc@@ 41
propelled 41
rea 41
rectangle 41
redirect 41
refined 41
reserves 41
ridae 41
rine 41
rituals 41
salad 41
sandstone 41
sausage 41
sham 41
shogun 41
shoulders 41
shrimp 41
soloist 41
south-eastern 41
staying 41
stere@@ 41
stressed 41
subgroup 41
substitution 41
suffers 41
super-@@ 41
supremacy 41
surgical 41
swept 41
tes-d 41
textbooks 41
theft 41
then@@ 41
tico 41
tides 41
tiers 41
toes 41
torture 41
tou@@ 41
tsunami 41
tuned 41
uded 41
umes 41
undisputed 41
us-@@ 41
ushing 41
vÃ 41
wala 41
washing 41
watch@@ 41
weights 41
wires 41
ysis 41
zo@@ 41
zu 41
är@@ 41
ê 41
î@@ 41
ï@@ 41
-Saint-@@ 40
116@@ 40
142 40
1508 40
1755 40
1766 40
1771 40
180@@ 40
1900s 40
192 40
1998-@@ 40
2,4@@ 40
23,@@ 40
55@@ 40
8.5 40
89@@ 40
Achilles 40
Alpine 40
Alto 40
Anders 40
Angl@@ 40
Anim@@ 40
Arabs 40
Argent@@ 40
Asclepias 40
AtlÃ 40
Aug@@ 40
August@@ 40
Austro-Hungarian 40
Aw@@ 40
Bahia 40
Bauer 40
Berwick 40
Beth 40
Blackburn 40
Bomb@@ 40
Brand 40
Brook@@ 40
Browning 40
Brugg 40
Busch 40
Béla 40
CIA 40
Cade 40
Cap 40
Cary 40
Cayman 40
Change 40
Chart@@ 40
Cheese 40
Christendom 40
Chrome 40
Cinema 40
Colombian 40
Cowboy 40
Cré@@ 40
Curse 40
Cyn@@ 40
Damon 40
Devils 40
Devonian 40
Dmitri 40
Doctrine 40
Domestic 40
Dominic 40
Doom 40
Dru@@ 40
Earth@@ 40
Eduard 40
Elect@@ 40
Elliott 40
Engine 40
Epping 40
Erwin 40
Erz@@ 40
Eyes 40
Fahrenheit 40
Fleming 40
French-@@ 40
Frit@@ 40
Fête 40
GAA 40
Galician 40
Governments 40
Grisham 40
Guil@@ 40
Hancock 40
Hereford 40
Hilbert 40
Holl@@ 40
Hours 40
Hovell 40
IH 40
Ignacio 40
Instruments 40
Jesuit 40
Jutland 40
Katamari 40
Klingon 40
Kul@@ 40
Lambeth 40
Lance 40
Layfield 40
Liam 40
Liberia 40
Lionel 40
Lucca 40
Macropus 40
Mainz 40
Mans 40
Mao 40
María 40
Mason 40
Merriam-Webster 40
Mog@@ 40
Nearly 40
Nieder@@ 40
Northumberland 40
Noy@@ 40
Nukem 40
OC 40
Oh 40
Olaf 40
PCs 40
Pereira 40
Pine 40
Plastic 40
Pliocene 40
Powderfinger 40
Pretty 40
Prokofiev 40
Protector 40
Rag@@ 40
Ranges 40
Rebecca 40
Representative 40
Rhy@@ 40
Ricky 40
Riders 40
Rubik 40
Rum@@ 40
Salle 40
Smithsonian 40
Sop@@ 40
Sportiva 40
Step@@ 40
Store 40
Stowe 40
Subsequently 40
Sunset 40
Swat 40
Taiwanese 40
Tex@@ 40
Theorem 40
Timbaland 40
Tool 40
Tours 40
Truth 40
Tunnel 40
UCI 40
Unix-like 40
Us@@ 40
V6 40
Voc@@ 40
WTA 40
Walton 40
Wei 40
XXIV 40
Yuan 40
Zer@@ 40
accent 40
ailing 40
alkaline 40
allo 40
alumni 40
analyst 40
angel@@ 40
ankle 40
announces 40
anny 40
appoint 40
ashing 40
augh 40
availability 40
avo@@ 40
bamboo 40
bite 40
bius 40
blamed 40
bol 40
bow@@ 40
boyfriend 40
branding 40
breakdown 40
buffalo 40
calculus 40
catching 40
celebrating 40
centrally 40
ceramic 40
chan@@ 40
classifications 40
clerk 40
co-produced 40
collabor@@ 40
colleague 40
comment 40
compose 40
confess@@ 40
consol@@ 40
conver@@ 40
cookies 40
cork 40
cra@@ 40
criticised 40
crush 40
cure 40
decreasing 40
dessert 40
diagnosis 40
diplom@@ 40
displaying 40
eger 40
emission 40
emissions 40
encouraging 40
end-@@ 40
ende 40
enterprise 40
enth@@ 40
ero@@ 40
express@@ 40
extract 40
fake 40
feder@@ 40
fluor@@ 40
frontal 40
gale 40
glob@@ 40
gor@@ 40
grasses 40
gut 40
harm 40
hats 40
hei 40
heiress 40
hij@@ 40
holidays 40
hound 40
hydrochloric 40
icted 40
igne@@ 40
igu@@ 40
imply 40
instruc@@ 40
intentionally 40
invent@@ 40
ireann 40
isha 40
itative 40
itta 40
jer@@ 40
kangaroos 40
kidnapped 40
knows 40
landmarks 40
ld@@ 40
litz 40
locals 40
lorem 40
magenta 40
man-@@ 40
max@@ 40
memories 40
menu 40
meteorologist 40
monoc@@ 40
monophyletic 40
mou@@ 40
nevertheless 40
noting 40
oding 40
official_name 40
ogue 40
ometric 40
onda 40
ono 40
oug@@ 40
penn@@ 40
per-@@ 40
pest@@ 40
polis 40
powdered 40
preacher 40
precision 40
press@@ 40
proceeded 40
protecting 40
rad 40
remember 40
republican 40
retire 40
reviewed 40
rider 40
rin@@ 40
rog@@ 40
ry-@@ 40
sack 40
saints 40
scratch 40
sects 40
seller 40
sibling 40
silicon 40
spor@@ 40
stabil@@ 40
stationary 40
statues 40
steady 40
sten@@ 40
stra 40
sus 40
thor@@ 40
tonnes 40
treating 40
turbine 40
ui 40
unexpected 40
unsuccessfully 40
updates 40
uster 40
vectors 40
ves@@ 40
villagers 40
virtue 40
vitamins 40
volatile 40
wavelength 40
wi 40
wide-@@ 40
witch 40
y\/@@ 40
yang 40
year-round 40
yr 40
ég@@ 40
én 40
ño 40
ú 40
(/O1989/O) 39
11.@@ 39
12,000 39
124 39
1555 39
17-@@ 39
1769 39
195 39
270 39
45th 39
A.S. 39
Act@@ 39
Aer@@ 39
Américo 39
Andre@@ 39
Arc 39
Athenian 39
Ayrshire 39
Baird 39
Balls 39
Baronet 39
Barth@@ 39
Bede 39
Bering 39
Bihar 39
Bloemfontein 39
Bob@@ 39
Bonnie 39
Bras@@ 39
Brig 39
Broad@@ 39
Buena 39
Buren 39
Calabria 39
Chartres 39
Christian@@ 39
Chu@@ 39
Cicero 39
Clapton 39
Class@@ 39
Cleopatra 39
Cob@@ 39
Combined 39
Coolidge 39
Cott@@ 39
Cranbourne 39
Crewe 39
Cup-winning 39
Dalek 39
Dana 39
Diocese 39
Dow 39
Dutchess 39
Enrique 39
FF@@ 39
FL 39
Falcons 39
Fear 39
Felipe 39
Fried@@ 39
Fris@@ 39
Gamba 39
Gent@@ 39
Gerais 39
Gram@@ 39
Greek-English 39
Hack@@ 39
Hanja 39
Haw@@ 39
Hector 39
Hick@@ 39
Hig@@ 39
Hobart 39
Hoffman 39
Hound 39
Hurwicz 39
Hybrid 39
Hydro@@ 39
IT 39
IV@@ 39
Imag@@ 39
Inch 39
Iran@@ 39
Jedi 39
John@@ 39
K.@@ 39
Kiss@@ 39
Knowledge 39
L.A. 39
LC 39
Levine 39
Libr@@ 39
Mallory 39
Mayr 39
Mean 39
Metis 39
Meyer 39
Miz@@ 39
Mu 39
Muppet 39
Nad@@ 39
Namibia 39
Nec@@ 39
Neuville-@@ 39
Nike 39
Norte 39
Num@@ 39
Oceanic 39
Oliv@@ 39
Omaha 39
Osnabrück 39
Ott@@ 39
Persians 39
Phys@@ 39
Pixar 39
Pog@@ 39
Prophet 39
PuTTY 39
Purcell 39
Ram 39
Ranch 39
Redon 39
Resolution 39
Resurrection 39
Ric 39
Rotterdam 39
SD@@ 39
Sach@@ 39
Saharan 39
Sami 39
Schwallier 39
Seine 39
Session 39
Smart 39
Smythe 39
Sparta 39
Spr@@ 39
Stal@@ 39
Temp@@ 39
Tobago 39
Tracy 39
Trilogy 39
Tube 39
Tucker 39
U2 39
Ud@@ 39
Unicode 39
Villers-@@ 39
WV 39
Yon@@ 39
Yorke 39
Yukon 39
ZoneAlarm 39
ached 39
acquire 39
adequate 39
adjust@@ 39
affirmed 39
affluent 39
aia 39
alloys 39
altar 39
ammonium 39
ancourt 39
anning 39
answered 39
anthropomorphic 39
antimony 39
antine 39
apex 39
apparatus 39
archaeology 39
arden 39
arily 39
arise 39
arium 39
artic@@ 39
ashore 39
asserted 39
asso 39
astro@@ 39
attracting 39
authentic 39
automobiles 39
avi 39
axial 39
azu 39
baseman 39
bec 39
bestselling 39
bets 39
beverages 39
biochemist 39
blue-@@ 39
brut@@ 39
capability 39
casts 39
cease 39
ceiling 39
check@@ 39
cher@@ 39
clocks 39
coaster 39
comeback 39
commitment 39
complement 39
congregation 39
consecrated 39
consent 39
consistency 39
convey 39
crossover 39
d'Ivoire 39
dean 39
destructive 39
digging 39
disasters 39
divisors 39
dominate 39
ducks 39
ducts 39
ecumenical 39
electr@@ 39
enclave 39
enheim 39
ensch@@ 39
enz 39
eption 39
equivalence 39
erator 39
erian 39
erly 39
ers-@@ 39
es-sur-@@ 39
es\/@@ 39
espionage 39
expired 39
fears 39
fix 39
forc@@ 39
g-@@ 39
generator 39
genius 39
guides 39
hatchback 39
highland 39
hummingbird 39
iae 39
ibo 39
icourt 39
identifies 39
imit@@ 39
incourt 39
inexpensive 39
intent 39
intentional 39
internally 39
ival 39
izz@@ 39
ière 39
lacked 39
landscapes 39
laser 39
ley@@ 39
light@@ 39
liquor 39
mani 39
mbar 39
megal@@ 39
mint 39
mob 39
modeling 39
motions 39
nal 39
narrowly 39
neberg 39
news@@ 39
niche 39
nig@@ 39
nis 39
nitric 39
oan 39
observable 39
ofen 39
ogne 39
olfactory 39
omys 39
opted 39
orchest@@ 39
ound 39
outdoors 39
overcome 39
oversaw 39
pace 39
padd@@ 39
pants 39
parasites 39
pathogens 39
pav@@ 39
perf@@ 39
persisted 39
physiology 39
pland 39
plantation 39
pods 39
poetic 39
polymer 39
pom@@ 39
practicing 39
primates 39
productive 39
prosperity 39
proto@@ 39
proving 39
pyro@@ 39
quest@@ 39
quiet 39
rally 39
reefs 39
rematch 39
renal 39
resc@@ 39
resign 39
rick@@ 39
rod@@ 39
rology 39
salinity 39
scal@@ 39
seg@@ 39
simulation 39
skaya 39
sliced 39
special@@ 39
spelt 39
spire 39
ss@@ 39
sting 39
succ@@ 39
suits 39
supervised 39
sustain 39
sympathetic 39
tactical 39
tend@@ 39
tok@@ 39
trans-@@ 39
trophies 39
trout 39
trusted 39
turtles 39
tus 39
uation 39
ulcers 39
ului 39
unemployment 39
uri 39
util@@ 39
vas@@ 39
wax 39
wears 39
welcome 39
whenever 39
wn 39
worshipped 39
woven 39
yan@@ 39
yon 39
zac 39
zhou 39
-la-@@ 38
0.6 38
0s 38
126 38
1260 38
1485 38
1588 38
1700 38
1729 38
1781 38
2.3 38
2.7 38
202 38
216 38
260 38
308 38
3166-1 38
316@@ 38
4.8 38
5.1 38
60s 38
8\/@@ 38
ATA 38
Address 38
Aladdin 38
Andhra 38
Arach@@ 38
Aude 38
Aviation 38
Ban 38
Bedfordshire 38
Benito 38
Bois 38
Bombardier 38
Boutros-Ghali 38
Boyz 38
Brixton 38
Bull@@ 38
Butterworth 38
CO3 38
Calhoun 38
Caliph 38
Camb@@ 38
Campeche 38
Ce@@ 38
Chelmsford 38
Comic 38
Coming 38
Conf@@ 38
Conv@@ 38
Criminal 38
Cry 38
Cuc@@ 38
Cumberland 38
Dauphin 38
Dh@@ 38
Dial@@ 38
Dil@@ 38
Dip@@ 38
Disc@@ 38
Disco 38
Door 38
Dortmund 38
Dukes 38
EP@@ 38
Elector 38
Elements 38
Epic 38
Eth@@ 38
Evidence 38
FDP 38
Faroe 38
Ferry 38
Few 38
Fiesole 38
Finn 38
Fortune 38
Frenchman 38
Fresh 38
Fu 38
Fuji 38
GE 38
Gallen 38
García 38
Gast@@ 38
Gato 38
Glob@@ 38
Goodman 38
Gorg@@ 38
Gotham 38
Greene 38
Grieg 38
Grow 38
Haj@@ 38
Hang@@ 38
Hank 38
Hanna-Barbera 38
Hare 38
Hay 38
Hepburn 38
Hindus 38
Hoboken 38
Hoy@@ 38
Hsu 38
Hyper@@ 38
Hé@@ 38
ICD9 38
IF 38
Ic@@ 38
Illustrated 38
Impressionism 38
Innocent 38
Interview 38
Inuit 38
Io 38
Isl@@ 38
Jag@@ 38
Jor@@ 38
Jord@@ 38
Jour@@ 38
Kaulitz 38
Kawasaki 38
Kendall 38
Kijiji 38
Kilmarnock 38
Koxinga 38
Kuala 38
Kyi 38
LL 38
LLC 38
Learning 38
Lec@@ 38
Lenin 38
Lep@@ 38
Less 38
Lester 38
Let@@ 38
Levy 38
Lew@@ 38
Lex 38
Lexington 38
Lyn@@ 38
MR@@ 38
Maiden 38
Mama 38
Marg@@ 38
Marianne 38
Master@@ 38
Mayo 38
McGraw-Hill 38
Merit 38
Mesa 38
Metropolis 38
Midd@@ 38
Mob@@ 38
Molecular 38
Montre@@ 38
Monty 38
Münster 38
NC@@ 38
Nath@@ 38
Nico 38
Nim@@ 38
Oct@@ 38
Orkney 38
Pain 38
Pallas 38
Panda 38
Passenger 38
Pear@@ 38
Penn 38
Pompey 38
Pool 38
Porrentruy 38
Prudius 38
Quart@@ 38
Rah@@ 38
Rams 38
Remix 38
René 38
Rhythm 38
Rinpoche 38
Rip@@ 38
Rol@@ 38
Rost@@ 38
Sailor 38
Sample 38
Sanc@@ 38
Santana 38
Saras@@ 38
Sauvé 38
Schneider 38
Sex@@ 38
Sharon 38
Shawnee 38
Shetland 38
Shinkansen 38
Sign 38
Sign@@ 38
Simba 38
Sino-Japanese 38
Slov@@ 38
Sonny 38
Sources 38
Soviets 38
Sur 38
Swahili 38
TOPS 38
Takuya 38
Trials 38
USL 38
Uganda 38
Ultra 38
Varley 38
Vegalta 38
Vent@@ 38
Veterans 38
Victory 38
Vissel 38
Vitamin 38
Wah@@ 38
Wallachia 38
Weingartner 38
Willem 38
Wis@@ 38
Wizard 38
Wozzeck 38
Zero 38
Zo@@ 38
accepting 38
accor@@ 38
advocated 38
aic 38
aliens 38
amps 38
anglicised 38
apa 38
apprentice 38
aristocracy 38
atsu 38
autom@@ 38
ayan 38
azi 38
bells 38
best@@ 38
biographer 38
boiled 38
bok 38
bon 38
break-up 38
cad@@ 38
carp@@ 38
catalyst 38
categorized 38
chang@@ 38
chlorate 38
cho 38
cliffs 38
climbed 38
co-educational 38
coinc@@ 38
collectors 38
commands 38
compatibility 38
concent@@ 38
constraints 38
consultant 38
continuum 38
correspondence 38
crashes 38
cryptanalysis 38
crystall@@ 38
cue 38
curriculum 38
ded@@ 38
defenders 38
deliberate 38
depl@@ 38
deposit 38
dir@@ 38
downloads 38
e-based 38
east@@ 38
ejected 38
elli@@ 38
embassy 38
empirical 38
employer 38
empress 38
enes 38
engraving 38
enhance 38
entirety 38
essing 38
evident 38
excavations 38
expect 38
experiencing 38
eyed 38
fantas@@ 38
far-@@ 38
fiberglass 38
fo@@ 38
forty-@@ 38
foxes 38
functionality 38
garrison 38
glam 38
graph@@ 38
guitar@@ 38
half-brother 38
headwaters 38
helpful 38
highways 38
him@@ 38
hormones 38
iant 38
icals 38
icy 38
idate 38
ights 38
ilus 38
implied 38
imus 38
incarnations 38
inks 38
inning 38
interim 38
iod@@ 38
isse 38
istry 38
iu 38
jewelry 38
keepers 38
lactic 38
lesbian 38
lich 38
linguist 38
lining 38
lon 38
long-distance 38
mad@@ 38
markings 38
mat 38
molluscs 38
monsoon 38
motors 38
mouth@@ 38
mur@@ 38
mystery 38
nationality 38
neo-@@ 38
nio 38
nois 38
novella 38
nster 38
nucleic 38
nutrition 38
oak 38
obsidian 38
odes 38
olla 38
one@@ 38
ood@@ 38
ornamental 38
oul 38
oven 38
over-@@ 38
packaging 38
permit 38
permits 38
persona 38
pg 38
plant@@ 38
plas@@ 38
poppy 38
popul@@ 38
pray 38
preparations 38
printmaker 38
progressed 38
pup@@ 38
quartz 38
radioactivity 38
randomly 38
reconc@@ 38
reconstructed 38
redundant 38
replaces 38
restaurateur 38
rin 38
rist 38
rods 38
rovich 38
s.@@ 38
satisf@@ 38
shan 38
signify 38
slip 38
sne@@ 38
speed@@ 38
stim@@ 38
successors 38
sulfuric 38
surfing 38
surroundings 38
tak@@ 38
tam@@ 38
tant@@ 38
taxa 38
telephoto 38
telescopes 38
tent 38
thicker 38
thinner 38
totally 38
tough 38
travelled 38
turbines 38
undergoing 38
unsafe 38
uo 38
vacation 38
vein 38
wash 38
wolves 38
wyn 38
xi 38
ytes 38
ð@@ 38
ür@@ 38
,500 37
000-@@ 37
137 37
141 37
166 37
1711 37
1753 37
1762 37
2003-@@ 37
480 37
7,000 37
86@@ 37
AES 37
AFI 37
Agrippa 37
Ambassador 37
Anthrax 37
Antiquity 37
Associates 37
Avalanche 37
BP 37
Balk@@ 37
Bangkok 37
Barrett 37
Bash@@ 37
Beat 37
Bertha 37
Better 37
Bundesministerium 37
CBBC 37
CPUs 37
Cameroonian 37
Campania 37
Canis 37
Casino 37
Cherubino 37
Chrysler 37
Civ@@ 37
Combat 37
Cove 37
Cream 37
Creole 37
Cruc@@ 37
Danes 37
Dawson 37
Decades 37
Design@@ 37
Did@@ 37
Direc@@ 37
Domini 37
Drenthe 37
Dudley 37
Dumbledore 37
Ecumenical 37
Eff@@ 37
Elizabethan 37
Emerson 37
Erik 37
Ethiopian 37
Euler 37
Euston 37
Experience 37
Fender 37
Fermat 37
Fla@@ 37
Francia 37
Franconia 37
Fras@@ 37
Fukuoka 37
Fut@@ 37
Gondwana 37
Grig@@ 37
Gutenberg 37
HA 37
Hesper@@ 37
Hilary 37
Hip@@ 37
Hod@@ 37
Huygens 37
ICDO 37
ID 37
Ich@@ 37
Jin 37
Kathleen 37
Kazan 37
Ket@@ 37
Latina 37
Lego 37
Lon@@ 37
Made 37
Magna 37
Main@@ 37
Mann@@ 37
Mant@@ 37
Marguerite 37
Max@@ 37
Maxim 37
Megadeth 37
Melody 37
Michele 37
Midsummer 37
Miley 37
Moe 37
Moselle 37
Motor@@ 37
Muzaffarabad 37
NHA 37
Nationwide 37
Nep@@ 37
News@@ 37
Nottinghamshire 37
Oahu 37
Observ@@ 37
Ole 37
Oral 37
Palo 37
Parisian 37
Parry 37
Patriarch 37
Peoples 37
Pig@@ 37
Pill@@ 37
Plac@@ 37
Postal 37
Present 37
Progressive 37
Provincia 37
Pyr@@ 37
Quaker 37
R-@@ 37
Redwall 37
Regierungsbezirk 37
Riley 37
Ring@@ 37
Rite 37
Rup@@ 37
Rye 37
SPL 37
SR@@ 37
SW@@ 37
Sant 37
Serbs 37
Shel@@ 37
Shi 37
Shimizu 37
Ship@@ 37
Spears 37
Squad 37
Stad@@ 37
Stop 37
Strat@@ 37
Stratford 37
Sü@@ 37
TD 37
Taft 37
Tag@@ 37
Tea 37
Teresa 37
Terrier 37
Thorn@@ 37
Tina 37
Tito 37
Torino 37
Trujillo 37
Vacheron 37
Veronica 37
Ves@@ 37
Violin 37
Weekend 37
Zheng 37
aa 37
absorb 37
accessory 37
accusations 37
administer 37
aids 37
aining 37
aint@@ 37
alty 37
amen 37
analytical 37
aning 37
anthropologist 37
anti 37
anum 37
ared 37
aring 37
arius 37
arthropods 37
aters 37
atop 37
babies 37
badly 37
ballads 37
basilica 37
bench 37
bias 37
bler 37
bloss@@ 37
bolt 37
bony 37
bracciale 37
browsers 37
carefully 37
centralized 37
cephalopods 37
civic 37
coasts 37
codified 37
columnist 37
computational 37
connectors 37
consortium 37
contrasted 37
convince 37
crankshaft 37
creek 37
dan 37
dat@@ 37
delicate 37
dependence 37
depot 37
devolved 37
dial 37
diffusion 37
dirt 37
disciple 37
discography 37
doctrines 37
dou@@ 37
dug 37
enlarged 37
enlisted 37
enstadt 37
ensuing 37
erable 37
eroy 37
estation 37
exams 37
[...]
