t h 1004333
a n 717020
th e</w> 691285
i n 592275
e r 521921
a r 468030
e d</w> 418569
o f</w> 412389
o r 402302
i n</w> 386516
e n 382275
e r</w> 363595
a t 352489
an d</w> 348546
o n 345120
i t 330647
i s</w> 329430
o n</w> 318061
r e 311922
a l 310652
s t 302769
o u 262237
e s</w> 259902
i c 254884
a s</w> 252493
a n</w> 220279
r o 213669
in g</w> 209665
t o</w> 196074
a l</w> 180483
o r</w> 177816
i s 167720
T h 167593
o m 159462
i l 159461
e l 157104
i on</w> 155300
a m 150925
a s 146622
e s 143151
a c 141699
o l 133752
e c 133375
u r 132734
Th e</w> 123214
e n</w> 118037
w as</w> 117539
a t</w> 116623
1 9 115995
' '</w> 115789
u n 108269
r i 106717
l y</w> 105225
u s 105108
d i 100794
p l 100484
e m 97993
c h 95778
en t</w> 95591
i r 94406
e t 92887
w h 92289
en t 89960
o w 88001
i v 85031
a d 84755
a g 82922
d e 80647
ou n 80495
o s 79884
b y</w> 79559
c e</w> 78616
i on 77987
i m 77774
i g 76416
f or</w> 75836
o t 71133
u l 71070
c om 69720
l e 69510
a p 67881
o v 67334
i d 66123
a b 63775
a r</w> 63684
w it 63307
i c</w> 63206
ar t 63093
f or 60597
a v 59283
o c 59203
wit h</w> 58822
0 0 58617
u c 58261
l e</w> 57981
ar e</w> 57592
o p 57543
it y</w> 57391
er s</w> 57189
at ion</w> 57043
c on 56450
p ro 55997
e v 55495
a y 55123
s h 54842
ro m</w> 54825
r an 54708
f rom</w> 52878
th at</w> 52767
t h</w> 52525
' s</w> 52366
a y</w> 51405
er e</w> 49706
i st 48930
S t 47549
b e 47356
2 00 47349
s e 46655
th e 46495
i t</w> 46316
al l</w> 45176
es t</w> 44672
c l 44628
b u 44450
re s 44396
i a</w> 44379
C h 43744
i es</w> 42967
th er</w> 42850
a k 42440
b er</w> 42428
I t</w> 42367
e x 42154
o o 41821
am e</w> 41186
in g 40891
r a 40691
t er</w> 40027
at e</w> 39589
u m 39479
at ed</w> 39007
s p 38681
ow n</w> 38604
d s</w> 38413
t er 38363
ic h</w> 38286
q u 38273
al l 38096
e st 37626
t s</w> 37228
i an</w> 36301
s t</w> 36255
a d</w> 36116
h is</w> 35619
m ent</w> 35573
s o</w> 35404
U n 35166
ar y</w> 35145
a in 34914
p er 34606
l i 34448
at ion 34410
n e 34314
on e</w> 34118
m an 33991
u t 33870
e p 33712
h e</w> 33701
st r 33594
wh ich</w> 33477
f f 33359
u b 33346
I n</w> 33161
is h</w> 33097
b or 32970
com m 32573
w or 32541
al ly</w> 32530
e d 32027
c h</w> 31837
u d 31787
u s</w> 31767
p art 31653
o g 30468
t r 30427
b e</w> 30345
n o 30071
er n</w> 29857
iv e</w> 29736
e ar 29639
al so</w> 28961
F ran 28827
l and</w> 28573
f ir 28476
l d</w> 28449
r it 28401
i r</w> 28238
o d 27803
pl ay 27639
ic al</w> 27590
h as</w> 27571
g e</w> 27434
bor n</w> 26944
ig h 26940
1 8 26837
ec t 26397
oun d</w> 26329
ag e</w> 26321
re c 26264
for m 25780
w e 25776
un e</w> 25738
in e</w> 25718
re g 25715
em ber</w> 25588
fir st</w> 25507
at es</w> 25367
il l 25332
a m</w> 25322
it s</w> 25183
ou g 25072
A m 24828
a st 24690
k n 24423
os t</w> 24356
p e 24336
av e</w> 24221
p ar 24088
I n 24049
ou t</w> 23980
it ed</w> 23958
H e</w> 23839
w ere</w> 23800
Fran ce</w> 23637
d er</w> 23494
e t</w> 23343
i l</w> 23215
er s 23037
as t</w> 22782
i f 22583
E n 22549
ac t 22475
u g 22289
p h 22281
A l 22085
e l</w> 22085
n or 22045
pl e</w> 21999
g r 21975
19 9 21969
l an 21919
om e</w> 21849
o ther</w> 21750
b ec 21691
er ic 21687
as s 21618
p or 21554
t e 21513
is t</w> 21327
t w 21194
en d 21119
ou r 21085
kn own</w> 21069
M ar 20955
s er 20942
a in</w> 20918
ur e</w> 20838
es s 20562
o ot 20425
ar d</w> 20354
Am eric 20206
wh o</w> 20118
N or 20113
i al</w> 20086
on g</w> 20075
el l 20059
a f 19953
oun t 19690
e y</w> 19664
Un ited</w> 19645
A r 19575
no t</w> 19516
b all</w> 19430
i p 19424
A n 19294
com p 19292
or e</w> 19285
de part 19169
us ed</w> 19000
h ave</w> 18684
u e</w> 18670
depart ment</w> 18594
k s</w> 18509
i z 18425
bu t</w> 18386
t ed</w> 18379
or y</w> 18360
ation al</w> 18323
o w</w> 18206
ion s</w> 17952
es e</w> 17890
ou s</w> 17887
d uc 17857
c ity</w> 17831
ent s</w> 17736
N e 17704
m e 17665
u p 17606
ov er 17543
t im 17541
19 8 17523
ic e</w> 17377
o b 17208
ad e</w> 17201
con t 17189
comm une</w> 17101
m ost</w> 17068
f l 16969
u m</w> 16967
b r 16883
En g 16813
en ce</w> 16735
oug h</w> 16668
reg ion</w> 16627
19 7 16585
f oot 16555
the ir</w> 16539
l ar 16426
g u 16414
t o 16350
s uc 16283
an d 16261
man y</w> 16234
C al 16216
an t</w> 16216
c ent 16202
es s</w> 16143
h ad</w> 16070
at er</w> 16043
is h 15957
in cl 15832
n e</w> 15742
ac e</w> 15710
r ic 15705
i d</w> 15587
l oc 15553
en s 15521
s c 15430
us e</w> 15430
St ates</w> 15390
m an</w> 15365
o f 15347
id e</w> 15298
s y 15262
h er</w> 15241
p res 15216
Americ an</w> 15211
h e 15206
as ed</w> 15135
c all 15088
incl ud 15075
- -</w> 15000
an s</w> 14993
d is 14990
in ce</w> 14938
ol l 14932
t ion</w> 14895
el l</w> 14887
G er 14874
c an</w> 14862
L e 14830
i b 14780
p o 14740
an t 14712
s ou 14635
tw o</w> 14630
il l</w> 14584
k e</w> 14452
d e</w> 14407
ar e 14383
u ary</w> 14368
call ed</w> 14366
re e</w> 14356
m in 14324
l es</w> 14290
ub l 14261
af ter</w> 14190
v i 14092
/ O 13993
p ri 13981
f ound</w> 13978
t en</w> 13917
s on</w> 13771
ir e</w> 13719
en c 13706
a w 13692
at t 13662
el y</w> 13500
er al</w> 13404
be en</w> 13404
on ly</w> 13368
us t</w> 13317
foot ball</w> 13308
in c 13285
a u 13232
th is</w> 13113
in to</w> 13106
f e 13016
b et 12990
ation s</w> 12951
ro p 12894
it e</w> 12846
19 6 12841
on g 12833
c o 12750
g en 12697
al s</w> 12627
am p 12585
st e 12569
ac k</w> 12561
m ov 12505
o ple</w> 12491
ur ing</w> 12483
the y</w> 12473
n ame</w> 12472
igh t</w> 12464
d es 12450
il e</w> 12396
an g 12351
m ar 12314
ac h 12311
ec on 12203
p op 12183
ig n 12167
r y</w> 12158
d ed</w> 12133
p os 12099
m ore</w> 12068
ou r</w> 12068
v er 12061
re s</w> 11993
m ade</w> 11989
an y</w> 11968
tim e</w> 11932
ab le</w> 11920
ab out</w> 11919
d ing</w> 11908
s e</w> 11777
m on 11678
A u 11646
re t 11621
S h 11591
m us 11552
ak e</w> 11543
e g 11525
an c 11524
o s</w> 11521
pop ul 11497
f am 11482
ser v 11476
u p</w> 11432
W or 11427
ear s</w> 11417
par t</w> 11388
n am 11387
ov er</w> 11377
ion al</w> 11348
i e</w> 11290
p r 11283
ol d</w> 11266
wh en</w> 11244
ac h</w> 11219
w rit 11217
nor th 11197
ur r 11191
o ff 11158
a th 11155
b er 11107
we en</w> 11043
Th is</w> 11030
il y</w> 11000
d o 10968
y p 10967
n ational</w> 10945
ol og 10932
pe ople</w> 10930
ing s</w> 10928
ou ld</w> 10919
i p</w> 10857
it ion</w> 10838
i m</w> 10826
f in 10805
e ar</w> 10779
Ne w</w> 10779
iv ers 10778
suc h</w> 10744
o h 10723
ount y</w> 10702
re f 10659
ic s</w> 10658
bet ween</w> 10568
an ce</w> 10544
pro v 10510
G re 10429
c ap 10412
oo d</w> 10395
play er</w> 10368
sp ec 10330
re m 10320
bec ame</w> 10313
S c 10302
W h 10199
B rit 10194
t on</w> 10130
l a 10119
con s 10109
b o 10074
19 4 10045
an n 9955
re le 9948
is s 9946
in ter 9942
C om 9931
A f 9928
ep t 9912
S p 9894
P ar 9894
th an</w> 9893
s m 9851
en g 9806
or s</w> 9795
O c 9773
0 0</w> 9731
b l 9709
1 0</w> 9676
C on 9652
ay s</w> 9630
n um 9629
i th 9580
oo k</w> 9555
S ou 9551
1 7 9539
c re 9531
em ent</w> 9481
19 5 9453
is ion</w> 9400
wh ere</w> 9380
in d 9371
w est</w> 9370
l ish</w> 9365
r en 9363
ul t 9339
s ub 9315
Wor ld</w> 9303
pro duc 9301
er ed</w> 9282
J ap 9272
s ing 9255
ic h 9248
p ol 9199
re l 9136
s ome</w> 9129
J an 9119
ev er</w> 9117
y ears</w> 9091
J u 9054
as e</w> 9053
or g 9039
I I</w> 9019
- de 9011
Eng lish</w> 8972
u ally</w> 8921
t al 8873
ur y</w> 8869
\ / 8867
a j 8841
h t</w> 8817
f il 8811
os e</w> 8803
p ubl 8788
est ern</w> 8778
th r 8767
am es</w> 8750
st ate</w> 8749
loc ated</w> 8729
e - 8724
sh ip</w> 8686
in t 8656
-de - 8584
P ro 8583
on d 8577
s l 8571
on s</w> 8566
c ol 8563
te am</w> 8548
in n 8545
ri v 8540
as h</w> 8525
ar d 8519
form er</w> 8492
over n 8489
s econ 8445
m s</w> 8425
o y 8423
k ing</w> 8422
P as 8388
it al</w> 8360
al bu 8313
w ay</w> 8283
de v 8268
d uring</w> 8262
c urr 8261
l in 8251
s ev 8224
ish ed</w> 8218
ch ar 8213
ap p 8198
at ive</w> 8188
a is</w> 8187
ri g 8176
lar g 8164
d r 8156
h el 8142
in a</w> 8139
J oh 8136
s ch 8127
t own</w> 8127
e br 8117
b and</w> 8104
o t</w> 8085
Th ey</w> 8074
oo l</w> 8074
t e</w> 8072
E u 8040
ivers ity</w> 8037
ent ly</w> 8026
b ot 8017
di v 8000
str ic 7993
un t 7988
ec t</w> 7986
y ear</w> 7980
di a</w> 7964
i o</w> 7958
A ug 7953
i k 7952
a z 7943
bu il 7876
are a</w> 7876
S ept 7874
m un 7856
th ree</w> 7840
ac c 7826
st ri 7809
ro w 7781
b ur 7778
p re 7763
19 3 7763
Sept ember</w> 7760
a use</w> 7751
sou th 7745
m at 7744
as on</w> 7733
Jan uary</w> 7727
d er 7721
2 0 7694
k ed</w> 7662
di ff 7630
o d</w> 7597
gr ou 7597
at ing</w> 7571
s el 7543
C ol 7532
D ec 7522
wor k</w> 7515
en d</w> 7514
M ay</w> 7496
Brit ish</w> 7488
w ell</w> 7487
Cal ais</w> 7487
00 0</w> 7474
ag ue</w> 7473
C ar 7455
or ig 7452
ro s 7447
N ov 7445
-de- Calais</w> 7438
Pas -de-Calais</w> 7438
R e 7430
ic t 7410
rele ased</w> 7378
it ies</w> 7375
to ber</w> 7367
Oc tober</w> 7359
g re 7356
F or 7339
ser ies</w> 7335
R om 7328
oc i 7315
Mar ch</w> 7310
i ed</w> 7282
for e</w> 7278
nor th</w> 7271
ne w</w> 7231
d ec 7217
al e</w> 7199
a ir 7195
di stric 7195
C an 7175
C ounty</w> 7161
in s</w> 7154
sh e</w> 7145
be g 7131
Au str 7130
m p 7121
Ju ly</w> 7114
as s</w> 7109
secon d</w> 7102
d ay</w> 7099
Austr al 7070
ste m</w> 7060
of ten</w> 7037
Aug ust</w> 7032
J une</w> 7030
G r 7029
albu m</w> 7029
Ger man</w> 7012
r ed</w> 7007
por t 7006
nam ed</w> 6991
u res</w> 6989
m ay</w> 6986
lan gu 6983
m et 6980
a il 6979
l ater</w> 6976
th ere</w> 6969
ag es</w> 6964
om et 6959
A c 6952
a h 6936
P h 6927
for m</w> 6923
S e 6913
A pri 6906
Apri l</w> 6906
ri st 6900
A s 6882
al ity</w> 6868
Eng land</w> 6846
ow er</w> 6841
C l 6832
c oun 6826
mus ic</w> 6820
wor ld</w> 6817
n d 6771
W il 6765
rec or 6743
Dec ember</w> 6740
y s 6738
h ist 6726
I s 6721
1 6 6712
th ough</w> 6687
r ap 6680
is m</w> 6675
en n 6670
includ ing</w> 6670
i el 6664
m o 6661
or t</w> 6660
play ed</w> 6660
t ran 6655
Nov ember</w> 6651
an e</w> 6632
a di 6608
f t</w> 6605
1 5 6601
b el 6599
s k 6593
ic ip 6591
th en</w> 6587
s ur 6556
le y</w> 6543
di e</w> 6534
S ch 6527
B e 6524
u al</w> 6519
em b 6498
I tal 6495
s im 6483
num ber</w> 6480
off ic 6475
ar i 6473
w estern</w> 6465
Sou th</w> 6462
di rec 6459
be ing</w> 6450
no w</w> 6448
o k 6434
l iv 6432
200 7</w> 6432
s u 6431
or t 6429
re st 6421
Un iversity</w> 6411
li ke</w> 6405
el op 6390
r u 6388
, 000</w> 6385
G e 6375
F ebr 6359
Febr uary</w> 6353
orig in 6338
oll ow 6322
r al</w> 6321
se ason</w> 6310
ac k 6307
unt il</w> 6305
F l 6295
Nor th</w> 6266
h im</w> 6265
t yp 6260
g overn 6259
l ed</w> 6255
f ess 6253
w ith 6249
un der</w> 6247
L ond 6241
id ent</w> 6237
diff er 6229
di ed</w> 6226
O r 6216
19 2 6216
g ame</w> 6196
O n</w> 6186
ar ds</w> 6186
r e</w> 6165
ist s</w> 6161
fam ily</w> 6158
S he</w> 6157
F ren 6154
n ed</w> 6132
et s</w> 6127
an ts</w> 6126
0 s</w> 6125
u r</w> 6114
the m</w> 6113
Lond on</w> 6108
s ol 6100
at h</w> 6098
ect ed</w> 6085
ect ion</w> 6077
thr ough</w> 6073
P r 6069
as h 6069
el ev 6062
w ould</w> 6061
B l 6056
ou s 6030
cent ury</w> 6020
st art 6013
op er 6004
u t</w> 5993
ver y</w> 5992
c er 5988
fil m</w> 5983
str uc 5961
k ey</w> 5958
ar t</w> 5957
bot h</w> 5953
f oun 5946
b ased</w> 5936
Joh n</w> 5912
er g 5907
M on 5906
nd ash</w> 5898
larg est</w> 5879
Fren ch</w> 5870
N ational</w> 5869
i e 5868
W ar</w> 5866
form ed</w> 5866
w ill</w> 5859
in v 5857
d re 5847
us s 5838
A d 5808
n o</w> 5801
at ur 5782
s ide</w> 5778
b ro 5776
Q u 5769
popul ation</w> 5769
In ter 5763
200 6</w> 5737
i ally</w> 5731
ro c 5731
st or 5729
cap ital</w> 5729
l y 5724
u b</w> 5718
P res 5704
Sc ot 5698
org an 5697
distric t</w> 5693
d - 5681
per i 5675
grou p</w> 5665
er y</w> 5658
an ese</w> 5647
is e</w> 5646
ec h 5642
sy stem</w> 5637
lan ds</w> 5631
de p 5628
m il 5627
et t 5624
e k</w> 5614
Y or 5614
G u 5612
c or 5602
olog y</w> 5596
en s</w> 5586
m od 5582
c ar 5563
w on</w> 5555
r a</w> 5551
/O )</w> 5548
dev elop 5547
f er 5537
( /O 5536
Ger many</w> 5520
1 5</w> 5509
H e 5503
v ers 5502
tr y</w> 5499
m ill 5494
i an 5489
aj or</w> 5484
o th 5483
s ame</w> 5471
Th ere</w> 5470
f ollow 5468
s a 5466
a ther</w> 5464
w ard</w> 5459
Le ague</w> 5450
1 1</w> 5439
li f 5429
ain s</w> 5422
l ine</w> 5421
be fore</w> 5412
B er 5411
por t</w> 5410
im es</w> 5401
t or</w> 5399
1 2</w> 5398
u l</w> 5396
200 8</w> 5382
wh ile</w> 5371
suc c 5368
B as 5361
at ure</w> 5361
2 0</w> 5355
o m</w> 5351
c ri 5344
ou se</w> 5340
ow ever</w> 5332
s ince</w> 5330
Ch rist 5318
us ually</w> 5317
ig n</w> 5314
sm all</w> 5311
ear ly</w> 5292
mun icip 5267
pro fess 5261
bec ause</w> 5260
ak ing</w> 5259
D e 5256
iz ed</w> 5254
Jap anese</w> 5252
b re 5236
oun c 5226
f our</w> 5220
Af ter</w> 5215
3 0</w> 5213
ain t 5204
ig h</w> 5202
ow s</w> 5183
R iv 5171
e w 5164
ast ern</w> 5164
t ri 5162
s up 5157
play s</w> 5149
ex t 5147
do m</w> 5138
g iv 5131
po in 5131
C ity</w> 5129
am m 5126
ul ar</w> 5116
sev eral</w> 5113
r on 5111
P ri 5105
ar ound</w> 5102
ic ally</w> 5099
ir d</w> 5096
p er</w> 5092
og rap 5082
d o</w> 5062
t it 5060
M us 5060
ch il 5057
s ign 5029
M an 5026
j o 5021
A t 5017
am s</w> 5002
e an</w> 4998
oc c 4991
R ep 4977
spec ies</w> 4962
ref er 4957
C ent 4949
pl ace</w> 4949
ou t 4937
g o 4931
1 8</w> 4913
s i 4907
a x 4907
el s</w> 4907
B ar 4904
E d 4903
langu age</w> 4901
com pl 4895
h igh 4888
lar ge</w> 4880
e ach</w> 4879
elev ision</w> 4875
S y 4869
w ater</w> 4831
m ain</w> 4828
200 5</w> 4817
st it 4800
dis c 4798
l ing</w> 4783
ar s</w> 4780
an im 4776
Yor k</w> 4772
S .</w> 4765
differ ent</w> 4756
B ra 4750
Ch ar 4742
P l 4736
cont in 4732
ac t</w> 4726
M in 4715
ist er</w> 4714
k m</w> 4703
enc es</w> 4703
o p</w> 4700
pl ac 4695
b i 4688
le ad 4688
ut ion</w> 4677
pol it 4675
B r 4665
K ing</w> 4663
1 6</w> 4648
rop ical</w> 4638
north ern</w> 4637
H ar 4626
1 3</w> 4612
res s</w> 4609
1 4</w> 4593
Riv er</w> 4572
n ot 4571
ib le</w> 4567
i um</w> 4565
h y 4560
govern ment</w> 4553
2 5</w> 4547
f iel 4546
amp ion 4540
a k</w> 4521
1 4 4517
pl ay</w> 4515
em s</w> 4514
ar ch 4510
ing dom</w> 4508
mill ion</w> 4508
G en 4505
ic k 4503
it t 4494
v ari 4488
ain st</w> 4480
ne ar</w> 4471
n er</w> 4469
H is</w> 4469
le g 4469
o st 4467
e y 4467
P ol 4464
ri es</w> 4454
t elevision</w> 4451
c ount 4450
ograp h 4450
n ing</w> 4449
t ic</w> 4448
on y</w> 4447
ul t</w> 4443
1 0 4441
c a 4424
writ ten</w> 4423
ter m</w> 4420
all er</w> 4418
ar ly</w> 4417
g l 4403
omet imes</w> 4390
t em 4375
sou th</w> 4369
W al 4367
oug ht</w> 4366
ne y</w> 4363
comp os 4360
gen er 4360
1 7</w> 4355
lif e</w> 4350
t ra 4337
m ajor</w> 4335
th ese</w> 4330
ex t</w> 4329
m e</w> 4324
a u</w> 4322
comm on</w> 4321
h um 4320
beg an</w> 4320
W est</w> 4319
b est</w> 4309
th er 4308
E l 4304
A s</w> 4299
ec ts</w> 4287
i er</w> 4285
ist an</w> 4283
se t</w> 4270
l ong</w> 4260
prov ince</w> 4260
n s</w> 4252
19 0 4247
er c 4241
E x 4232
st u 4227
ar m 4222
di st 4222
im port 4220
A b 4210
S er 4209
1 9</w> 4199
ag ainst</w> 4199
profess ional</w> 4197
E m 4194
B C</w> 4193
a e</w> 4192
Austral ia</w> 4185
t ur 4171
dep end 4168
tr ad 4162
id ed</w> 4159
ex am 4147
municip ality</w> 4143
f ul</w> 4141
ol d 4139
r at 4136
ul a</w> 4136
se e</w> 4131
curr ently</w> 4127
P ak 4124
om in 4123
ri d 4116
od y</w> 4116
coun try</w> 4105
Americ a</w> 4096
y - 4094
. S.</w> 4093
b as 4088
ic k</w> 4085
ch est 4081
T r 4079
end ed</w> 4074
C or 4072
sc i 4066
F or</w> 4052
200 9</w> 4052
b ack</w> 4050
ak es</w> 4048
ur ric 4042
Ar m 4039
b ook</w> 4029
if e</w> 4024
ur ch</w> 4023
a ir</w> 4016
S w 4014
s it 4011
K ingdom</w> 4011
wor d</w> 4009
d u 4006
p s</w> 4004
uc h</w> 4001
Rep ubl 4000
it h</w> 3990
sp e 3975
en ed</w> 3971
200 4</w> 3970
st ud 3963
o u</w> 3953
R ob 3948
1 2 3946
P ic 3941
ic ian</w> 3939
ir on 3923
cons id 3920
s ometimes</w> 3916
roc k</w> 3912
emb ers</w> 3911
buil t</w> 3910
in d</w> 3906
Wil li 3905
a ug 3904
R uss 3904
includ e</w> 3902
200 0</w> 3900
fam ous</w> 3899
le v 3898
t y</w> 3893
ain ed</w> 3889
ad a</w> 3887
if ic 3886
Jap an</w> 3883
D i 3878
O ne</w> 3877
2 4</w> 3876
cre ated</w> 3875
in ed</w> 3867
U .S.</w> 3853
sh ow</w> 3850
m ember</w> 3849
Pres ident</w> 3848
start ed</w> 3839
i ans</w> 3838
18 9 3836
l a</w> 3835
di o</w> 3833
ampion ship</w> 3829
ir ed</w> 3827
B el 3825
ov e</w> 3824
char ac 3819
rop e</w> 3817
v is 3816
on - 3815
o on</w> 3812
h ome</w> 3812
an ish</w> 3809
c es</w> 3808
de o</w> 3807
e ast</w> 3796
z er 3796
v ol 3796
iv ed</w> 3788
c y 3782
cont ro 3773
E ast</w> 3769
r ul 3766
res p 3760
a h</w> 3757
s ong</w> 3755
pres s 3755
l ast</w> 3741
Eu ro 3739
ch ang 3721
f ul 3714
hist ory</w> 3708
popul ar</w> 3702
h er 3701
import ant</w> 3699
us ing</w> 3692
il le</w> 3691
app ear 3684
1 3 3672
a ut 3670
ad d 3669
Wh en</w> 3666
f un 3663
de ath</w> 3661
b an 3657
A t</w> 3653
publ ished</w> 3651
O ther</w> 3650
S u 3642
i ent</w> 3639
Nor d- 3637
c r 3633
oc k</w> 3633
f ather</w> 3632
n ia</w> 3630
2 1</w> 3626
re qu 3626
t re 3623
or d 3621
c oll 3618
M ich 3616
g e 3612
fl u 3612
des cri 3611
Af ric 3608
sing le</w> 3606
in es</w> 3604
m ag 3598
qu e</w> 3597
l o 3595
Nord- Pas-de-Calais</w> 3592
m ake</w> 3590
min ist 3589
Eu rope</w> 3587
m ot 3582
e qu 3572
Rom an</w> 3572
urric ane</w> 3572
m embers</w> 3569
A is 3561
st at 3559
i ev 3554
mov ed</w> 3546
l er</w> 3544
pro c 3539
Ais ne</w> 3538
Ital ian</w> 3537
W e 3526
des ign 3525
igh t 3520
H er 3512
di d</w> 3510
e ther</w> 3509
au th 3509
um m 3508
Bra z 3508
th ird</w> 3507
Cal v 3503
ch es</w> 3500
sh ire</w> 3500
v al 3495
c al 3494
giv en</w> 3494
ri ed</w> 3493
B o 3481
hel d</w> 3478
ev en</w> 3475
u st 3472
h ol 3468
foun ded</w> 3466
bur g</w> 3464
dre n</w> 3464
j ect</w> 3457
v e</w> 3456
av ing</w> 3455
le ge</w> 3453
id d 3453
c ounty</w> 3451
with in</w> 3450
h al 3442
us es</w> 3437
Republ ic</w> 3429
sch ool</w> 3423
sel f</w> 3419
Ph il 3419
att le</w> 3418
Euro pe 3418
oug h 3411
H owever</w> 3410
rig ht</w> 3409
od e</w> 3408
cl ub</w> 3407
er t</w> 3404
un der 3398
an a</w> 3397
b ody</w> 3396
M a 3393
M c 3389
comm un 3389
ros s</w> 3384
al ong</w> 3382
ch an 3380
ent al</w> 3379
ex p 3377
y n 3364
2 3</w> 3361
ab l 3360
e ff 3356
s oci 3355
riv er</w> 3349
1 \/ 3344
if ic</w> 3333
am a</w> 3330
200 1</w> 3327
pres ent 3327
Th e 3325
Cal i 3323
2 2</w> 3322
iz ation</w> 3321
for d</w> 3316
Nor man 3313
H ist 3306
ri c</w> 3304
Pak istan</w> 3304
writ er</w> 3301
an ia</w> 3298
h igh</w> 3297
P er 3297
J ames</w> 3297
i f</w> 3295
18 8 3292
u es</w> 3291
h am</w> 3288
m uch</w> 3287
exam ple</w> 3282
se - 3281
ad os</w> 3277
ut e</w> 3277
vi deo</w> 3276
r ing</w> 3273
peri od</w> 3273
In di 3271
at ely</w> 3263
ic a</w> 3261
at or</w> 3260
t ropical</w> 3259
p ass 3257
am b 3251
P e 3249
l ess</w> 3243
cl ass 3241
D ist 3239
Sp anish</w> 3236
follow ing</w> 3236
bec ome</w> 3231
st ill</w> 3222
produc ed</w> 3213
P art 3199
Qu e 3199
op h 3191
er ing</w> 3187
cent ral</w> 3187
2 6</w> 3185
ag o</w> 3185
le ft</w> 3182
R o 3177
et y</w> 3176
200 3</w> 3175
r ac 3173
it er 3171
sa id</w> 3169
D u 3168
Calv ados</w> 3168
n ov 3162
Cali for 3159
rec e 3158
Europe an</w> 3157
oun t</w> 3155
r is 3151
il ity</w> 3151
south ern</w> 3149
18 6 3146
inn ing</w> 3145
In dia</w> 3144
St ate</w> 3143
of f</w> 3143
g ames</w> 3142
Gre ek</w> 3139
v ill 3135
Ge or 3135
publ ic</w> 3130
c are 3129
I r 3129
Fl or 3128
D av 3123
Willi am</w> 3123
th ern</w> 3119
he ad</w> 3119
if ied</w> 3115
count ries</w> 3115
P et 3114
i x 3108
B u 3107
at s</w> 3105
o - 3102
2 7</w> 3102
y ing</w> 3098
ic es</w> 3095
ir c 3094
An g 3088
ch em 3085
fiel d</w> 3081
on es</w> 3079
origin al</w> 3078
Califor nia</w> 3078
an other</w> 3077
ber g</w> 3077
k er</w> 3076
v ent 3076
a i</w> 3075
H en 3073
enc y</w> 3070
p ed</w> 3069
Un ion</w> 3068
D is 3067
tim es</w> 3063
or der</w> 3061
5 0</w> 3060
iv ely</w> 3060
M al 3059
iz e</w> 3056
w om 3052
n et 3051
e w</w> 3045
wh at</w> 3043
p ower</w> 3041
ens e</w> 3040
Norman die</w> 3038
ain e</w> 3037
2 8</w> 3036
mod ern</w> 3034
at a</w> 3031
disc over 3031
S ome</w> 3030
is land</w> 3030
oc key</w> 3027
part ic 3027
Bas se- 3026
es p 3022
Basse- Normandie</w> 3022
L o 3021
M e 3021
s ong 3020
succ ess 3016
f ive</w> 3013
V al 3013
ech n 3013
h ar 3012
t ook</w> 3011
chil dren</w> 3011
tit le</w> 3006
i ous</w> 3004
Th ese</w> 3002
gu it 2996
oo ks</w> 2987
ell s</w> 2987
refer red</w> 2983
S wit 2982
an g</w> 2981
c ould</w> 2980
serv ed</w> 2975
st and 2973
i - 2971
b ed</w> 2966
L ou 2963
wor ks</w> 2962
ot al</w> 2961
Swit zer 2953
At lan 2952
Pro v 2948
Switzer land</w> 2948
pro t 2946
2 9</w> 2945
I ts</w> 2945
y oun 2943
T e 2943
L at 2942
I II</w> 2942
compl et 2941
l ive</w> 2937
c ult 2935
l ong 2924
V i 2924
200 2</w> 2920
act or</w> 2920
20 10</w> 2920
offic ial</w> 2919
ph ys 2910
comp any</w> 2905
ec tr 2903
mov ie</w> 2900
a ff 2896
art h</w> 2896
s ite</w> 2895
foot b 2892
g er</w> 2890
con duc 2889
id s</w> 2883
me ans</w> 2883
form ation</w> 2882
consid ered</w> 2877
Geor ge</w> 2876
iv es</w> 2860
18 7 2859
de f 2858
o l</w> 2853
per son</w> 2853
sim il 2853
care er</w> 2852
P al 2850
Dist ric 2846
se qu 2839
C ap 2835
to p</w> 2829
ap pro 2824
develop ed</w> 2821
k a</w> 2820
p ur 2817
W W 2815
i us</w> 2813
id es</w> 2810
play ing</w> 2808
Distric t</w> 2803
z e</w> 2801
it ions</w> 2799
footb aller</w> 2799
ing ton</w> 2798
a il</w> 2796
em p 2796
R oy 2793
c an 2790
Inter national</w> 2784
l et 2782
comm only</w> 2782
row n</w> 2780
D uring</w> 2779
em ents</w> 2774
er n 2768
M or 2766
is ed</w> 2763
it ary</w> 2761
od ay</w> 2760
og ether</w> 2759
hist or 2759
est abl 2756
vers ion</w> 2756
ur al</w> 2751
ast er</w> 2750
c op 2748
Gre at</w> 2748
curr ent</w> 2746
w ar 2745
ic o</w> 2743
t ions</w> 2742
im e</w> 2742
cent er</w> 2740
C o 2739
v ed</w> 2738
A le 2736
w ays</w> 2736
c ant 2732
en ds</w> 2731
typ e</w> 2731
un g 2730
B ur 2729
id ent 2729
f ace</w> 2727
a ur 2726
c el 2725
A n</w> 2723
de l</w> 2720
ev ol 2720
in s 2718
d ra 2716
ne w 2716
pos s 2714
K or 2713
r .</w> 2710
pl es</w> 2708
S aint 2707
ret ur 2706
T ur 2705
t ow 2702
oc k 2701
ep t</w> 2696
id a</w> 2695
B i 2694
k ill 2689
an s 2688
sing er</w> 2686
part s</w> 2685
t ure</w> 2684
Can ada</w> 2681
l in</w> 2672
t ain</w> 2670
in depend 2669
st ation</w> 2668
b ir 2666
cl a 2665
Saint - 2663
N o 2662
rid ge</w> 2661
c our 2658
Can adi 2657
aug h 2656
L i 2654
charac ter</w> 2654
l ate</w> 2650
199 9</w> 2648
G l 2646
e f 2645
al ist</w> 2643
m aking</w> 2631
th ose</w> 2631
re ad 2631
B al 2630
es - 2629
o x 2624
c ame</w> 2624
il ian</w> 2621
Ch ampionship</w> 2618
art ic 2617
oun d 2612
R ich 2610
v er</w> 2609
j ust</w> 2608
J os 2607
we b 2607
S m 2604
ol s</w> 2604
Part y</w> 2602
d em 2601
w id 2601
plac ed</w> 2601
U S 2600
i de 2599
R ec 2597
C ath 2597
ro w</w> 2597
Char les</w> 2593
e a</w> 2591
poin t</w> 2587
w ent</w> 2586
al though</w> 2583
ol e</w> 2582
gr ound</w> 2582
cl os 2580
p i 2571
north west</w> 2571
at ures</w> 2568
as es</w> 2566
F ir 2565
k e 2563
et h</w> 2562
E mp 2561
an ing</w> 2561
rest ling</w> 2560
f ri 2557
ro te</w> 2557
n atur 2556
m iss 2555
per or</w> 2555
ly mp 2552
w ar</w> 2549
Hist ory</w> 2547
Roy al</w> 2546
v es</w> 2545
An t 2545
Sch ool</w> 2543
C ounc 2535
ra m</w> 2533
S al 2530
Ch ina</w> 2528
M ay 2527
d et 2526
d .</w> 2524
ad minist 2524
C a 2522
it ional</w> 2522
Austral ian</w> 2522
F re 2521
1\/ 4</w> 2519
A qu 2518
w rote</w> 2517
el ect 2517
man ag 2516
Ital y</w> 2516
st y 2515
r un 2511
F oot 2511
O lymp 2511
ar ch</w> 2510
t ogether</w> 2509
e p</w> 2509
s ec 2508
w ide</w> 2507
um b 2507
s al 2503
E v 2502
vi ew</w> 2502
i x</w> 2501
th s</w> 2501
loc al</w> 2500
am ent</w> 2499
ex pl 2499
S ar 2496
u ter</w> 2495
simil ar</w> 2491
sh ort</w> 2482
recor d</w> 2482
i or</w> 2481
f our 2481
sy m 2481
in o</w> 2480
m ed 2479
se par 2476
chan ge</w> 2476
d ays</w> 2474
pos ition</w> 2474
b us 2473
m ult 2471
ex c 2463
m ain 2462
d own</w> 2460
S l 2456
t ing</w> 2455
st ates</w> 2455
c o</w> 2454
res s 2454
ro le</w> 2453
H ol 2452
d ue</w> 2450
h or 2449
em at 2448
L u 2445
inter national</w> 2444
h om 2440
m other</w> 2438
ip p 2438
V ir 2434
ograph y</w> 2433
w in</w> 2430
Emp ire</w> 2429
p at 2428
di es</w> 2428
S im 2425
Hen ry</w> 2425
u ed</w> 2423
l im 2422
umm er</w> 2419
fe w</w> 2416
en a</w> 2414
Foot ball</w> 2413
ter n 2412
Au stri 2411
ous ly</w> 2411
i er 2406
t a</w> 2405
m en</w> 2404
comp et 2403
Com p 2403
pres ent</w> 2401
in flu 2398
Par k</w> 2398
act ion</w> 2396
M art 2395
bec om 2394
ud e</w> 2392
stor m</w> 2392
cant on</w> 2390
n on- 2388
form s</w> 2387
a w</w> 2386
tran s 2383
i ther</w> 2381
p ly</w> 2380
t ak 2377
h ab 2377
are as</w> 2374
R eg 2372
me di 2371
O n 2364
Col lege</w> 2362
Ch urch</w> 2360
3 1</w> 2358
in f 2358
P ort 2357
Lo ire</w> 2355
ran ge</w> 2354
polit ical</w> 2354
la w</w> 2350
au l</w> 2348
c irc 2347
G iron 2346
eng th</w> 2343
s ett 2340
n a</w> 2340
M ost</w> 2340
er a</w> 2333
erg y</w> 2333
d augh 2329
M at 2328
C up</w> 2328
v e 2322
Giron de</w> 2322
S up 2320
lan d 2320
Christ ian</w> 2319
os s 2318
Fir st</w> 2318
t echn 2317
w ood</w> 2316
origin ally</w> 2315
with out</w> 2311
M et 2310
W estern</w> 2310
el ectr 2309
t otal</w> 2307
d oc 2307
en - 2307
Scot land</w> 2307
C .</w> 2306
mat ch</w> 2305
op e</w> 2304
t ain 2303
do es</w> 2303
18 5 2301
me aning</w> 2299
e th 2297
K ar 2296
m ents</w> 2295
Is land</w> 2295
W ik 2294
c at 2292
Afric a</w> 2287
y r 2286
s our 2285
a i 2284
l ab 2283
e astern</w> 2283
ic an</w> 2281
St .</w> 2280
si x</w> 2279
M ed 2277
ass oci 2274
f ac 2272
st ems</w> 2272
I re 2271
H ouse</w> 2264
Ch in 2262
resp on 2262
e m</w> 2259
ev ent</w> 2259
ab ly</w> 2258
cy cl 2257
includ ed</w> 2255
idd le</w> 2254
n ext</w> 2252
pro g 2251
per s 2248
olog ical</w> 2248
Ire land</w> 2248
m ount 2247
B ro 2246
includ es</w> 2246
liv ing</w> 2246
ag ain</w> 2243
L a</w> 2241
v oc 2241
s of 2239
de fin 2238
mar ried</w> 2238
de fe 2237
il s</w> 2235
ar g 2231
ar die</w> 2231
vill age</w> 2231
L or 2230
l ight</w> 2229
Pic ardie</w> 2229
S an</w> 2223
or ies</w> 2223
A p 2221
Cent ral</w> 2221
T er 2220
w ards</w> 2218
Canadi an</w> 2218
ounc ed</w> 2215
met al</w> 2214
ug g 2209
W ar 2207
se a</w> 2205
ro l 2199
1 00</w> 2197
M il 2196
gen eral</w> 2196
Re fer 2194
s w 2193
w ife</w> 2192
Gen eral</w> 2191
18 4 2186
p ow 2185
Th om 2184
mar k 2183
G overn 2181
h aving</w> 2177
ens us</w> 2177
w at 2176
g ran 2175
h ouse</w> 2175
s qu 2169
Gr and</w> 2169
ind u 2168
S ec 2167
c .</w> 2166
ro duc 2166
ach ed</w> 2165
Min ister</w> 2165
he ad 2164
chest ra</w> 2163
k y</w> 2162
ne l</w> 2161
Vir g 2160
Braz ilian</w> 2159
b ooks</w> 2158
1 . 2153
M o 2150
M ex 2150
com b 2150
E arth</w> 2149
st re 2149
lev el</w> 2149
h urricane</w> 2148
it aine</w> 2142
Aqu itaine</w> 2142
Counc il</w> 2140
e ds</w> 2138
hum an</w> 2138
ad em 2136
og n 2135
I m 2131
l ist</w> 2130
T V</w> 2130
am ong</w> 2130
Fran c 2128
Lat in</w> 2126
p ut</w> 2124
d a</w> 2124
D iv 2123
av es</w> 2123
B or 2122
ou th</w> 2122
Atlan tic</w> 2122
P aul</w> 2121
R h 2120
le - 2119
Dav id</w> 2119
al th</w> 2118
con n 2118
mil es</w> 2117
T ri 2116
rece ived</w> 2116
en e</w> 2114
ie f</w> 2114
establ ished</w> 2112
ip s</w> 2110
y th 2108
Rob ert</w> 2108
m id 2105
oo d 2102
ic ation</w> 2099
inc re 2094
f ur 2090
mat er 2090
A g 2089
g o</w> 2089
com e</w> 2089
ol ic</w> 2088
Se a</w> 2088
d am 2086
or ity</w> 2085
vari ous</w> 2085
T w 2084
a el</w> 2081
econ om 2080
e e</w> 2077
y s</w> 2077
er - 2077
199 8</w> 2077
a g</w> 2076
en ing</w> 2076
itt le</w> 2075
ap pl 2072
Ne w 2072
Flor ida</w> 2072
or ed</w> 2070
F in 2067
b ar 2066
A ward</w> 2065
For m 2065
on om 2064
WW E</w> 2061
o x</w> 2057
ar ded</w> 2057
D ep 2056
J er 2055
N H 2054
in e 2054
M any</w> 2052
av y</w> 2052
or b 2051
v ille</w> 2050
end ar</w> 2050
E r 2049
en der</w> 2047
bel iev 2045
langu ages</w> 2043
th em 2042
x im 2039
in k</w> 2039
Bel g 2037
t ake</w> 2034
rig h 2030
D ut 2029
Refer ences</w> 2029
ep is 2028
V ict 2024
d el 2023
ch e</w> 2022
on ic</w> 2021
Al l</w> 2020
pr inc 2016
daugh ter</w> 2014
As ia</w> 2013
Ale x 2012
an ds</w> 2006
v o 2002
mil itary</w> 2001
e ither</w> 2000
y m 2000
gener ally</w> 2000
chang ed</w> 1999
act iv 1998
199 4</w> 1996
Par is</w> 1995
(/O 200 1995
Sw ed 1995
adi um</w> 1991
199 6</w> 1990
A ir 1989
ist ed</w> 1989
d ate</w> 1988
ep h 1988
rel ig 1987
f act 1986
c rit 1985
jo ined</w> 1985
u k 1984
1 , 1983
F ed 1982
y l 1981
it an</w> 1980
po st 1980
wh ite</w> 1979
est s</w> 1978
comp uter</w> 1978
ber t</w> 1977
int roduc 1977
gr ad 1976
199 7</w> 1976
natur al</w> 1972
b le</w> 1971
ro y 1971
iv al</w> 1971
Chin ese</w> 1969
pro b 1967
Scot t 1965
appear ed</w> 1964
f ree</w> 1963
se en</w> 1963
buil ding</w> 1961
is on</w> 1959
pl an 1958
col or</w> 1958
sh ar 1956
li ament</w> 1956
U K</w> 1955
st ory</w> 1954
le ar</w> 1953
m a</w> 1947
J o 1947
tak en</w> 1947
re - 1945
ev ery</w> 1945
in ation</w> 1943
con cer 1943
M el 1942
op s</w> 1940
Russ ian</w> 1940
rel ated</w> 1938
am ed</w> 1937
de st 1937
i et</w> 1935
oun ds</w> 1932
Que en</w> 1932
recor ded</w> 1930
lead er</w> 1928
sit es</w> 1928
le ad</w> 1927
the ast</w> 1926
s old</w> 1922
h owever</w> 1922
ot s</w> 1921
fin al</w> 1920
pre vi 1920
discover ed</w> 1919
O ff 1918
ain t</w> 1915
Al l 1912
on t 1911
tr av 1910
d ro 1908
north - 1906
B y</w> 1903
ra ft</w> 1903
cal endar</w> 1903
r ation</w> 1902
en ergy</w> 1902
wor ked</w> 1902
tw are</w> 1902
R ed</w> 1901
ow ed</w> 1900
199 5</w> 1896
b ran 1895
liv ed</w> 1895
ic tion</w> 1894
Mus ic</w> 1893
Z e 1891
re present 1891
ph il 1890
or ia</w> 1887
inv ol 1883
s om 1882
t our 1882
ap er</w> 1881
ed uc 1881
ath emat 1881
h on 1880
w in 1880
4 0</w> 1879
Ang el 1879
a p</w> 1878
ent h</w> 1878
l iter 1877
6 0</w> 1872
ac ks</w> 1872
ev er 1872
fun c 1872
om b 1871
con c 1871
ac e 1869
oth ers</w> 1869
p en 1868
B en 1867
chem ical</w> 1862
Scott ish</w> 1862
for man 1861
ful l</w> 1861
sci ence</w> 1859
i pe 1858
h ow</w> 1856
end ing</w> 1856
Indi an</w> 1856
E g 1854
W ind 1854
div ided</w> 1854
ow n 1853
D em 1852
al es</w> 1848
ter rit 1848
ell ing</w> 1848
f ood</w> 1847
ot e</w> 1847
rec ogn 1847
contro l</w> 1846
f em 1844
P ays</w> 1843
a - 1840
tran sl 1840
ac ross</w> 1839
As soci 1839
ec e</w> 1837
pos ed</w> 1836
f re 1835
con struc 1834
Em peror</w> 1833
ri p 1832
all s</w> 1831
R os 1830
por ted</w> 1830
be l</w> 1828
g et</w> 1827
199 2</w> 1827
est ed</w> 1825
Al though</w> 1825
te ams</w> 1825
qu art 1824
Sp ain</w> 1824
o is</w> 1823
t oday</w> 1822
u ated</w> 1821
T re 1815
h im 1814
im m 1813
serv ice</w> 1813
I l 1812
f ig 1811
J ul 1810
anc es</w> 1810
south west</w> 1810
offic ially</w> 1810
ne t</w> 1809
bu t 1808
c ast 1806
sy stems</w> 1806
nov el</w> 1806
0 . 1805
mo st 1805
sim ply</w> 1805
div id 1804
cla im 1803
T or 1801
on a</w> 1801
be h 1800
n ess</w> 1799
r o</w> 1798
M ad 1798
el ected</w> 1798
un d 1797
F rom</w> 1796
str um 1794
compos er</w> 1792
in st 1791
ough out</w> 1791
m os 1790
ec h</w> 1789
g ave</w> 1787
z a</w> 1787
tem per 1786
S ov 1785
197 9</w> 1781
Arm en 1780
or ts</w> 1777
ion ally</w> 1777
Rich ard</w> 1777
i re 1776
M ac 1775
Ber lin</w> 1775
M ag 1773
199 3</w> 1773
ste ad</w> 1773
pl ants</w> 1772
c ities</w> 1769
s ize</w> 1768
aw ay</w> 1768
D ar 1767
develop ment</w> 1767
Dut ch</w> 1767
c amp 1765
m on</w> 1765
c ar</w> 1764
F ri 1764
C am 1764
rele ase</w> 1764
oc ial</w> 1763
tain ment</w> 1762
r is</w> 1760
Wh ile</w> 1760
c iv 1759
ard y</w> 1759
ran g 1755
se arch</w> 1754
Nor thern</w> 1754
qu es</w> 1753
d riv 1752
st er</w> 1752
co ast</w> 1752
stud y</w> 1752
r ich</w> 1751
ent ed</w> 1751
auth or</w> 1751
G i 1750
in formation</w> 1750
sp ort</w> 1750
sty le</w> 1750
th ought</w> 1749
al d</w> 1749
esp ec 1749
R es 1746
appro xim 1746
espec ially</w> 1746
g row 1743
di g 1743
S ol 1742
ist ics</w> 1742
song s</w> 1740
in ia</w> 1739
bet ter</w> 1738
act ive</w> 1737
vi ol 1737
I S 1736
Thom as</w> 1736
Ac cor 1734
typ es</w> 1733
ar a</w> 1730
ar ies</w> 1730
ion ary</w> 1730
ref er</w> 1730
se at</w> 1728
A z 1726
b our 1726
ow a</w> 1726
L ake</w> 1725
ab ility</w> 1725
198 1</w> 1724
bo ard</w> 1724
gre at</w> 1722
sur face</w> 1722
S ince</w> 1721
in it 1720
ub e</w> 1719
com es</w> 1718
act ress</w> 1718
vi ew 1718
ear li 1717
sur v 1716
most ly</w> 1714
d ers</w> 1712
B attle</w> 1712
sh ips</w> 1712
wom en</w> 1712
ur b 1711
wor ds</w> 1711
part y</w> 1711
mov ement</w> 1710
produc tion</w> 1710
nam es</w> 1709
er o 1707
high est</w> 1707
L in 1704
op ened</w> 1704
ch ed</w> 1703
198 0</w> 1703
in ing</w> 1702
for ce</w> 1702
Rec or 1702
al most</w> 1699
sh ould</w> 1696
ra in</w> 1696
u el</w> 1695
P ers 1695
H all</w> 1690
bus in 1690
bl ack</w> 1689
H or 1688
er ation</w> 1688
youn g</w> 1686
um e</w> 1685
t ro 1684
m it 1682
NH L</w> 1682
m ust</w> 1681
ec ut 1681
per formed</w> 1681
igh ts</w> 1681
lin es</w> 1681
di stri 1680
su per 1680
om s</w> 1679
per forman 1678
Accor ding</w> 1678
d en 1677
ain ing</w> 1677
Dis ney</w> 1677
anc ient</w> 1676
y a</w> 1675
199 0</w> 1675
in t</w> 1674
pr act 1673
hal f</w> 1672
P ac 1671
play ers</w> 1671
me as 1671
the ory</w> 1670
kill ed</w> 1670
pro gr 1669
us h 1667
d ings</w> 1666
success ful</w> 1666
f if 1663
bro ther</w> 1663
p age</w> 1662
in strum 1661
B ec 1660
ra il 1660
prog ram</w> 1659
Wal es</w> 1657
Mich ael</w> 1657
Prov ince</w> 1657
grou ps</w> 1656
l s</w> 1655
f ron 1654
ill s</w> 1652
le t</w> 1651
c le</w> 1650
D el 1650
Wik ipe 1650
wor king</w> 1649
197 4</w> 1647
Sov iet</w> 1647
u n</w> 1646
n uc 1644
g ood</w> 1643
i j 1641
div ision</w> 1641
stu dio</w> 1641
u x</w> 1640
un g</w> 1640
Brit ain</w> 1640
art s</w> 1639
Cl ub</w> 1639
phil os 1639
Cath olic</w> 1637
on ce</w> 1636
descri bed</w> 1635
ens ive</w> 1634
W ith</w> 1633
j ects</w> 1632
sign ed</w> 1632
sci ent 1631
I owa</w> 1630
k il 1628
J ew 1627
En ter 1627
por ts</w> 1627
hel p</w> 1627
four th</w> 1627
y ou</w> 1624
anim als</w> 1622
ch urch</w> 1621
av er 1621
P at 1620
a c</w> 1619
independ ent</w> 1618
ific ation</w> 1617
e as 1615
us h</w> 1614
C r 1613
198 6</w> 1612
198 9</w> 1612
north western</w> 1612
yn ast 1612
Pet er</w> 1612
H ockey</w> 1611
n ight</w> 1609
I sl 1609
res ult</w> 1609
amp ion</w> 1609
sof tware</w> 1608
b es</w> 1607
Du ke</w> 1605
S oci 1604
old est</w> 1604
O k 1603
Lou is</w> 1603
St re 1601
198 2</w> 1601
un iversity</w> 1599
distri bu 1599
ic ations</w> 1597
y st 1595
m athemat 1595
ent ial</w> 1595
ru n</w> 1595
V er 1592
K h 1592
b ers</w> 1592
H am 1591
i als</w> 1590
e k 1589
Wikipe dia</w> 1589
s urr 1588
M iss 1588
198 4</w> 1588
Mon t 1588
se y</w> 1587
F er 1586
ed ed</w> 1586
rop ol 1586
I f</w> 1585
h ear 1584
for ces</w> 1584
hab it 1584
it self</w> 1582
wh ose</w> 1581
Ar ch 1580
Eg yp 1580
r ative</w> 1579
ect ure</w> 1579
l ength</w> 1578
P o 1578
polit ician</w> 1578
Mex ico</w> 1578
in divid 1575
sev en</w> 1575
direc tor</w> 1575
c over 1574
D an 1574
sup port</w> 1573
d ' 1572
2 . 1571
W ash 1571
gen us</w> 1571
L os</w> 1569
the dr 1569
r ace</w> 1568
S ir</w> 1568
cl ose</w> 1568
contin ued</w> 1568
i que</w> 1567
st ar</w> 1567
as ons</w> 1567
C at 1566
le ast</w> 1566
Ac adem 1565
18 3 1564
l d 1563
ab ove</w> 1562
li z 1562
spec ial</w> 1562
st age</w> 1560
sh ap 1558
thr oughout</w> 1558
him self</w> 1558
197 0</w> 1557
st ar 1555
cont ains</w> 1555
W restling</w> 1554
S am 1552
fe atures</w> 1552
l at 1551
M ic 1549
l og 1548
ail able</w> 1547
trad itional</w> 1547
f ish</w> 1546
at ory</w> 1546
sp ace</w> 1546
est im 1546
start ing</w> 1546
m ent 1545
ak er</w> 1545
pers on 1545
me th 1544
ro ad</w> 1543
Associ ation</w> 1541
du ce</w> 1540
H er</w> 1539
M os 1539
S il 1539
ev ents</w> 1539
e um</w> 1538
i ple</w> 1536
t ly</w> 1535
U r 1535
197 5</w> 1535
ish ing</w> 1535
Pri me</w> 1533
Arm y</w> 1533
B an 1529
199 1</w> 1529
ros s 1529
proc ess</w> 1529
ul arly</w> 1528
south - 1528
ca used</w> 1528
proc ess 1528
pri v 1527
Virg inia</w> 1527
th re 1526
S ant 1525
D ay</w> 1520
\ /O 1518
ay er</w> 1516
ref ers</w> 1516
d y</w> 1515
ret ired</w> 1515
h and 1514
guit ar</w> 1514
Pac ific</w> 1514
. C.</w> 1513
off ice</w> 1512
act ers</w> 1511
a ul 1509
T o</w> 1509
pl ant</w> 1509
s o 1507
v on</w> 1507
is s</w> 1507
197 3</w> 1507
co - 1506
n ever</w> 1504
T ex 1504
S ax 1502
approxim ately</w> 1502
l ost</w> 1501
ag re 1501
Ch ic 1500
Wash ington</w> 1500
k m 1498
le ague</w> 1497
ist ic</w> 1497
e ball</w> 1496
17 9 1495
lead ing</w> 1495
con tr 1493
p ian 1492
S atur 1492
arch it 1491
B est</w> 1490
Al p 1489
Ar g 1489
D on 1488
S ing 1487
design ed</w> 1487
tr ack</w> 1486
nor m 1486
bur g 1486
Pr inc 1486
oc rat 1485
g est</w> 1484
av ailable</w> 1484
enc ed</w> 1483
i g</w> 1482
ad y</w> 1482
o o</w> 1481
O p 1481
ow ing</w> 1481
e x</w> 1479
D en 1479
Par liament</w> 1479
sh ows</w> 1478
a e 1477
\/O /</w> 1477
M i 1475
ot a</w> 1475
str ong</w> 1474
ing u 1473
d Ã</w> 1472
g ar 1472
ow ned</w> 1471
f ol 1470
D r 1469
E astern</w> 1469
Form ula</w> 1469
G od</w> 1468
re placed</w> 1468
it ing</w> 1467
ell ow</w> 1467
197 7</w> 1467
mov e</w> 1467
18 0 1466
cons ists</w> 1466
net work</w> 1466
h ost 1465
v en 1465
Div ision</w> 1465
ynast y</w> 1465
Y ou</w> 1464
in - 1463
de but</w> 1463
B ay</w> 1462
i res</w> 1461
d ata</w> 1461
in i</w> 1461
v iron 1460
196 7</w> 1460
G al 1458
ap t 1458
int end 1458
Port ug 1458
con d 1457
un it</w> 1456
out side</w> 1456
d en</w> 1455
C ast 1455
Recor ds</w> 1454
Academ y</w> 1454
e ase</w> 1453
comp an 1453
Bl ack</w> 1453
sour ce</w> 1453
p ages</w> 1452
L ab 1452
Pr ince</w> 1450
U S</w> 1449
C our 1449
organ ization</w> 1449
ul l</w> 1448
res t</w> 1448
c am 1447
em pl 1447
m or 1446
our n 1446
s il 1445
Is lands</w> 1445
et ic</w> 1444
oun ded</w> 1444
op en</w> 1443
Sup er</w> 1443
ra di 1442
B BC</w> 1441
ect ive</w> 1440
an - 1439
197 6</w> 1439
Ed ward</w> 1439
introduc ed</w> 1439
0 ,000</w> 1435
num bers</w> 1435
G old 1433
s ugg 1432
f all</w> 1432
Vict oria</w> 1432
l ow</w> 1431
f ed 1431
T ran 1431
G ames</w> 1430
198 3</w> 1430
des ign</w> 1430
Oc ean</w> 1429
197 2</w> 1427
196 9</w> 1427
inn er</w> 1427
cl im 1426
Angel es</w> 1426
sm aller</w> 1425
Ge org 1425
H urricane</w> 1424
Enter tainment</w> 1424
h un 1423
et er</w> 1423
cl ass</w> 1423
si x 1421
g en</w> 1419
st on</w> 1419
le ar 1419
Tex as</w> 1417
h ost</w> 1416
198 7</w> 1416
bro ad 1416
M ary</w> 1415
J .</w> 1415
our s</w> 1415
char acters</w> 1415
bor der</w> 1414
pl at 1413
co m</w> 1413
distric ts</w> 1413
N intend 1412
main ly</w> 1412
the astern</w> 1411
ed y</w> 1411
we ight</w> 1410
w inning</w> 1408
t t 1407
part ement</w> 1407
stit ution</w> 1406
b ig 1405
at ors</w> 1402
al tern 1402
ann ounced</w> 1402
follow ed</w> 1402
chil d</w> 1400
L ife</w> 1399
in stead</w> 1399
larg er</w> 1399
h ard</w> 1398
S aint</w> 1398
thedr al</w> 1398
Car ol 1397
h it</w> 1396
mar k</w> 1396
fil ms</w> 1396
P en 1395
ad v 1395
ist ing</w> 1394
an der</w> 1393
chest er</w> 1393
f ar</w> 1392
H ung 1392
t - 1391
7 0</w> 1391
S k 1391
ag ed</w> 1391
Nintend o</w> 1391
sh ort 1390
att emp 1389
writ ing</w> 1389
poss ible</w> 1389
S en 1388
S ur 1388
197 1</w> 1388
S un 1387
h ockey</w> 1386
S econ 1383
pres ident</w> 1383
an al 1382
Y ear</w> 1381
n ic 1380
ar c 1380
Comp any</w> 1380
m akes</w> 1379
th - 1377
at ic</w> 1377
Cent er</w> 1377
stit ute</w> 1377
ropol itan</w> 1377
sy ch 1375
o v</w> 1374
h app 1374
gre at 1374
C re 1372
197 8</w> 1372
ri bu 1370
An dre 1370
Russ ia</w> 1370
un its</w> 1369
L uc 1368
198 5</w> 1368
c ells</w> 1367
st one</w> 1367
ur ed</w> 1367
un ivers 1367
sign ific 1367
Pe ople</w> 1367
p ing</w> 1366
az ine</w> 1366
D es 1365
est ival</w> 1365
e ign</w> 1364
er ly</w> 1364
194 5</w> 1364
n it 1363
Sou thern</w> 1363
8 0</w> 1362
Wh ite</w> 1362
bo l</w> 1362
bel ow</w> 1361
Wind ows</w> 1361
a x</w> 1360
O ld</w> 1359
b loc 1359
Chic ago</w> 1359
pro mot 1358
od es</w> 1358
I V</w> 1356
ul ation</w> 1355
W est 1354
ap h 1354
ret ary</w> 1354
er ous</w> 1353
Sc i 1353
H igh</w> 1352
198 8</w> 1352
s ent</w> 1349
p ot 1349
ell a</w> 1348
cer tain</w> 1348
Ar ab 1345
Stre et</w> 1344
mus ical</w> 1342
acc or 1342
th ers</w> 1341
al - 1341
S a 1340
re ached</w> 1340
struc ture</w> 1340
l aw 1339
d on 1339
E ar 1339
a b</w> 1337
L ine</w> 1337
mon ths</w> 1337
sp orts</w> 1334
evol ution</w> 1334
c ent</w> 1333
beg inning</w> 1331
0 - 1330
c a</w> 1328
is lands</w> 1328
c ast</w> 1327
re ad</w> 1327
stit ut 1326
mater ial</w> 1326
for c 1325
produc er</w> 1323
d h 1322
W at 1322
re search</w> 1322
o ols</w> 1321
kil omet 1320
ion ed</w> 1319
c ell</w> 1318
ad es</w> 1318
No bel</w> 1317
f - 1316
St u 1316
guit ar 1316
epis ode</w> 1315
t ext</w> 1314
f requ 1314
ev ent 1314
direc ted</w> 1313
aver age</w> 1313
art ist</w> 1312
web sites</w> 1312
p .</w> 1311
d ou 1311
d om 1310
n ' 1310
commun ity</w> 1310
n' t</w> 1310
ot t 1309
succ ess</w> 1309
H el 1308
ar k</w> 1307
lin k</w> 1307
Pri ze</w> 1306
Mart in</w> 1306
R en 1305
M ount 1305
J es 1305
ed ition</w> 1305
serv ices</w> 1304
s - 1303
con v 1303
Ir ish</w> 1303
comm erc 1302
up on</w> 1300
ra dio</w> 1299
P un 1298
V en 1298
m em 1297
squ are</w> 1297
1 st</w> 1295
in al</w> 1295
m ix 1294
id ence</w> 1293
m ach 1292
v ia</w> 1292
Braz il</w> 1292
M un 1291
al and</w> 1291
s em 1289
h old</w> 1289
P rem 1288
accor ding</w> 1288
pri m 1287
n omin 1286
ch e 1286
becom es</w> 1286
g ot</w> 1285
N az 1284
ar i</w> 1284
oo ds</w> 1284
manag er</w> 1284
rail way</w> 1284
D ev 1283
ad o</w> 1283
p un 1282
c it 1282
n ative</w> 1281
O x 1280
H a 1278
g es</w> 1277
p rec 1276
ar ian</w> 1276
Ne ther 1276
The ir</w> 1275
an o</w> 1274
cult ure</w> 1274
m et</w> 1273
L an 1273
ra ther</w> 1273
poin ts</w> 1273
wid ely</w> 1272
f r 1271
rem e</w> 1270
cel ebr 1268
e di 1267
it er</w> 1267
k et 1265
id ae</w> 1265
v ir 1264
ac y</w> 1264
ter ms</w> 1264
doc um 1264
M ah 1263
ste in</w> 1263
coun c 1263
conduc tor</w> 1263
retur ned</w> 1263
m ed</w> 1262
o ds</w> 1261
h i</w> 1261
mo del</w> 1261
M ass 1260
E arly</w> 1260
aw arded</w> 1260
t or 1259
artic les</w> 1258
fer ence</w> 1257
stu died</w> 1257
ic ated</w> 1256
s at 1255
St ar</w> 1255
Ch il 1255
ech an 1255
e ks</w> 1254
Y oun 1254
ad ded</w> 1254
ot h</w> 1254
add ition</w> 1253
sy n 1252
occ up 1252
L oc 1251
ri an</w> 1251
pres s</w> 1250
albu ms</w> 1250
Rom ania</w> 1250
oper a</w> 1250
at y</w> 1249
ers on</w> 1248
20 th</w> 1248
b on 1247
H y 1245
min or</w> 1245
l ittle</w> 1243
2 00</w> 1243
ab eth</w> 1242
te en</w> 1242
administ rative</w> 1242
5 00</w> 1241
W in 1241
a str 1239
fir e</w> 1239
Bec ause</w> 1239
t un 1238
t akes</w> 1238
B ir 1238
c i 1237
c ase</w> 1237
dist inc 1237
pur pos 1237
ab ad</w> 1236
sa w</w> 1236
poin ted</w> 1236
t op 1235
196 8</w> 1235
ol a</w> 1234
fem ale</w> 1234
l or 1232
s n 1231
e ight</w> 1231
eng ine 1231
ac ts</w> 1230
la hom 1230
Com mun 1230
performan ce</w> 1230
Nether lands</w> 1230
b ri 1229
Mar io</w> 1229
Belg ian</w> 1229
U p 1228
el ection</w> 1228
ap s</w> 1228
Ok lahom 1228
form ing</w> 1227
Arg ent 1227
st art</w> 1226
pro per 1226
br and</w> 1226
gre en</w> 1225
ch o 1222
stud ents</w> 1222
m er 1221
separ ate</w> 1221
s en 1220
w e</w> 1219
ph ere</w> 1218
artic le</w> 1218
Oklahom a</w> 1218
R ail 1217
uc k</w> 1215
N A</w> 1214
ad op 1214
sc rip 1214
oo t</w> 1213
sym bol</w> 1213
p ain 1212
e . 1212
eg ory</w> 1212
i al 1211
ch ampionship</w> 1211
reg ular</w> 1211
sk y</w> 1210
1 - 1209
b ac 1209
fri end</w> 1209
s ocial</w> 1207
an i</w> 1207
ph ot 1207
dist ance</w> 1206
b ase</w> 1204
eng ine</w> 1204
en viron 1203
mus ician</w> 1203
f iction</w> 1202
li p 1202
Lor d</w> 1202
ocrat ic</w> 1202
w ell 1201
fur ther</w> 1201
wom an</w> 1200
T ro 1198
B on 1198
L iv 1197
er e 1197
H igh 1195
c anc 1194
c ensus</w> 1194
st adium</w> 1194
ach ing</w> 1194
Govern ment</w> 1194
it es</w> 1193
Pic ardy</w> 1193
op her</w> 1192
art ment</w> 1191
St at 1191
s ister</w> 1190
ar riv 1190
H aw 1189
ou l 1189
ast ero 1189
rul e</w> 1189
se x</w> 1188
he avy</w> 1186
press ure</w> 1186
ou p</w> 1185
ist ry</w> 1183
compos ed</w> 1183
ing er</w> 1182
e f</w> 1181
A ir</w> 1180
bl ood</w> 1180
n ec 1179
ep h</w> 1178
Val ley</w> 1178
L ib 1176
S an 1175
F I 1175
F A</w> 1175
miss ion</w> 1174
h and</w> 1173
olog ist</w> 1173
K n 1172
C ro 1172
Pro t 1172
stand ard</w> 1172
l ies</w> 1171
wor th</w> 1171
Jos eph</w> 1171
Austri a</w> 1171
2 5 1169
wor ld 1169
N ic 1167
/O .</w> 1167
. . 1166
sp ir 1166
ail ed</w> 1166
bour ne</w> 1166
guitar ist</w> 1166
s oon</w> 1165
air s</w> 1165
G ame</w> 1164
an n</w> 1163
ap pe 1163
charac ter 1163
sc ale</w> 1162
.. .</w> 1162
F il 1161
al a</w> 1159
d omin 1158
B ud 1158
arm y</w> 1157
th us</w> 1156
en ne</w> 1156
ur a</w> 1156
bo x</w> 1156
typ ically</w> 1155
g ir 1154
h ous 1154
M u 1154
J up 1154
on to</w> 1153
associ ated</w> 1152
or ian</w> 1151
19 th</w> 1151
A .</w> 1150
m echan 1150
Com mon 1150
col on 1150
ex ecut 1149
bi g</w> 1149
Ze aland</w> 1147
relig ious</w> 1145
M ajor</w> 1144
in j 1144
st ars</w> 1144
ful ly</w> 1144
sel ves</w> 1142
su ff 1141
M iddle</w> 1140
o es</w> 1139
sur - 1139
Ber n 1139
Sar the</w> 1139
Sec retary</w> 1139
dec lar 1138
C ong 1137
or ial</w> 1137
ex per 1137
m ic 1135
chang es</w> 1135
reg ions</w> 1134
M id 1133
sett l 1133
Secon d</w> 1132
partic ularly</w> 1131
Tw o</w> 1131
F am 1130
at e 1130
enn a</w> 1130
busin ess</w> 1130
D .</w> 1129
V ol 1129
el le</w> 1129
to o</w> 1129
w rest 1128
g old</w> 1127
it ive</w> 1127
ul es</w> 1127
ov ers</w> 1126
ok en</w> 1126
press ion</w> 1126
dra w 1125
R ock</w> 1124
(/O 199 1123
9 0</w> 1122
sh own</w> 1122
song writer</w> 1122
G ran 1121
un ion</w> 1121
194 7</w> 1121
l v 1120
m outh</w> 1120
F C</w> 1120
198 0s</w> 1120
Il lin 1120
ach iev 1119
17 8 1119
ne ar 1118
let ter</w> 1118
br ought</w> 1117
gran d 1117
- known</w> 1116
C art 1116
territ ory</w> 1116
ad s</w> 1115
Illin ois</w> 1115
r ound</w> 1114
th ings</w> 1114
par ents</w> 1114
mon ey</w> 1114
h u 1113
v ot 1113
in ary</w> 1113
them selves</w> 1113
righ ts</w> 1113
m erg 1112
T ropical</w> 1112
respon s 1112
r ate</w> 1111
po p</w> 1111
r an</w> 1110
p al 1110
t ar 1109
or chestra</w> 1109
os p 1109
contro l 1109
o g</w> 1108
K e 1108
Kor ea</w> 1108
et te</w> 1107
rel at 1107
becom ing</w> 1107
priv ate</w> 1107
A wards</w> 1106
r on</w> 1106
t el 1105
b on</w> 1105
ill a</w> 1105
196 3</w> 1105
pr on 1105
Carol ina</w> 1105
Pl ay 1104
l ake</w> 1103
2 , 1102
claim ed</w> 1102
t ree</w> 1101
St or 1101
bu s</w> 1101
ide a</w> 1101
Jup iter</w> 1101
R u 1100
J e 1099
tow ns</w> 1099
form erly</w> 1098
196 0</w> 1098
Pol and</w> 1098
stri al</w> 1096
m ol 1095
J ack 1095
st ra 1095
pro ject</w> 1095
cre ate</w> 1095
in habit 1093
ol f</w> 1093
elect ric</w> 1093
re p 1092
av a</w> 1092
ut ure</w> 1092
nuc lear</w> 1092
L a 1091
Ar t 1091
u fact 1090
id ing</w> 1090
fin d</w> 1090
partic ular</w> 1090
St an 1089
ect or</w> 1089
d i</w> 1088
es h 1088
ell ed</w> 1088
phys ical</w> 1087
Jes us</w> 1087
ch er</w> 1086
Afric an</w> 1086
str y</w> 1085
y an</w> 1084
le d 1084
E liz 1083
C lar 1083
R el 1082
w al 1082
P ope</w> 1082
al ways</w> 1082
ir o</w> 1082
ent ary</w> 1082
mount ain</w> 1082
col lege</w> 1081
l ow 1080
res ul 1080
Ro ad</w> 1080
L e</w> 1079
anim al</w> 1079
G reg 1078
M er 1078
stat us</w> 1078
defe ated</w> 1078
o il</w> 1077
sit uated</w> 1077
pro duce</w> 1076
mark et</w> 1076
world wide</w> 1076
O rig 1074
aw a</w> 1074
196 4</w> 1074
l ower</w> 1073
3 . 1072
H om 1072
fe et</w> 1072
ins ula</w> 1072
ans as</w> 1072
princ ip 1072
oper ating</w> 1071
event ually</w> 1071
p sych 1070
G ul 1070
ect ions</w> 1070
pri mar 1070
atur ed</w> 1070
o to</w> 1069
U l 1069
is ing</w> 1069
um s</w> 1069
Gre en</w> 1068
la un 1068
ard en</w> 1068
det er 1068
Alp es- 1068
z z 1067
comp ut 1067
196 1</w> 1066
Is ra 1066
c ause</w> 1065
buil dings</w> 1065
B ook</w> 1064
Man chester</w> 1064
plac es</w> 1064
R ome</w> 1063
at o</w> 1063
sch ools</w> 1063
p aint 1062
f oc 1061
am ount</w> 1061
Dep artment</w> 1061
196 5</w> 1060
r i</w> 1058
g ive</w> 1057
com par 1057
web site</w> 1057
3 5</w> 1055
high er</w> 1055
4 - 1054
el ements</w> 1054
Or chestra</w> 1054
US A</w> 1054
fron t</w> 1054
L ady</w> 1053
th ir 1053
ri a</w> 1053
tr ade</w> 1053
m ass</w> 1051
t ive</w> 1050
qu ick 1050
fe ature</w> 1050
n ation 1049
fe atured</w> 1049
Har ry</w> 1049
c ross 1048
all ow</w> 1048
temper ature</w> 1048
G ra 1047
P i 1047
O per 1047
run ning</w> 1047
A S 1046
i el</w> 1045
sp oken</w> 1045
Su n</w> 1045
new sp 1045
M od 1044
St ation</w> 1044
ens ion</w> 1044
att ack</w> 1044
T ime</w> 1043
P enn 1043
b ury</w> 1043
ob ject</w> 1043
fam il 1043
C amp 1042
C amb 1042
m ph 1041
primar ily</w> 1041
es h</w> 1040
philos oph 1040
Prem ier</w> 1040
al ities</w> 1039
In stitute</w> 1039
7 5</w> 1038
Alex ander</w> 1038
empl oy 1038
nic kn 1038
inhabit ants</w> 1038
l ic 1037
h ib 1037
P an 1037
inc or 1037
fif th</w> 1037
Pri x</w> 1036
believ ed</w> 1036
w an 1034
th es 1034
Fran k 1034
Olymp ic</w> 1034
ver t 1032
194 9</w> 1032
direc tly</w> 1032
d é 1031
it or</w> 1031
rel ation 1031
Eliz abeth</w> 1031
H al 1030
hy dro 1029
read y</w> 1029
Sy stem</w> 1028
B ul 1027
St ev 1027
k ey 1026
6 - 1026
u it</w> 1025
n ar 1025
s ound</w> 1024
n ation</w> 1024
h ere</w> 1024
Se e</w> 1024
m iddle</w> 1023
defin ed</w> 1023
Swed ish</w> 1023
4 5</w> 1022
n er 1022
al t 1022
ur ity</w> 1022
L ar 1021
am i</w> 1021
se x 1021
rem ains</w> 1021
burg h</w> 1021
m yth 1020
B ow 1020
ar ia</w> 1020
as c 1020
c ur 1019
C z 1019
As s 1019
Ger man 1017
s ons</w> 1016
d in 1016
me an</w> 1016
rem ained</w> 1016
Joh n 1016
Ser ies</w> 1016
R adi 1015
J ac 1015
dec ided</w> 1015
occ as 1015
s ection</w> 1014
h ard 1014
P ok 1014
ex peri 1014
s ummer</w> 1013
l os 1012
J r.</w> 1012
Ser v 1012
of t</w> 1011
ach es</w> 1011
194 8</w> 1011
pol ic 1011
f ru 1010
ap pointed</w> 1010
all owed</w> 1010
d one</w> 1009
m y</w> 1009
pol ice</w> 1008
m aj 1007
D omin 1007
li k 1007
man ufact 1007
we alth</w> 1007
som e 1007
Youn g</w> 1007
w restling</w> 1006
K ent 1006
pass ed</w> 1006
prim ary</w> 1006
g ed</w> 1005
W all 1005
occ er</w> 1005
f av 1004
ol der</w> 1004
at om 1002
ac id</w> 1002
act ions</w> 1002
A th 1001
i k</w> 1001
e en</w> 1001
pi ece</w> 1001
Austri an</w> 1001
ens ity</w> 1000
mid - 1000
u ation</w> 999
it a</w> 999
re al</w> 999
S ev 998
en z 998
ch ing</w> 998
all est</w> 998
a id</w> 997
Kor ean</w> 997
C y 996
Egyp t</w> 996
k et</w> 995
il ities</w> 995
mo on</w> 995
mag azine</w> 995
anim ated</w> 994
S t</w> 993
el ed</w> 993
Un der 993
ut es</w> 993
po et</w> 993
196 2</w> 993
c ode</w> 992
S pr 992
ther e 992
Jew ish</w> 992
l oo 991
s pl 990
dis ease</w> 990
stand ing</w> 990
histor ical</w> 990
mult iple</w> 990
b ack 989
al g 989
f ar 988
H um 988
ro om</w> 988
us er</w> 988
Ac t</w> 988
estim ated</w> 988
long er</w> 987
g as</w> 986
f ict 986
succ e 986
d or 985
Bi g</w> 985
ke ep 985
P ot 984
se asons</w> 984
li e</w> 984
vari ety</w> 984
A re 983
t i 983
c raft</w> 983
ub s</w> 983
leg al</w> 983
m ental</w> 980
fl ow 980
Le e</w> 980
hum ans</w> 980
t aking</w> 979
wh om</w> 979
im p 979
cour t</w> 979
urb an</w> 979
Gr oup</w> 978
bir th</w> 978
v ict 977
recor ding</w> 977
prob ably</w> 977
por ary</w> 976
Air port</w> 976
n y</w> 975
M an</w> 975
uc ky</w> 975
win ds</w> 975
on ia</w> 974
ap ol 974
br ary</w> 974
mov ing</w> 974
Car l 974
Fed eral</w> 974
f el 973
complet e</w> 973
ic t</w> 972
ic ians</w> 972
cont ribu 972
3 2</w> 971
ish op</w> 971
196 6</w> 971
dam age</w> 970
individ ual</w> 970
d u</w> 969
B ran 967
ell o</w> 967
bl ue</w> 967
a ult</w> 966
m ir</w> 966
it ch</w> 966
ur ies</w> 966
o di 965
B un 965
b ass</w> 965
le m</w> 965
Un ivers 965
tw ent 965
Be fore</w> 965
ket ball</w> 965
south- western</w> 964
Gold en</w> 964
d ates</w> 963
m ass 963
ab s 963
194 6</w> 963
H un 962
d es</w> 961
T ok 961
E p 961
ne arly</w> 961
Scot t</w> 959
Off ic 959
bran ch</w> 959
e z 958
K el 958
O h 958
wh ole</w> 957
de g 957
prov inc 957
previ ous</w> 957
h ours</w> 956
liv es</w> 956
earli er</w> 956
ing ham</w> 955
rac ing</w> 955
indu stry</w> 955
big gest</w> 954
b ill 953
ex tr 953
ast ic</w> 953
est er</w> 952
recogn ized</w> 952
signific ant</w> 952
T im 951
G il 951
as p 951
app ears</w> 951
k in 950
at tr 950
har mon 950
w il 949
B ut</w> 949
ent ire</w> 949
hel ped</w> 949
ay ing</w> 948
n ine</w> 946
L ater</w> 946
St ra 946
compl ex</w> 946
quick ly</w> 946
D oc 945
P lan 945
lab el</w> 945
commerc ial</w> 945
g .</w> 944
beh ind</w> 944
Ar th 943
ban ds</w> 943
g s</w> 942
ne g 942
Le on 942
e z</w> 941
w all</w> 941
ri d</w> 941
ann ed</w> 941
m aint 940
2 - 940
ag er</w> 940
previ ously</w> 940
Cour t</w> 940
M ot 939
C W</w> 939
or es</w> 939
sc re 939
For ce</w> 939
T oday</w> 938
di am 938
aw ard</w> 938
spe ed</w> 938
complet ed</w> 938
ou te</w> 937
ect ing</w> 937
195 9</w> 937
re vol 936
et ing</w> 936
Ch an 936
gre w</w> 936
Fre d 936
P u 935
he at</w> 935
193 9</w> 934
c ul 933
G a 932
sing les</w> 932
Armen ian</w> 932
p ool</w> 931
ac her</w> 931
Cl ass 931
l ot</w> 930
k ind</w> 930
f uture</w> 930
B re 930
in side</w> 930
ch ess</w> 930
ex cl 930
ect ively</w> 930
bl ems</w> 930
Olymp ics</w> 930
ri age</w> 929
ou se 928
is l 928
par k</w> 928
stor ies</w> 928
H ill</w> 927
N ations</w> 927
Col umb 927
Franc is 927
south western</w> 926
rec ent</w> 925
3 - 924
D V 924
M y</w> 924
aut om 924
Soci ety</w> 924
ne igh 923
Te am</w> 923
stre am</w> 923
Sant a</w> 923
p ict 922
loc ation</w> 922
ox ide</w> 922
Lin ux</w> 922
P ubl 921
st ant 921
iel d</w> 920
or a</w> 919
k en</w> 918
b attle</w> 918
fin ished</w> 918
Tur k 918
c ore</w> 917
F ar 917
er ia</w> 917
ic ine</w> 917
m el 916
cop ies</w> 916
Georg ia</w> 916
L ove</w> 915
C ur 915
ign ed</w> 915
influ ence</w> 915
foun der</w> 914
t en 913
K en 913
air ed</w> 913
Isl am 913
Kent ucky</w> 913
6 4</w> 912
b ird</w> 912
St eph 912
195 2</w> 912
fig ure</w> 912
retur n</w> 911
educ ation</w> 911
N o</w> 910
re ported</w> 910
A in</w> 909
A D</w> 908
w ind</w> 908
B ou 908
ob ile</w> 908
direc t</w> 908
m ur 907
il ly</w> 907
prov ide</w> 907
fict ional</w> 907
F L</w> 906
B a 906
tr ue</w> 906
An gl 906
sol di 906
Ox ford</w> 906
m ale</w> 905
ic le</w> 905
is on 905
St r 905
ep tion</w> 905
sub sequ 905
s ay</w> 904
ay - 904
e. g.</w> 904
W om 903
195 7</w> 902
Swed en</w> 902
mic ro 902
y o</w> 901
sy lv 901
mon d</w> 901
ed ing</w> 900
act ing</w> 900
dest roy 900
astr onom 900
p aper</w> 899
S qu 899
os aur 899
te e</w> 899
sou theastern</w> 899
ail s</w> 899
exc ept</w> 899
G o 898
th od 898
Au st 898
struc tion</w> 898
4 . 897
P ier 897
au di 897
Satur n</w> 897
Stor m</w> 897
ic les</w> 896
bel ong 896
adop ted</w> 896
B at 895
Inter net</w> 895
appe ar</w> 895
. com</w> 894
b ridge</w> 894
appear ance</w> 894
deg ree</w> 894
J ud 893
00 ,000</w> 893
ak a</w> 893
me dia</w> 893
im a</w> 892
ob serv 891
i ri 890
on s 890
di f 890
bor ough</w> 890
ath s</w> 890
Arth ur</w> 890
er o</w> 889
is ions</w> 889
el ement</w> 888
pian o</w> 888
p ast</w> 887
h s 887
A ri 886
K ash 886
C iv 886
act ed</w> 886
writ e</w> 886
P aul 885
org an</w> 885
tow ards</w> 885
wan ted</w> 885
es ia</w> 884
em an</w> 884
ight ing</w> 884
Pers ian</w> 884
D un 883
D r.</w> 883
17 7 883
S ub 882
j ourn 882
ra ised</w> 882
5 - 881
h us 881
le aves</w> 880
maj ority</w> 880
con f 879
incor por 879
t ures</w> 878
O b 878
voc als</w> 878
p rem 877
H an 877
ig an</w> 877
organ is 877
hol ds</w> 877
econom ic</w> 877
destroy ed</w> 877
c over</w> 876
M ount</w> 876
197 0s</w> 876
F e 875
der ived</w> 875
on d</w> 874
ay ed</w> 874
Mel bourne</w> 874
A no 873
T y 873
ab or 873
pro blems</w> 873
Mic ros 873
al ia</w> 872
al ph 872
k ers</w> 871
T om</w> 871
C oll 871
forc ed</w> 871
h an 870
et ro 870
ay s 870
dis play</w> 870
ian a</w> 870
R A 869
B N</w> 869
ish - 869
invol ved</w> 869
construc tion</w> 869
s ays</w> 868
l ad 868
8 - 868
co ach</w> 868
195 3</w> 868
bot t 868
diff ic 868
sim ple</w> 868
B ost 867
in te 867
ul e</w> 867
com edy</w> 867
ab les</w> 867
Oh io</w> 867
en ough</w> 866
Mar ia</w> 866
Hol y</w> 866
F i 865
run s</w> 865
Sl ov 865
counc il</w> 865
J un 864
it z 864
194 4</w> 864
associ ation</w> 864
exper im 864
S om 863
im prov 863
oc curr 863
sylv ania</w> 863
In t 862
plan et</w> 862
Micros oft</w> 862
st op</w> 861
go ing</w> 861
func tion</w> 861
it ors</w> 860
st ations</w> 860
f le 859
Sy mph 859
Rail way</w> 859
G ar 858
j ud 858
part icip 858
195 6</w> 858
Li ke</w> 858
Pun j 858
H ind 857
D own</w> 857
b it</w> 857
k i</w> 856
6 5</w> 856
sp ent</w> 856
195 8</w> 856
D re 855
E ach</w> 855
hear t</w> 855
t ors</w> 854
On tar 854
Ontar io</w> 854
altern ative</w> 853
g an 852
fl ag</w> 852
Con serv 852
3 6</w> 851
m ess 851
195 4</w> 851
195 5</w> 851
Ju st 851
cour se</w> 851
IS BN</w> 851
o id</w> 850
e dia</w> 850
B ad 850
progr amm 850
A v 849
d own 849
F ox</w> 849
as ka</w> 849
ag on</w> 849
ant as 849
Bo y</w> 849
Portug u 849
s ent 848
M ir 848
str ong 848
Dem ocratic</w> 848
Th ur 847
Gul f</w> 847
O tt 846
Pol ish</w> 846
im pl 845
op pos 845
we ek</w> 845
ph y</w> 845
great est</w> 845
V end 844
Sp ec 844
ren amed</w> 844
riv ers</w> 844
Sy d 844
o ch 843
T ra 843
C el 843
Al b 843
ric k</w> 843
compet ition</w> 843
l ove</w> 842
princip al</w> 842
Bost on</w> 842
X X 841
beg ins</w> 841
descri be</w> 841
Vi enna</w> 841
C ensus</w> 840
al ism</w> 840
li m</w> 840
refer ence</w> 840
tra in</w> 840
stu dies</w> 840
ec es</w> 839
pro min 839
ban k</w> 839
E st 838
B A</w> 838
iv ing</w> 838
for t 838
St e 838
oo k 838
qu est 838
spec ific</w> 838
iss ue</w> 838
Mus eum</w> 838
d river</w> 837
R aw</w> 837
Ch ris</w> 837
rec ently</w> 837
eff ect</w> 837
Sm ith</w> 837
H ug 836
Govern or</w> 836
vo ice</w> 836
view s</w> 836
Ano ther</w> 836
L ive</w> 835
us ion</w> 835
c ases</w> 834
u a</w> 833
wh e 833
be st 833
not able</w> 833
n ature</w> 832
F .C.</w> 832
b al 832
or ing</w> 832
al ready</w> 832
oun ding</w> 832
v an</w> 831
it ionally</w> 831
distribu tion</w> 831
p il 830
U s 830
qu ant 830
por ation</w> 830
civ il</w> 830
t ou 829
H .</w> 829
O ver 829
D er 828
N ot 828
ur s</w> 828
sch ol 828
3 , 827
7 - 827
ap e</w> 827
r d</w> 825
m ight</w> 825
re duc 825
av en</w> 825
l ast 824
3 3</w> 824
cover ed</w> 824
Radi o</w> 824
199 0s</w> 823
ann ual</w> 823
pre d 823
bir ds</w> 823
Francis co</w> 823
T al 822
ish es</w> 822
k shire</w> 821
P re 821
Al f 821
clos ed</w> 821
M .</w> 820
E l</w> 820
comp ris 820
194 0</w> 820
195 0</w> 820
A T 819
N a 819
Cap e</w> 819
Portugu ese</w> 819
k h 818
fl o 818
class ical</w> 817
t our</w> 816
ro t 816
equ al</w> 816
cult ural</w> 816
head quart 816
Common wealth</w> 816
mov ies</w> 815
produc ts</w> 815
independ ence</w> 815
G ir 814
ev al</w> 814
enc e- 814
T om 813
S us 813
ear th 813
num erous</w> 813
Cl ass</w> 813
Bl ack 813
vers ions</w> 813
K at 812
O l 812
ent ion</w> 812
sh e 812
An n 812
M ur 811
F ron 811
us ers</w> 811
bor ders</w> 811
u als</w> 810
S el 810
ograph ic</w> 810
ve h 810
c art 809
5 . 809
M erc 809
an y 809
an th 809
relation ship</w> 809
r up 808
att ended</w> 808
giv es</w> 808
c le 807
Ch ampion</w> 807
ut t 807
count ies</w> 807
t est</w> 806
b ound 806
per ial</w> 806
coll ection</w> 806
myth ology</w> 806
T it 805
tur ned</w> 805
rul ed</w> 805
mol ec 805
s elling</w> 803
L ittle</w> 803
ó n</w> 803
man n</w> 803
iz es</w> 803
archit ecture</w> 803
ro r</w> 802
ch ampion</w> 802
rul es</w> 802
f ran 801
T el 801
b en 801
th ous 801
Nor th 801
direc tion</w> 801
cycl one</w> 801
M y 800
ic ed</w> 800
ro les</w> 800
ch all 800
dev ice</w> 800
fri ends</w> 800
c all</w> 799
m amm 799
n d</w> 799
to - 799
Win ter</w> 799
act ually</w> 798
co ast 798
ace ae</w> 798
eric k</w> 797
194 2</w> 797
Pro fess 797
hus band</w> 797
W .</w> 796
ou d</w> 796
Th at</w> 796
Th ree</w> 796
et ts</w> 796
sp ring</w> 796
s h</w> 795
F r 795
uc k 795
Be ach</w> 795
bas eball</w> 795
discover y</w> 795
liter ature</w> 795
fol k</w> 795
M as 794
F ree</w> 794
B ol 794
il es</w> 794
u re 793
T ay 793
D om 793
ak ers</w> 793
nor theast</w> 793
person al</w> 793
5 1</w> 792
ett ers</w> 792
Syd ney</w> 792
op ening</w> 791
Al so</w> 791
Mar k</w> 791
vol can 791
Ca thedral</w> 791
Andre w</w> 791
or al</w> 790
er ful</w> 789
ak ed</w> 789
Al bert</w> 789
camp a 789
tw o- 788
high ly</w> 788
Symph ony</w> 788
A ra 787
n es</w> 787
L aw 787
en ge</w> 787
am in</w> 787
ch ief</w> 787
dig ital</w> 787
t old</w> 786
f oss 786
R .</w> 786
K ur 786
K ir 786
B ill 786
cre d 786
s af 785
g i 785
h ot</w> 785
196 0s</w> 785
activ ity</w> 785
3 rd</w> 784
d on</w> 784
L and</w> 784
tro ops</w> 784
Hung ary</w> 784
diam eter</w> 784
c ow</w> 783
is es</w> 783
we eks</w> 783
r ist</w> 782
o z 782
p tion</w> 782
D S</w> 782
19 18</w> 782
all ows</w> 782
bre vi 782
Mus lim</w> 782
dé partement</w> 781
F estival</w> 780
E s 780
id ents</w> 780
scient ific</w> 780
respons ible</w> 780
Columb ia</w> 780
N i 779
Con n 779
cer em 779
pass eng 779
lim ited</w> 779
a uc 778
c ust 778
3 7</w> 778
d anc 778
Ar ts</w> 778
enn is</w> 778
May enne</w> 778
beh av 778
L inc 777
P op 777
ne ed</w> 777
t ier</w> 776
3 8</w> 776
n al</w> 776
sub ject</w> 776
inv est 776
pl ate</w> 775
For d</w> 775
Phil ipp 775
Penn sylvania</w> 775
t ies</w> 774
B ab 774
for t</w> 774
la - 774
mp h</w> 774
tre es</w> 774
V ill 773
con cent 773
Di rec 773
Ev ents</w> 773
pract ice</w> 773
5 5</w> 772
M ill 772
eth ing</w> 772
hous es</w> 772
near by</w> 772
R od 771
re t</w> 771
i di 770
f ile</w> 770
H on 770
2 nd</w> 770
ys is</w> 770
Naz i</w> 770
Linc ol 770
H it 769
T own</w> 769
B av 769
sp ort 769
recor ds</w> 769
Miss iss 769
m ir 768
D ynasty</w> 768
B rown</w> 768
b s</w> 768
Ir an</w> 768
med ical</w> 768
declar ed</w> 768
R evolution</w> 767
h a 767
el and</w> 767
giv ing</w> 767
sour ces</w> 767
c m</w> 766
b ar</w> 766
de ad</w> 766
Sh ow</w> 766
hon or</w> 766
2 8 765
6 6</w> 765
T am 765
B ah 765
ic ity</w> 765
et on</w> 765
im age</w> 765
ak s</w> 765
193 0</w> 765
T our</w> 764
C ab 764
li qu 764
Cong ress</w> 764
wrest ler</w> 764
S ummer</w> 763
foun d 763
spe aking</w> 763
grow th</w> 763
meth od</w> 763
i pl 762
b ul 762
we ather</w> 762
mon th</w> 762
193 6</w> 762
tour nam 762
ar ity</w> 761
sk i</w> 761
R et 760
B ang 760
194 1</w> 760
Aug ust 760
4 8</w> 759
val ue</w> 759
v ing</w> 758
O s 758
compan ies</w> 758
Islam ic</w> 758
u d</w> 757
ab brevi 757
organ ized</w> 757
Ph ys 756
cast le</w> 756
newsp aper</w> 756
be an</w> 755
se l</w> 755
ut ionary</w> 755
cent uries</w> 755
produc t</w> 755
bre ak</w> 755
six th</w> 755
con qu 754
og s</w> 754
Fam ily</w> 754
ic ate</w> 753
con ver 753
Az ur</w> 753
M inn 752
form al</w> 752
ess ion</w> 752
Gr amm 752
Prov ence- 751
earli est</w> 751
progr ams</w> 751
Provence- Alpes- 751
f f</w> 750
O S</w> 750
ast e</w> 750
he alth</w> 750
ach us 750
Mass achus 750
l as</w> 749
D or 749
ipp i</w> 749
Sing ap 749
vent ion</w> 748
Jer sey</w> 748
Massachus etts</w> 748
R ev 747
as ing</w> 747
St adium</w> 747
bo x 747
Ter rit 747
pain ter</w> 747
L y 746
N ight</w> 746
ad or</w> 746
im um</w> 746
ing en</w> 746
Belg ium</w> 746
u ts</w> 745
f act</w> 745
S i 745
Kh an</w> 745
m as</w> 744
m aster</w> 744
C A 744
in son</w> 744
ist a</w> 744
ess ed</w> 744
orig in</w> 744
tra ins</w> 744
l isted</w> 743
w inner</w> 743
at ives</w> 743
ac ked</w> 743
be y</w> 743
ob jects</w> 743
194 3</w> 743
canc er</w> 743
T a 742
sou theast</w> 742
193 3</w> 742
sol o</w> 742
cond itions</w> 742
Mod ern</w> 742
s occer</w> 741
4 , 741
y our</w> 741
Ch ap 741
go es</w> 741
dist ingu 741
kilomet res</w> 741
W i 740
and ed</w> 740
serv ing</w> 740
pi eces</w> 740
V I</w> 739
re al 739
as ked</w> 739
et er 739
DV D</w> 739
alph ab 739
Punj ab</w> 739
s un 738
w ing</w> 738
re li 738
star ring</w> 738
R og 737
D ol 737
B et 737
C ross</w> 737
An d 737
195 1</w> 737
Tre aty</w> 737
B oth</w> 736
re n</w> 736
es cap 736
em erg 736
com ing</w> 736
192 0</w> 736
9 - 735
W el 735
to m</w> 735
d ark</w> 734
C op 734
con st 734
comb ined</w> 734
G ro 733
an ian</w> 733
ur ches</w> 733
if y</w> 733
Mich igan</w> 733
Reg ion</w> 733
astero id</w> 733
Er n 732
R ac 731
P ict 731
organ iz 731
Princ ess</w> 731
P ort</w> 730
j un 730
ul p 730
bill ion</w> 730
R am 729
F ollow 729
il ton</w> 729
control led</w> 729
W ol 728
on ian</w> 728
qu al 728
Char l 728
val ley</w> 728
Mississ ippi</w> 728
ag ing</w> 727
and a</w> 726
col ors</w> 726
mag net 726
N FL</w> 725
acc ep 725
Civ il</w> 725
N et 724
ang le</w> 724
bur ied</w> 724
193 7</w> 724
poss ib 724
spl it</w> 724
J am 723
b at 723
art ists</w> 723
famil ies</w> 723
tur n</w> 722
Stan ley</w> 722
4 2</w> 721
3 00</w> 721
U k 721
or er</w> 721
Ch ief</w> 721
yp t 721
r ated</w> 720
3 4</w> 720
B ible</w> 720
up per</w> 720
met ropolitan</w> 720
Sw iss</w> 720
al le 719
ter min 719
az z</w> 719
youn ger</w> 719
mater ials</w> 719
g a</w> 718
G all 718
w an</w> 718
A ut 717
r ise</w> 717
C ra 717
em peror</w> 717
ad j 717
ev idence</w> 717
sp ac 717
Or gan 717
settl ement</w> 717
s ens 716
en h 716
at re</w> 716
Alex and 716
sat ell 716
Isra el</w> 716
s us 715
al one</w> 715
In depend 715
gr av 715
lin ks</w> 715
cla im</w> 715
l or</w> 714
d ol 714
B ill</w> 714
ough ly</w> 714
conduc ted</w> 714
shap e</w> 714
com man 713
tri ed</w> 713
Follow ing</w> 713
m es</w> 712
h ouse 712
mar riage</w> 712
M e</w> 711
De f 711
tit les</w> 711
lik ely</w> 711
antas y</w> 711
y nam 710
B ri 710
B ush</w> 710
in sp 710
iv al 710
ident ial</w> 710
Den mark</w> 710
os is</w> 709
s le 708
G oth 708
w a 708
M em 708
cl oth 708
per - 708
emb ly</w> 708
Bl ue</w> 708
Cz ech</w> 708
ight ly</w> 707
Kel ly</w> 707
Pres s</w> 706
requ ired</w> 706
purpos e</w> 706
ir a</w> 705
le ave</w> 705
Al ab 705
tw el 705
nec ess 705
earth qu 705
y ellow</w> 704
ex ist</w> 704
anc ed</w> 704
e i</w> 703
c ents</w> 703
fl av 703
oth er 703
histor ic</w> 703
pron ounced</w> 703
fru it</w> 703
th y</w> 702
er to</w> 702
we ap 702
cont ent</w> 702
Wal t</w> 702
lev els</w> 702
norm al</w> 702
well -known</w> 702
- day</w> 701
bo y</w> 701
ult ure</w> 701
Sur v 701
bloc k</w> 701
provinc es</w> 701
V is 700
ri f 700
ent ered</w> 700
norm ally</w> 700
clim ate</w> 700
D NA</w> 699
anc y</w> 699
char t</w> 699
Mount ains</w> 699
M ov 698
E ver 698
ra in 698
af f</w> 698
Fred erick</w> 698
4 7</w> 697
4 th</w> 697
d ance</w> 697
d ynasty</w> 697
B ridge</w> 697
C E</w> 697
re ach</w> 697
ess es</w> 697
193 8</w> 697
s ul 696
v a</w> 696
W ars</w> 696
reg arded</w> 696
char ge</w> 696
pow erful</w> 696
d' Azur</w> 696
Haw ai 696
per man 695
new s</w> 695
Tur key</w> 695
Sim p 695
Chan nel</w> 695
f ast</w> 694
H ay 694
am e 694
n av 693
B ru 693
An ne</w> 693
k ept</w> 692
R ock 692
el ing</w> 692
ac qu 692
19 00</w> 692
ri er</w> 692
pr in 692
inter est</w> 692
v ote</w> 691
af ter 691
ie f 691
Bas eball</w> 691
influ enced</w> 691
Serv ice</w> 691
C ub 690
Indi ana</w> 690
believ e</w> 690
Ban k</w> 690
engine ering</w> 690
Singap ore</w> 690
d ary</w> 689
S he 689
al ed</w> 689
ig a</w> 689
le aving</w> 689
air craft</w> 689
Be at 689
sup ported</w> 689
trad ition</w> 689
yth ing</w> 689
Dan iel</w> 689
Are a</w> 689
Alab ama</w> 689
c ou 688
c ut</w> 688
k es</w> 688
b y 688
wh ether</w> 688
An c 688
t able</w> 687
4 6</w> 687
J ack</w> 687
C D 687
he av 687
represent ed</w> 687
Kash mir</w> 687
s es</w> 686
7 . 686
ch lor 686
est ing</w> 686
fl at</w> 686
contin u 686
p an 685
ed om</w> 685
aw ards</w> 685
tra ining</w> 685
Vi et 685
ke ep</w> 685
New s</w> 685
grad u 685
o a</w> 684
H oll 684
R ang 684
C as 684
re y</w> 684
st er 684
im medi 684
the or 684
Con ference</w> 684
merg ed</w> 684
o k</w> 683
over all</w> 683
ann ing</w> 683
193 4</w> 683
appl ied</w> 683
e o</w> 682
192 9</w> 682
som ething</w> 682
Ear l</w> 682
D a 681
in ated</w> 681
pl ane</w> 681
Mos cow</w> 681
Camb ridge</w> 681
c overs</w> 680
B E</w> 680
B oy 680
min ister</w> 680
prov ided</w> 680
Gre ece</w> 680
Christ ian 680
ris on</w> 680
complet ely</w> 680
g od</w> 679
H ann 679
8 5</w> 679
G ab 679
Ab out</w> 679
Bud dh 679
laun ched</w> 679
h our</w> 678
St one</w> 678
In don 678
s ign</w> 677
p ost</w> 677
y er</w> 677
1 1 677
ar ms</w> 677
oun ts</w> 677
comp ound</w> 677
north- western</w> 677
y z 676
it ted</w> 676
ic ted</w> 676
Th r 676
ne eded</w> 676
larg ely</w> 676
oper ation</w> 676
fiel der</w> 676
conc ept</w> 676
cit iz 676
thod ox</w> 676
d ered</w> 675
T em 675
S at 675
B .</w> 675
it o</w> 675
Or der</w> 675
incre ase</w> 675
c e 674
9 5</w> 674
we ar</w> 674
dis p 674
Prot est 674
o e</w> 673
M ore</w> 673
st ated</w> 673
ic ism</w> 673
ch os 673
Co ast</w> 673
l etters</w> 672
m ay 672
H ow 672
K al 672
Mar ie</w> 672
m i</w> 671
ist ers</w> 671
ter ed</w> 671
sequ el</w> 671
Sci ence</w> 671
y n</w> 670
K u 670
st and</w> 670
ent er 670
fiel ds</w> 670
inst all 670
p up 669
7 2</w> 669
L im 669
K ong</w> 669
bas ic</w> 669
Off ice</w> 669
osp ital</w> 669
Jack son</w> 669
Stev e</w> 669
n in 668
cont ain</w> 668
193 2</w> 668
mount ains</w> 668
Jul ian</w> 668
fed eral</w> 668
bac ter 668
o ke</w> 667
P ow 667
di m 667
fl ow</w> 667
auth or 667
frequ ently</w> 667
relat ively</w> 667
t in 666
r oughly</w> 666
S n 666
ar rang 666
grow ing</w> 666
environ ment</w> 666
T ak 665
D al 665
19 19</w> 665
ow led 665
att acks</w> 665
roy al</w> 665
Tor onto</w> 665
philosoph y</w> 665
k o</w> 664
g ained</w> 664
R ed 664
F ame</w> 664
an ge</w> 664
ag on 664
ant i- 664
min utes</w> 664
ict ionary</w> 664
mach ine</w> 664
4 00</w> 663
d ensity</w> 663
iv ity</w> 663
pres ents</w> 663
civ il 663
dom est 663
Minn es 663
c ard</w> 662
deter min 662
Turk ish</w> 662
bas ketball</w> 661
p e</w> 660
p ul 660
k in</w> 660
d rop 660
us ual</w> 660
sym b 660
nomin ated</w> 660
a qu 659
N E 659
te acher</w> 659
ampion ships</w> 659
conn ected</w> 659
instrum ents</w> 659
S in 658
P ap 658
b .</w> 658
od d 658
pe ak</w> 658
ric s</w> 658
cam p</w> 658
3 0 657
h a</w> 657
W is 657
vol ume</w> 657
nov els</w> 657
Minnes ota</w> 656
R ail</w> 655
F ur 655
or ation</w> 655
Ar t</w> 655
spec ial 655
pre par 655
er ship</w> 654
ing ly</w> 654
Gre ater</w> 654
Wh o</w> 654
epis odes</w> 654
attemp t</w> 654
o y</w> 653
4 4</w> 653
M r.</w> 653
un d</w> 653
str ength</w> 653
gr ade</w> 653
ob al</w> 653
cre ation</w> 653
long - 653
long est</w> 653
distinc t</w> 653
e .</w> 652
jo b</w> 652
alle l</w> 652
O liv 651
An th 651
ell ig 650
orb it</w> 650
Sun day</w> 650
4 3</w> 649
oc ol 649
ev a</w> 649
Al aska</w> 649
accep ted</w> 649
pres er 648
tal k</w> 648
instrum ent</w> 648
polic y</w> 648
oper ated</w> 647
municip alities</w> 647
Cor poration</w> 647
Fed eration</w> 647
pun k</w> 647
d a 646
w a</w> 646
prov ed</w> 646
mathemat ics</w> 646
Greg orian</w> 646
O ' 645
it z</w> 645
as k</w> 645
de pression</w> 645
the ater</w> 645
ak i</w> 645
Un der</w> 645
anc est 645
cat egory</w> 645
organis ms</w> 645
l ov 644
at mos 644
di os</w> 644
ag g 644
de b 644
sh all</w> 644
he im</w> 644
As ian</w> 644
cy cle</w> 644
sex ual</w> 644
u x 643
T ib 643
ic i 643
ol as</w> 643
stud ent</w> 643
w ood 642
re ve 642
land fall</w> 642
t ells</w> 641
2 6 641
b a 641
fl ows</w> 641
Anc ient</w> 641
N u 640
é e</w> 640
sh ot</w> 640
not ed</w> 640
eff ects</w> 640
clos ely</w> 640
car s</w> 639
Arab ic</w> 639
thes is</w> 639
t ax 638
c row 638
K ansas</w> 638
pro posed</w> 638
ran ean</w> 638
fin ally</w> 638
mat ter</w> 638
air port</w> 638
Pe ace</w> 638
L ist</w> 637
E .</w> 637
we b</w> 637
Pr uss 637
tit led</w> 637
init ially</w> 637
s we 636
L aw</w> 636
pre - 636
surr ounding</w> 636
i . 635
d am</w> 635
m ut 635
F ound 635
it age</w> 635
cont aining</w> 635
do g</w> 635
ext inc 635
Su per 635
pat ter 635
Met ropolitan</w> 635
g row</w> 634
gr aph 634
dr ama</w> 634
sel f- 634
ord ers</w> 634
1\/ 2</w> 634
techn ology</w> 634
north- central</w> 634
Armen ia</w> 634
m m</w> 633
9 8</w> 633
concer t</w> 633
law s</w> 633
f a 632
aw n</w> 632
Tay lor</w> 632
di al 631
ad el 631
b a</w> 630
et c.</w> 630
go al</w> 630
soci ety</w> 630
defin ition</w> 630
harmon ic</w> 630
re au</w> 629
st op 629
Ser b 629
diffic ult</w> 629
o en 628
i as</w> 628
P C</w> 628
C irc 628
iss ues</w> 628
sk in</w> 628
separ ated</w> 628
e igh 627
acc ess</w> 627
phys ics</w> 627
atom ic</w> 627
soldi ers</w> 627
incorpor ated</w> 627
chos en</w> 627
s en</w> 626
5 4</w> 626
w ise</w> 626
et t</w> 626
ear ch</w> 626
itt ing</w> 626
Bu ff 626
A ube</w> 625
f ash 625
9 /O)</w> 625
he ight</w> 625
ath let 625
mat ches</w> 625
ide as</w> 625
Franc is</w> 625
Bor n</w> 625
Fri ed 625
Pen insula</w> 625
oppos ite</w> 625
p h</w> 624
S pe 624
on line</w> 624
re ason</w> 624
as ia</w> 624
us s</w> 624
ear ned</w> 624
ey e</w> 624
tre at 624
chan nel</w> 624
v ent</w> 623
pr ison 623
Ant on 623
A sh 622
p ass</w> 622
d ry</w> 622
K r 622
al ing</w> 622
ic ist</w> 622
sh are</w> 622
Sp ace</w> 622
dr ed</w> 622
193 5</w> 622
f er</w> 621
f ight</w> 621
ec k</w> 621
tw ice</w> 621
met res</w> 621
192 4</w> 621
Cor n 621
Hist or 621
alphab et</w> 621
L am 620
h all</w> 620
B ut 620
b ass 620
ad ed</w> 620
gre ater</w> 620
profess or</w> 620
Rob inson</w> 620
Mun ich</w> 620
19 12</w> 619
et - 619
con serv 619
4 /O)</w> 618
ult ing</w> 618
offic er</w> 618
indu strial</w> 618
Bor ough</w> 618
sus p 618
T echn 617
h amm 617
anc ell 617
activ ities</w> 617
3 9</w> 616
M ik 616
P or 616
th ing</w> 616
in duc 616
um p</w> 616
L ev 615
E c 615
sp read</w> 615
por tion</w> 615
Gre en 615
sol ar</w> 615
tern al</w> 615
win ter</w> 615
R i 614
ear - 614
cons isting</w> 614
D esp 613
J on 613
at en</w> 613
We b 613
ident ified</w> 613
mix ed</w> 613
Argent ina</w> 613
u g</w> 612
n am</w> 612
T an 612
h aps</w> 612
Car ib 612
Oper a</w> 612
m al</w> 611
M es 611
Christ mas</w> 611
ext rem 611
i. e.</w> 611
s ense</w> 610
9 . 610
C D</w> 610
pl an</w> 610
ion e 610
ant ly</w> 610
De ath</w> 610
k el 609
is a</w> 609
de d 609
ut en 609
form ula</w> 609
ill ed</w> 609
bro thers</w> 609
leg isl 609
Up per</w> 609
headquart ers</w> 609
e es</w> 608
7 th</w> 608
ch or 608
ist ence</w> 608
Ar dÃ</w> 608
gu n</w> 608
C ant 607
we ak 607
Mar c 607
Or thodox</w> 607
Mon tre 607
stor ms</w> 607
ca thedral</w> 607
tur ed</w> 607
trav el</w> 607
Sax ony</w> 607
inte gr 607
r oute</w> 606
l ook</w> 606
f it</w> 606
5 9</w> 606
N ag 606
ro se</w> 606
reg ional</w> 606
if t</w> 606
ph r 606
buil d</w> 606
20 11</w> 606
port ing</w> 606
go als</w> 606
contin ental</w> 606
190 1</w> 606
du - 606
shap ed</w> 606
Tok yo</w> 606
Lincol n</w> 606
8 8</w> 605
T otal</w> 605
J eff 605
b omb 605
Nor way</w> 605
relig ion</w> 605
resul ts</w> 605
we ek 604
des c 604
pr ison</w> 604
cons um 604
cer t 604
Phil ip</w> 604
class ified</w> 604
Doc tor</w> 604
w are</w> 603
S and 603
str ing</w> 603
form at</w> 603
prov ides</w> 603
T ai 602
el a</w> 602
com ot 602
for eign</w> 602
ay a</w> 602
An im 602
fe at 602
192 5</w> 602
gener ation</w> 602
del iv 602
re v 601
Jan e</w> 601
Col or 601
For t</w> 601
Carib bean</w> 601
l av 600
M ong 600
J ones</w> 600
O f</w> 600
er ate</w> 600
pow ers</w> 600
Found ation</w> 600
N ig 599
un i 599
contro vers 599
Sm ack 599
incre ased</w> 599
prob lem</w> 599
broad cast</w> 599
occ ur</w> 598
t arg 597
e u 597
M ax 597
C oun 597
op t 597
cl ubs</w> 597
sl ightly</w> 597
appl ications</w> 597
Portug al</w> 597
r hy 596
y wood</w> 596
h r 596
on ent</w> 596
it ation</w> 596
ent er</w> 596
be aut 596
In c.</w> 596
mo dif 596
car ried</w> 596
hs il</w> 596
T ar 595
w ave</w> 595
C la 595
re moved</w> 595
il i 595
pol y 595
sup pl 595
aug ht</w> 595
No .</w> 595
mid fielder</w> 595
there fore</w> 595
e on</w> 594
\ *</w> 594
I ra 594
18 th</w> 594
ann a</w> 594
ress ion</w> 594
Ham ilton</w> 594
5 , 593
w ind 593
spec if 593
inv ented</w> 593
m a 592
ri ev 592
em y</w> 592
tri be</w> 592
ca uses</w> 592
iter ranean</w> 592
transl ated</w> 592
Color ado</w> 592
A ge</w> 591
ad ult</w> 591
philos opher</w> 591
fran ch 591
3 \/ 590
en burg</w> 590
elect ro 590
f ought</w> 589
h air</w> 589
F our</w> 589
it ude</w> 589
ur n</w> 589
ist ant</w> 589
Le g 589
ian o</w> 589
Pal ace</w> 589
can di 589
construc ted</w> 589
ist ance</w> 588
me eting</w> 588
c old</w> 587
be c</w> 587
kn owled 587
cap ac 587
Wil hel 587
bas is</w> 587
Med iterranean</w> 587
shar ed</w> 587
g arden</w> 586
L ith 586
S ong</w> 586
V III</w> 586
K er 586
in et</w> 586
sp ons 586
me et</w> 586
Sou th 586
Yor kshire</w> 586
M ess 585
as ion</w> 585
ad ing</w> 585
Fran k</w> 585
par allel</w> 585
bo dies</w> 585
Ad ams</w> 585
occ urs</w> 585
defe at</w> 585
driv e</w> 585
l ight 584
N ev 584
v eg 584
an es</w> 584
iz ing</w> 584
ard o</w> 584
m ine</w> 583
g rown</w> 583
f estival</w> 583
9 9</w> 583
on e- 583
ent ry</w> 583
Ch rist</w> 583
rest aur 583
Provence-Alpes- C</w> 583
0 8</w> 582
5 3</w> 582
it ch 582
oll ow</w> 582
air man</w> 582
y cl 581
m is 581
not e</w> 581
spe ak</w> 581
ocol ate</w> 581
e at</w> 580
4 1</w> 580
7 /O)</w> 580
L ast</w> 580
ch urches</w> 580
ug by</w> 579
car bon</w> 579
jo in</w> 579
Tri ple</w> 579
u str 578
s a</w> 578
l - 578
5 th</w> 578
T u 578
19 14</w> 578
con fl 578
St and 578
rem aining</w> 578
promin ent</w> 578
t y 577
k now</w> 577
con om 577
sel ected</w> 577
Ad minist 577
Pok Ã</w> 577
p ap 576
5 ,000</w> 576
in e- 576
er ine</w> 576
it i</w> 576
im ages</w> 576
og y</w> 576
Al li 576
do or</w> 576
Bu reau</w> 576
mult i- 576
rol l</w> 576
stat istics</w> 575
Egyp t 575
Cast le</w> 575
r ar 574
dis sol 574
eg gs</w> 574
iss ued</w> 574
Domin ican</w> 574
contin ue</w> 573
Ab bott 573
s am 572
acc ount</w> 572
spe ech</w> 572
proper ty</w> 572
vict ory</w> 572
M ain</w> 571
b ing</w> 571
us age</w> 571
ag ric 571
Ch am 571
ang el 571
sub st 571
Wil son</w> 571
lat ter</w> 571
host ed</w> 571
Abbott abad</w> 571
A arg 570
M and 570
O d 570
ill es</w> 570
cons ole</w> 570
dou ble</w> 570
Wom en</w> 570
e gr 569
c oo 569
S ab 569
b all 569
com edi 569
con fir 569
eg a</w> 569
192 7</w> 569
ly rics</w> 569
organ ic</w> 569
stre et</w> 569
4 9</w> 568
er ies</w> 568
st ore</w> 568
sh owed</w> 568
cont em 568
met ers</w> 568
Aarg au</w> 568
p ast 567
6 9</w> 567
ex isted</w> 567
Cat egory</w> 567
execut ive</w> 567
comput ers</w> 567
Bav aria</w> 567
Bang lad 567
A k 566
s ides</w> 566
f oot</w> 566
5 8</w> 566
G ri 566
I d 566
C ount</w> 566
ac king</w> 566
em is 566
mar ine</w> 566
secon dary</w> 566
ment ioned</w> 566
contr act</w> 566
Steph en</w> 566
Smack Down</w> 566
r ural</w> 565
m om 565
n i 565
int ended</w> 565
mil k</w> 565
Mad rid</w> 565
y et</w> 564
serv e</w> 564
sev enth</w> 564
add itional</w> 564
circ uit</w> 564
FI FA</w> 564
s ug 563
N avy</w> 563
E P</w> 563
E duc 563
19 10</w> 563
ent ation</w> 563
ow ner</w> 563
con cl 563
gen d</w> 563
mon t</w> 563
192 2</w> 563
Flor ence</w> 563
bir th 563
Mo z 563
liter ally</w> 563
Bill board</w> 563
st ock</w> 562
il a</w> 562
ed ge</w> 562
pe t</w> 562
anc ial</w> 562
Li brary</w> 562
occurr ed</w> 562
magnet ic</w> 562
insp ired</w> 562
H ot</w> 561
6 /O)</w> 561
B all 561
b ishop</w> 561
ri e</w> 561
be at</w> 561
um ent</w> 561
pri me</w> 561
mar ked</w> 561
Willi ams</w> 561
present ed</w> 561
Just ice</w> 561
s ets</w> 560
z ona</w> 560
N apol 560
V II</w> 560
K y 560
el ess</w> 560
et ies</w> 560
pro m 560
ra il</w> 560
Ar d 560
po or</w> 560
exp ans 560
star red</w> 560
Desp ite</w> 560
f ighting</w> 559
S P 559
E conom 559
re fl 559
str at 559
form ally</w> 559
pe ace</w> 559
192 3</w> 559
Lou is 559
eth n 559
Cro at 559
e ing</w> 558
al ized</w> 558
st a 558
oc ks</w> 558
ex press 558
tr acks</w> 558
ish ment</w> 558
compar ed</w> 558
y weight</w> 557
L ind 557
N BA</w> 557
eg o</w> 557
agre ement</w> 557
feat uring</w> 557
c lear</w> 556
4 0 556
d ated</w> 556
H amp 556
res er 556
ph er 556
dr ummer</w> 556
high - 556
tournam ent</w> 556
f arm 555
ch y</w> 555
Af g 555
192 8</w> 555
resp ectively</w> 555
kill ing</w> 555
r at</w> 554
y e</w> 554
d ang 554
m ax 554
7 1</w> 554
C er 554
b or</w> 554
pe l</w> 554
comp ounds</w> 554
territ ories</w> 554
b al</w> 553
for est</w> 553
Joh ann</w> 553
tran sm 553
15 0</w> 553
(/O 198 553
mot ion</w> 553
Christian ity</w> 553
t ext 552
m ig 552
N ar 552
N ich 552
F ire</w> 552
K o 552
or ph 552
ic ks</w> 552
dev el 552
electr onic</w> 552
Fin land</w> 552
Hit ler</w> 552
Montre al</w> 552
7 , 551
M Ã</w> 551
ch ain</w> 551
eng ines</w> 551
exp ected</w> 551
Op en</w> 551
nickn amed</w> 551
John son</w> 551
ul ated</w> 550
Ant arc 550
lim s</w> 550
ven ue</w> 550
p ack 549
c k</w> 549
. D.</w> 549
H ong</w> 549
8 /O)</w> 549
T op</w> 549
W e</w> 549
C ount 549
ou ter</w> 549
un ique</w> 549
op p 549
Ch er 549
enc ies</w> 549
iss ion</w> 549
192 6</w> 549
Wal ter</w> 549
cycl op 549
gir l</w> 549
wil d</w> 549
5 /O)</w> 548
G h 548
ch ro 548
ra ine</w> 548
Jew s</w> 548
excl us 548
F al 547
O ver</w> 547
ph en 547
amp ions</w> 547
ey es</w> 547
exam ples</w> 547
cr ypt 547
cred ited</w> 547
t i</w> 546
F el 546
B eng 546
de al</w> 546
writ ers</w> 546
dou b 546
High way</w> 546
devel op</w> 546
D am 545
lo comot 545
Ma x</w> 545
def ender</w> 545
read ing</w> 545
flow ers</w> 545
prem i 545
8 . 544
F .</w> 544
id er</w> 544
te enth</w> 544
foun ding</w> 544
ext ended</w> 544
Mat the 544
6 8</w> 543
ad er</w> 543
follow s</w> 543
El ect 543
t aught</w> 542
T ic 542
w est 542
V an</w> 542
j azz</w> 542
rem ain</w> 542
tri bes</w> 542
Mus lims</w> 542
kin ds</w> 542
earthqu ake</w> 542
L aur 541
h am 541
h ands</w> 541
Th en</w> 541
ag en</w> 541
li b 541
sm allest</w> 541
div ers 541
bel t</w> 541
equ ip 541
sem i- 541
Pict ures</w> 541
b att 540
ec k 540
par ent</w> 540
Inter state</w> 540
them e</w> 540
some one</w> 540
Viet nam</w> 540
p ref 539
f i 539
f ly</w> 539
L ower</w> 539
W ood 539
j an</w> 539
om an</w> 539
ad vent 539
per haps</w> 539
ant e</w> 539
ett ing</w> 539
equ ival 539
A h 538
M en 538
ã o</w> 538
res ulting</w> 538
ex hib 538
ed itor</w> 538
design ation</w> 538
Bo b</w> 538
Sev eral</w> 538
c ell 537
6 . 537
M ol 537
b ad</w> 537
ü r 537
19 11</w> 537
de ep</w> 537
ot ic</w> 537
Com mit 537
Jo e</w> 537
Lan gu 537
behav ior</w> 537
capac ity</w> 537
A l</w> 536
y ear- 536
or i 536
ch ron 536
sc ulp 536
bot tom</w> 536
div isions</w> 536
not ably</w> 536
190 8</w> 536
Offic ial</w> 536
Squ are</w> 536
Net work</w> 536
h o</w> 535
D anish</w> 535
pro te 535
me ant</w> 535
sc ene</w> 535
Pro duc 535
Ab bey</w> 535
transl ation</w> 535
adel ph 535
O ut 534
ro e</w> 534
ec lip 534
neigh bor 534
u k</w> 533
e arth</w> 533
y m</w> 533
re ign</w> 533
mus icians</w> 533
Isl am</w> 533
r out 532
B rian</w> 532
un a</w> 532
Ex am 532
sugg ested</w> 532
s in 531
f ur</w> 531
T imes</w> 531
W rest 531
ish er</w> 531
Cent re</w> 531
mem ory</w> 531
7 7</w> 530
7 4</w> 530
T yp 530
el ic</w> 530
tran sport</w> 530
struc tures</w> 530
Christ opher</w> 530
WW F</w> 530
individ uals</w> 530
occup ied</w> 530
al i 529
us e 529
per f 529
og en 529
ath an</w> 529
bi ology</w> 529
wat ers</w> 529
agre ed</w> 529
Territ ory</w> 529
Protest ant</w> 529
s and 528
a f</w> 528
V ers 528
com ic</w> 528
pro per</w> 528
comb ination</w> 528
satell ite</w> 528
S av 527
S ocial</w> 527
B os 527
ar ily</w> 527
for d 527
oc ean</w> 527
En cyclop 527
Mil an</w> 527
los s</w> 527
abbrevi ated</w> 527
ancell or</w> 527
g er 526
T im</w> 526
G N 526
iv or</w> 526
per form</w> 526
Ma ur 526
pur ch 526
func tions</w> 526
specif ically</w> 526
6 th</w> 525
w ick</w> 525
B us 525
sp elled</w> 525
design ated</w> 525
Phil adelph 525
dem on 525
Im perial</w> 525
Ben j 525
Mount ain</w> 525
Bow l</w> 525
veg et 525
g ar</w> 524
R a 524
V o 524
th ink</w> 524
Le w 524
stit u 524
eas ily</w> 524
univers e</w> 524
ay- per- 524
organiz ations</w> 524
emis phere</w> 524
on ents</w> 523
wor n</w> 523
ob a</w> 523
dis s 523
3\/ 4</w> 523
f ail 522
P .</w> 522
Con stitution</w> 522
sing ing</w> 522
Philadelph ia</w> 522
S S</w> 521
in stitut 521
re plac 521
st ret 521
ir on</w> 521
inter nal</w> 521
vill ages</w> 521
Sen ate</w> 521
anal ysis</w> 521
r are</w> 520
R em 520
N av 520
am ing</w> 520
succe eded</w> 520
Ara b</w> 520
Gramm y</w> 520
n ations</w> 519
L ong</w> 519
D ur 519
N AS 519
ne ut 519
fl ight</w> 519
celebr ated</w> 519
twel ve</w> 519
A ber 518
a iss 518
H ear 518
ot te</w> 518
St ock 518
Man ia</w> 518
go al 518
auth ority</w> 518
evol utionary</w> 518
Hung arian</w> 518
Rac ing</w> 518
l ers</w> 517
e h 517
8 , 517
F inn 517
et ry</w> 517
ot ed</w> 517
administ ration</w> 517
Bun des 517
Profess or</w> 517
5 6</w> 516
8 6</w> 516
ar ding</w> 516
ff ic</w> 516
des p 516
ber ed</w> 516
Har v 516
gl ass</w> 516
dor f</w> 516
Benj amin</w> 516
an k 515
am p</w> 515
all - 515
ass ass 515
Ju an</w> 515
stri ker</w> 515
Ad v 515
All - 515
Ros s</w> 515
Fil m</w> 515
Paul o</w> 515
campa ign</w> 515
A ff 514
m er</w> 514
H il 514
S Ã</w> 514
K on 514
ult ural</w> 514
dr am 514
sel ection</w> 514
mo ons</w> 514
sal es</w> 514
iri t</w> 514
g ian</w> 513
T enn 513
ro s</w> 513
us c 513
ab ol 513
se as</w> 513
all owing</w> 513
thre e- 513
franch ise</w> 513
Commit tee</w> 513
k ill</w> 512
5 0 512
5 2</w> 512
R io</w> 512
el f</w> 512
19 17</w> 512
ch i</w> 512
ex change</w> 512
192 1</w> 512
Ad d 512
bro ke</w> 512
trad itionally</w> 512
youn gest</w> 512
Fin al</w> 512
Bir m 512
c ost</w> 511
5 7</w> 511
R ub 511
j oy 511
C ru 511
Th ough</w> 511
sp er 511
Sh ak 511
dr ums</w> 511
contin ent</w> 511
The atre</w> 511
rac es</w> 511
land ers</w> 511
fig ures</w> 511
Sam uel</w> 511
f ailed</w> 510
M ond 510
er r 510
es ian</w> 510
Con fed 510
differ ence</w> 510
econom y</w> 510
R C 509
D ictionary</w> 509
N ept 509
E CW</w> 509
medi eval</w> 509
plat form</w> 509
Ass embly</w> 509
liqu id</w> 509
Holl ywood</w> 509
Wilhel m</w> 509
Banglad esh</w> 509
l i</w> 508
p ay-per- 508
v ic 508
al i</w> 508
ag a</w> 508
Ar c 508
gen re</w> 508
1 /O)</w> 507
T un 507
P itt 507
B ros 507
ran ked</w> 507
He in 507
possib ly</w> 507
fash ion</w> 507
Lith u 507
r ad 506
H u 506
H i 506
B ad</w> 506
in um</w> 506
part ies</w> 506
Ca es 506
Fer din 506
Mu hamm 506
fav or 506
Publ ic</w> 506
l es 505
L ic 505
st ands</w> 505
pl om 505
ran k</w> 505
Ph oen 505
respon se</w> 505
aiss ance</w> 505
Birm ingham</w> 505
6 2</w> 504
b ach</w> 504
ib ility</w> 504
Phil harmonic</w> 504
meas ure</w> 504
Stat istics</w> 504
keep er</w> 504
Ari zona</w> 504
comedi an</w> 504
l ay 503
f ix 503
F a 503
j a</w> 503
qu ality</w> 503
serv es</w> 503
17 th</w> 503
post - 503
c are</w> 502
6 3</w> 502
ro man 502
ul tim 502
claim s</w> 502
Tic ino</w> 502
L and 501
w er</w> 501
j i</w> 501
ic ient</w> 501
disc uss 501
Gen eva</w> 501
vis ible</w> 501
Que bec</w> 501
Bi ography</w> 501
f ans</w> 500
7 3</w> 500
C ass 500
str eng 500
Ar n 500
col ony</w> 500
16 th</w> 500
Res earch</w> 500
Vend Ã</w> 500
Gab ri 500
Wis cons 500
Educ ation</w> 500
C urr 499
ch ocolate</w> 499
ot el</w> 499
influ ential</w> 499
ecut ive</w> 499
Mi ke</w> 499
t ers</w> 498
9 6</w> 498
6 , 498
w el 498
P ul 498
al ong 498
ens is</w> 498
195 0s</w> 498
Br un 498
tem porary</w> 498
aut onom 498
p p</w> 497
3 /O)</w> 497
k ingdom</w> 497
d ogs</w> 497
9 2</w> 497
S ports</w> 497
ian - 497
immedi ately</w> 497
Afg han 497
et ed</w> 496
de gre 496
cap tured</w> 496
origin ated</w> 496
ca using</w> 496
paint ings</w> 496
perman ent</w> 496
Wrest le 496
p ur</w> 495
P ur 495
re present</w> 495
Argent ine</w> 495
Play Station</w> 495
expans ion</w> 495
s ac 494
R ud 494
ch ap 494
ed ly</w> 494
Wh it 494
mun d</w> 494
193 1</w> 494
Ad am</w> 494
mamm als</w> 494
C os 493
b rown</w> 493
re pe 493
res c 493
ess e</w> 493
Nor we 493
ob by</w> 493
16 0 493
Virg in</w> 493
g ri 492
L enn 492
W ay</w> 492
as on 492
19 13</w> 492
ex istence</w> 492
pri or</w> 492
subsequ ently</w> 492
D etro 491
C ow 491
b ought</w> 491
ag u 491
rec ip 491
Al bu 491
thr one</w> 491
not es</w> 491
main land</w> 491
orb its</w> 491
univers ities</w> 491
demon str 491
m art 490
R av 490
S o</w> 490
S C 490
un known</w> 490
loc k</w> 490
ern most</w> 490
trans fer 490
Detro it</w> 490
ou ver</w> 489
el im 489
pos itive</w> 489
sch ed 489
sol id</w> 489
Gu in 489
wat er 489
Liv er 489
V anc 488
C ard 488
se g 488
mot or 488
voc alist</w> 488
Lab or</w> 488
dim ens 488
Wrestle Mania</w> 488
r Ã</w> 487
at i</w> 487
ob served</w> 487
popul arity</w> 487
mechan ical</w> 487
coast al</w> 487
Wiscons in</w> 487
t all</w> 486
8 1</w> 486
w ich</w> 486
w ant</w> 486
an e 486
for ward</w> 486
um n</w> 486
act ual</w> 486
min ster</w> 486
ath ers</w> 486
row s</w> 486
oper ations</w> 486
Spec ial</w> 486
Hawai i</w> 486
i ers</w> 485
g ets</w> 485
9 th</w> 485
F la 485
C lin 485
b an</w> 485
in struc 485
es day</w> 485
uc c 485
our i</w> 485
ip er</w> 485
cap tain</w> 485
On ly</w> 485
sil ver</w> 485
m ist 484
- like</w> 484
n ers</w> 484
ad vert 484
Ch em 484
sl ow 484
compos ition</w> 484
May a</w> 484
Kar l</w> 484
pian ist</w> 484
ief s</w> 484
p ret 483
P yr 483
J ean</w> 483
il ed</w> 483
ent ire 483
sc ored</w> 483
start s</w> 483
mor ning</w> 483
pot ential</w> 483
achiev ed</w> 483
Matthe w</w> 483
Afghan istan</w> 483
i Ã</w> 482
i od</w> 482
6 0 482
F u 482
V oy 482
ass um 482
cent re</w> 482
manag ed</w> 482
programm ing</w> 482
ded icated</w> 482
entire ly</w> 482
c ross</w> 481
y t 481
k er 481
g odd 481
f uel</w> 481
L ud 481
V auc 481
K .</w> 481
in ity</w> 481
19 16</w> 481
ex ts</w> 481
ut y</w> 481
if ul</w> 481
Cap tain</w> 481
H ome</w> 480
z one</w> 480
P a 480
b ell 480
re stric 480
Ar k 480
sub ur 480
For est</w> 480
ever y 480
meth ods</w> 480
vir t 480
D Ã</w> 479
S ain 479
di um</w> 479
av el 479
sh oot 479
ed on</w> 479
go alt 479
partic les</w> 479
sec urity</w> 479
O t 478
is ation</w> 478
per forming</w> 478
Bro ad 478
sof t</w> 478
Rog er</w> 478
pay-per- view</w> 478
t ail</w> 477
S ind 477
qu ite</w> 477
fin ancial</w> 477
rel ative</w> 477
He av 477
mag nit 477
ox y 477
Tran s 477
A st 476
8 3</w> 476
J im</w> 476
ar o</w> 476
ac adem 476
ag an</w> 476
ist ical</w> 476
par liament</w> 476
to s</w> 476
sc ore</w> 476
bl ues</w> 476
Con stant 476
prot ect</w> 476
sec ret</w> 476
Sup reme</w> 476
experi ence</w> 476
Ira q</w> 476
desp ite</w> 476
k ins</w> 475
L .</w> 475
E th 475
pro p 475
se arch 475
res our 475
ak ia</w> 475
ex isting</w> 475
oo g 475
all ing</w> 475
and o</w> 475
co ff 475
cor rec 475
arm ed</w> 475
resul ted</w> 475
Pu erto</w> 475
Ott oman</w> 475
extrem ely</w> 475
degre es</w> 475
om b</w> 474
St ar 474
Wh at</w> 474
nuc le 474
Fried rich</w> 474
Egypt ian</w> 474
l ingu 473
7 6</w> 473
sim pl 473
Ex t 473
Sec urity</w> 473
Miss ouri</w> 473
Cre ek</w> 473
Alf red</w> 473
Indon esia</w> 473
Bros .</w> 473
l it 472
S ometimes</w> 472
v in</w> 472
B yz 472
in king</w> 472
re presents</w> 472
con stitut 472
ver te 472
descri bes</w> 472
crit ical</w> 472
purpos es</w> 472
riev ed</w> 472
l ess 471
6 7</w> 471
th or 471
ar m</w> 471
st aff</w> 471
sh or 471
mar ks</w> 471
Bur g 471
Satur day</w> 471
Bet ween</w> 471
Vanc ouver</w> 471
e b 470
h ood</w> 470
P erc 470
á n</w> 470
con stitu 470
Ch ile</w> 470
cal cul 470
commun ities</w> 470
exp anded</w> 470
Surv ivor</w> 470
rhy th 470
s aying</w> 469
our t</w> 469
Com mon</w> 469
Har rison</w> 469
class ic</w> 469
mathemat ician</w> 469
pict ure</w> 469
Beat les</w> 469
r yp 468
H ou 468
T ony</w> 468
w alls</w> 468
or i</w> 468
od a</w> 468
tem plate</w> 468
Di ego</w> 468
vis it</w> 468
Sim on</w> 468
r ub 467
b it 467
st able</w> 467
rel ations</w> 467
Car l</w> 467
su n</w> 467
radi ation</w> 467
Under ground</w> 467
r as</w> 466
p ione 466
y ond</w> 466
S even</w> 466
B ay 466
Y am 466
pl anned</w> 466
oc e 466
Ch e 466
cont ained</w> 466
pol e</w> 466
med icine</w> 466
Dev elop 466
scrip t</w> 466
stop ped</w> 466
Vauc l 466
s av 465
f ast 465
T i 465
B ell</w> 465
ill ustr 465
Nor th- 465
ant ine</w> 465
govern or</w> 465
He bre 465
c ab 464
j ected</w> 464
er als</w> 464
ad apt 464
art er</w> 464
att ention</w> 464
cre ating</w> 464
-de- la- 464
manag ement</w> 464
da ily</w> 464
ford shire</w> 464
along side</w> 464
a o</w> 463
in ally</w> 463
mus eum</w> 463
sequ ence</w> 463
Sl av 463
contem porary</w> 463
Muhamm ad</w> 463
i ques</w> 462
y land</w> 462
B il 462
et ary</w> 462
Al ber 462
cont act</w> 462
Pot ter</w> 462
prin ted</w> 462
Pitt s 462
G old</w> 461
I s</w> 461
Y ears</w> 461
te a</w> 461
pres ence</w> 461
init ial</w> 461
Fer r 461
Philipp ines</w> 461
n i</w> 460
f air 460
w aves</w> 460
B apt 460
b one</w> 460
è che</w> 460
ad ap 460
Ad vent 460
Min istry</w> 460
Pak ist 460
Gl as 460
Vaucl use</w> 460
l ack</w> 459
6 1</w> 459
w r 459
w ine</w> 459
S R</w> 459
wh ere 459
val ues</w> 459
phys icist</w> 459
evol ved</w> 459
grad uated</w> 459
West minster</w> 459
Pier re</w> 459
max imum</w> 459
Nept une</w> 459
s u</w> 458
t le</w> 458
f res 458
R on 458
J ord 458
or atory</w> 458
em et 458
ad t</w> 458
lead ers</w> 458
war m</w> 458
gran ted</w> 458
Direc tor</w> 458
Norwe gian</w> 458
t ennis</w> 457
m ast 457
U t 457
re asons</w> 457
ug s</w> 457
rest ed</w> 457
190 3</w> 457
Ken ne 457
al o</w> 456
st ep 456
st ood</w> 456
oc h</w> 456
cat eg 456
invest ig 456
n or</w> 455
f ollow</w> 455
L ie 455
D on</w> 455
et e</w> 455
gu est</w> 455
ly ing</w> 455
sign al</w> 455
tre aty</w> 455
War ner</w> 455
Mex ican</w> 455
Pat rick</w> 455
paint ing</w> 455
Anth ony</w> 455
s ar</w> 454
d ish</w> 454
d ating</w> 454
g ang</w> 454
2 /O)</w> 454
C ost 454
Mar it 454
lin ked</w> 454
vers e</w> 454
13 th</w> 454
ge omet 454
aff ected</w> 454
Fri day</w> 454
kilomet ers</w> 454
Tai wan</w> 454
k - 453
8 0 453
G ord 453
N el 453
for ests</w> 453
uc ks</w> 453
co st 453
sal t</w> 453
proper ties</w> 453
emet ery</w> 453
e ast 452
7 8</w> 452
G ood</w> 452
C C 452
or ous</w> 452
es see</w> 452
per c 452
po em</w> 452
vis ited</w> 452
Commun ity</w> 452
bound ary</w> 452
ellig ence</w> 452
in y</w> 451
app ed</w> 451
Bu il 451
Mat t</w> 451
Pitts burgh</w> 451
N am 450
S em 450
C ob 450
& B</w> 450
in ations</w> 450
In do 450
af t</w> 450
differ ences</w> 450
happ ened</w> 450
o ol 449
g ow</w> 449
g oods</w> 449
T est 449
I an</w> 449
ad ow</w> 449
ash i</w> 449
gl obal</w> 449
rul er</w> 449
surv iving</w> 449
Chil dren</w> 449
t allest</w> 448
m ing</w> 448
g ing</w> 448
v ar 448
K am 448
j u 448
C it 448
dis k</w> 448
roc ks</w> 448
Sar ah</w> 448
Ard èche</w> 448
Ferdin and</w> 448
6 00</w> 447
L anc 447
D raft</w> 447
ch arts</w> 447
os a</w> 447
sh ore</w> 447
res ol 447
arch y</w> 447
represent ing</w> 447
Wat er 447
vot ed</w> 447
confl ict</w> 447
8 4</w> 446
R oll 446
M P 446
B S</w> 446
St ud 446
oo m</w> 446
coun t</w> 446
hy po 446
nov el 446
hor se</w> 446
Ren aissance</w> 446
r y 445
h an</w> 445
W ag 445
es man</w> 445
ol l</w> 445
igh ter</w> 445
jo ining</w> 445
concer ts</w> 445
ace ous</w> 445
ethn ic</w> 445
Tenn essee</w> 445
magnit ude</w> 445
B is 444
O ut</w> 444
per cent</w> 444
ip el 444
sc en 444
mod els</w> 444
tri but 444
commun ication</w> 444
pen insula</w> 444
Fron tier</w> 444
sug ar</w> 444
Phoen ix</w> 444
8 2</w> 443
w s</w> 443
S ud 443
I A 443
on ym 443
op er</w> 443
Ev en</w> 443
Med icine</w> 443
sen ior</w> 443
weap ons</w> 443
Guin ea</w> 443
subur b</w> 443
f antasy</w> 442
9 4</w> 442
G on 442
K im</w> 442
om es</w> 442
pl astic</w> 442
ot es</w> 442
anth rop 442
domest ic</w> 442
s .</w> 441
1 000</w> 441
S of 441
al ty</w> 441
Al i</w> 441
An na</w> 441
inv ent 441
ban ks</w> 441
coll ap 441
class ification</w> 441
distribu ted</w> 441
f ell</w> 440
P ays 440
C O 440
an ch 440
em a</w> 440
et a</w> 440
ul ate</w> 440
por tr 440
att ached</w> 440
Brit ann 440
sub - 440
sol ution</w> 440
tra ffic</w> 440
performan ces</w> 440
Hum an</w> 440
equival ent</w> 440
v ision</w> 439
B our 439
di an</w> 439
ir ates</w> 439
de aths</w> 439
to x 439
import ance</w> 439
techn ique</w> 439
Ap ple</w> 439
short ly</w> 439
twent y- 439
compris es</w> 439
Independ ence</w> 439
Glas gow</w> 439
m y 438
m al 438
g in</w> 438
9 7</w> 438
E ur 438
b ast 438
Am ong</w> 438
ard ens</w> 438
typ ical</w> 438
sett led</w> 438
astero ids</w> 438
L ate</w> 437
E ug 437
W es 437
in ess</w> 437
on ed</w> 437
au t</w> 437
appear ances</w> 437
cr ust</w> 437
temper atures</w> 437
escap e</w> 437
year- old</w> 437
-de-la- Loire</w> 437
Pays -de-la-Loire</w> 437
in ks</w> 436
st ic</w> 436
ul ts</w> 436
pro jects</w> 436
sp r 436
ret e</w> 436
Br ad 436
Dar k</w> 436
mit ted</w> 436
surr ounded</w> 436
hun dred</w> 436
thous ands</w> 436
Coun try</w> 436
Hebre w</w> 436
c as 435
D od 435
D oug 435
et ics</w> 435
te aching</w> 435
pos itions</w> 435
olog ists</w> 435
chem istry</w> 435
Carl os</w> 435
extinc t</w> 435
confir med</w> 435
Liver pool</w> 435
s wit 434
f ellow</w> 434
S ul 434
in ches</w> 434
em e</w> 434
mov es</w> 434
186 5</w> 434
Im age</w> 434
West ph 434
Ark ansas</w> 434
s over 433
a im 433
8 00</w> 433
E is 433
go ds</w> 433
ograph ical</w> 433
ress ed</w> 433
electr ical</w> 433
Rh ô 433
Sax e- 433
Stu dios</w> 433
ate ur</w> 433
imp act</w> 433
S I</w> 432
K ing 432
B ed 432
pl ates</w> 432
ne - 432
pri ze</w> 432
produc es</w> 432
sing er- 432
ah o</w> 432
recor dings</w> 432
stor es</w> 432
Republ ican</w> 432
May or</w> 432
s au 431
i at 431
f al 431
R ay</w> 431
G un 431
P ower</w> 431
ard - 431
Bar cel 431
contin ues</w> 431
cast ing</w> 431
Jeff erson</w> 431
K az 430
ur er</w> 430
et ime</w> 430
Americ ans</w> 430
190 6</w> 430
audi ence</w> 430
Anton io</w> 430
godd ess</w> 430
c tion</w> 429
N ick 429
op posed</w> 429
the at 429
tr u 429
tr a</w> 429
par ish</w> 429
ann i</w> 429
190 4</w> 429
consid er 429
chang ing</w> 429
phr ase</w> 429
t a 428
m ic</w> 428
g ers</w> 428
- up</w> 428
b ell</w> 428
el t</w> 428
fl ower</w> 428
17 0 428
Pl at 428
fre edom</w> 428
c os 427
N um 427
in ate</w> 427
ec cent 427
id ay</w> 427
15 th</w> 427
spe akers</w> 427
coll abor 427
liter ary</w> 427
colon ial</w> 427
Orig inally</w> 427
necess ary</w> 427
gradu ate</w> 427
goalt ender</w> 427
s ing</w> 426
T ower</w> 426
I N 426
in de 426
19 15</w> 426
ent i 426
Com mission</w> 426
process es</w> 426
pil ot</w> 426
bacter ia</w> 426
Mond ay</w> 426
c in 425
R ad 425
b ad 425
b its</w> 425
in her 425
in come</w> 425
di plom 425
ut ed</w> 425
An d</w> 425
au re 425
coun ter 425
cor respon 425
journ alist</w> 425
Charl otte</w> 425
Kenne dy</w> 425
c ards</w> 424
T elevision</w> 424
M aster</w> 424
P ep 424
F ul 424
ar gu 424
po int 424
produc ing</w> 424
ograp her</w> 424
flo or</w> 424
Cub a</w> 424
treat ment</w> 424
Barcel ona</w> 424
l em 423
d ict 423
d ale</w> 423
B and</w> 423
it ems</w> 423
us en</w> 423
sub tropical</w> 423
189 5</w> 423
cr yst 423
ord ered</w> 423
so il</w> 423
ci ph 423
foss il</w> 423
Tem ple</w> 423
strat eg 423
Heav yweight</w> 423
A y 422
p aid</w> 422
D ou 422
M ach 422
W ith 422
di ag 422
bur n</w> 422
pre vent</w> 422
bre ak 422
Pol ice</w> 422
186 1</w> 422
med al</w> 422
ress ive</w> 422
arriv ed</w> 422
Law r 422
knowled ge</w> 422
Westph alia</w> 422
d at 421
G .</w> 421
I O 421
b row 421
at ar</w> 421
re aching</w> 421
Christ ians</w> 421
leg s</w> 421
administ rat 421
Don ald</w> 421
Tro phy</w> 421
reduc ed</w> 421
i est</w> 420
e or 420
B ret 420
er on</w> 420
as ks</w> 420
Un like</w> 420
act ors</w> 420
att an</w> 420
Gra ham</w> 420
hydro gen</w> 420
How ard</w> 420
9 3</w> 419
P ass 419
F le 419
I P</w> 419
an z 419
qu ar 419
Her itage</w> 419
class es</w> 419
appl ication</w> 419
Bru ce</w> 419
Caes ar</w> 419
R &B</w> 418
D o</w> 418
D ig 418
U ran 418
re port</w> 418
ag ent</w> 418
oot h</w> 418
br ing</w> 418
Wor ks</w> 418
dev ices</w> 418
Re al</w> 418
inv asion</w> 418
Ma c</w> 418
scient ists</w> 418
Soci alist</w> 418
z ig</w> 417
S . 417
en berg</w> 417
on t</w> 417
id ers</w> 417
ric h 417
dec ades</w> 417
reve aled</w> 417
Voy ager</w> 417
G arden</w> 416
ad vis 416
ud a</w> 416
ud es</w> 416
success or</w> 416
four - 416
passeng er</w> 416
Id aho</w> 416
equip ment</w> 416
t ained</w> 415
l oy 415
c oc 415
H ills</w> 415
M ember</w> 415
U E 415
E ric</w> 415
Y our</w> 415
al co 415
di ary</w> 415
hel ps</w> 415
compos ers</w> 415
singer- songwriter</w> 415
s er</w> 414
g ro 414
b il 414
re is</w> 414
re ports</w> 414
al leg 414
im ag 414
ov a</w> 414
sp ect 414
Mar gar 414
fl ies</w> 414
ste el</w> 414
polit ics</w> 414
p et 413
g ate</w> 413
v al</w> 413
B art 413
an ic</w> 413
re ality</w> 413
au x 413
dr ink</w> 413
ik i</w> 413
190 2</w> 413
Bul gar 413
loo king</w> 413
gi ant</w> 413
Indo - 413
T as 412
D e</w> 412
w ick 412
I C 412
C old</w> 412
li brary</w> 412
Al ice</w> 412
po etry</w> 412
des cent</w> 412
emp ire</w> 412
fac ilities</w> 412
viol in</w> 412
const ant</w> 412
w ins</w> 411
ow ns</w> 411
se eds</w> 411
Pro ject</w> 411
depend ing</w> 411
Cath erine</w> 411
flow ering</w> 411
neg ative</w> 411
subsequ ent</w> 411
cust om 411
atmos phere</w> 411
M TV</w> 410
B ot 410
B ishop</w> 410
it led</w> 410
ug h 410
contr ast</w> 410
F ro 409
di c</w> 409
le ap</w> 409
ay ne</w> 409
res idents</w> 409
Ch ancellor</w> 409
190 5</w> 409
bri ef 409
t an 408
p air</w> 408
8 7</w> 408
F air 408
V ice</w> 408
B en</w> 408
C lev 408
it ion 408
re place</w> 408
ro ots</w> 408
reg n 408
Se attle</w> 408
her o</w> 408
pass ing</w> 408
prot ection</w> 408
stra ight</w> 408
mur der</w> 408
oxy gen</w> 408
o ples</w> 407
c ot 407
R he 407
J ourn 407
K ey 407
in hab 407
es el</w> 407
os h 407
ud ed</w> 407
An dr 407
Ac t 407
ext ensive</w> 407
The od 407
Bro ok 407
Cat al 407
Rang ers</w> 407
transfer red</w> 407
i y 406
M oon</w> 406
P in 406
P om 406
F ive</w> 406
I ran 406
est er 406
part ner</w> 406
ib a</w> 406
enc our 406
189 1</w> 406
hear d</w> 406
chall enge</w> 406
A C</w> 405
R ose</w> 405
W rit 405
C yr 405
or n 405
gen etic</w> 405
head ed</w> 405
odi c</w> 405
last ed</w> 405
may or</w> 405
Lew is</w> 405
l akes</w> 404
c ru 404
y outh</w> 404
g al 404
th a</w> 404
est - 404
ber ry</w> 404
out put</w> 404
Pol it 404
circ le</w> 404
km Â</w> 404
nickn ame</w> 404
Mill er</w> 404
verte br 404
t il 403
r am 403
f alls</w> 403
H ow</w> 403
P il 403
ev in</w> 403
Am az 403
Ne u 403
At t 403
Ant i 403
Ag es</w> 403
Frank lin</w> 403
Wall oon</w> 403
slow ly</w> 403
Byz antine</w> 403
p oll 402
H erc 402
Th ird</w> 402
cl es</w> 402
li am 402
Au th 402
Rom ans</w> 402
El l 402
ful l- 402
wid es 402
draw n</w> 402
m aker</w> 401
R C</w> 401
R and 401
G or 401
S ic 401
I g 401
er up 401
st ayed</w> 401
ac es</w> 401
op es</w> 401
Con cer 401
dec ade</w> 401
Ed in 401
under ground</w> 401
dra f 401
uk i</w> 401
veh icle</w> 401
Organ ization</w> 401
Finn ish</w> 401
t ub 400
S - 400
I X</w> 400
V inc 400
C u 400
ar rested</w> 400
ac he</w> 400
sh ell</w> 400
og ue</w> 400
over nor 400
off s</w> 400
imm ig 400
Dar win</w> 400
rar ely</w> 400
c ous 399
2 50</w> 399
M urr 399
N ik 399
I v 399
ol ia</w> 399
iv a</w> 399
ag ues</w> 399
sy mp 399
inn ers</w> 399
arch ae 399
gl ac 399
process ing</w> 399
Def ense</w> 399
Exam ples</w> 399
A N 398
M en</w> 398
N ot</w> 398
B illy</w> 398
b and 398
é n 398
X box</w> 398
us al 398
Ch ess</w> 398
ut sch 398
ash ed</w> 398
El ectr 398
190 7</w> 398
hor iz 398
adv ant 398
mess age</w> 398
bass ist</w> 398
n Ã</w> 397
7 9</w> 397
L es</w> 397
h ur 397
B obby</w> 397
ed o</w> 397
te ach 397
amp ton</w> 397
hu ge</w> 397
foc us</w> 397
cerem ony</w> 397
determin ed</w> 397
F landers</w> 396
re action</w> 396
ad d</w> 396
me at</w> 396
pre ad</w> 396
stor age</w> 396
municip al</w> 396
elect ions</w> 396
electr icity</w> 396
Wel sh</w> 396
Lawr ence</w> 396
y g 395
T ol 395
b ra 395
un usual</w> 395
li p</w> 395
au r</w> 395
cri min 395
hal f- 395
prot oc 395
crit ics</w> 395
Wol f 395
Jord an</w> 395
H art 394
D C</w> 394
D ie</w> 394
it able</w> 394
os hi</w> 394
id el 394
comm and</w> 394
comm it 394
reg ist 394
unt ing</w> 394
Jer usal 394
Ur du</w> 394
phen om 394
z o</w> 393
N .</w> 393
B ron 393
\/ h</w> 393
secon d- 393
Gi ov 393
tel eph 393
Uk raine</w> 393
coff ee</w> 393
Jerusal em</w> 393
l ayer</w> 392
ran ce</w> 392
ex ec 392
ill o</w> 392
beg in</w> 392
De b 392
Mem orial</w> 392
Stand ard</w> 392
p a</w> 391
p ath 391
k ir 391
m ap</w> 391
8 th</w> 391
sh r 391
bo ards</w> 391
Mon roe</w> 391
hum an 391
hol ding</w> 391
Dep ression</w> 391
Ga elic</w> 391
quest ion</w> 391
sport ation</w> 391
cou ple</w> 391
author ities</w> 391
r ates</w> 390
i ology</w> 390
L yn 390
N atur 390
v el 390
X - 390
an us</w> 390
av oid</w> 390
ing ing</w> 390
Al an</w> 390
ext reme</w> 390
acqu ired</w> 390
fail ure</w> 390
l an</w> 389
m ar</w> 389
T .</w> 389
h ill</w> 389
P ost 389
j o</w> 389
or ith 389
sp ar 389
bo ys</w> 389
camp us</w> 389
scient ist</w> 389
Loc al</w> 389
Conserv ative</w> 389
i en</w> 388
i ples</w> 388
m en 388
f ine</w> 388
L iter 388
P C 388
K an 388
or ange</w> 388
bel ief</w> 388
peri ods</w> 388
lead s</w> 388
indu stri 388
Po int</w> 388
cloth ing</w> 388
s umm 387
v ac 387
U p</w> 387
I M 387
th um 387
st adt</w> 387
Al - 387
fl oo 387
popul ations</w> 387
ult y</w> 387
trans fer</w> 387
medi um</w> 387
educ ational</w> 387
candi date</w> 387
wides pread</w> 387
S E 386
I cel 386
K a 386
W y 386
ab and 386
res emb 386
ed a</w> 386
Cent ury</w> 386
ins ects</w> 386
new ly</w> 386
ef f</w> 386
sett ing</w> 386
fel t</w> 386
Angl o- 386
p it 385
c u 385
- based</w> 385
R ay 385
B oh 385
en ess</w> 385
sh owing</w> 385
wor kers</w> 385
me ets</w> 385
Ex pl 385
idd en</w> 385
sty les</w> 385
Over view</w> 385
Edin burgh</w> 385
H ain 384
Z one</w> 384
or chest 384
st ers</w> 384
ol k</w> 384
pl ans</w> 384
Re ich 384
12 th</w> 384
add ress</w> 384
pass es</w> 384
rece ive</w> 384
Dav is</w> 384
nar row</w> 384
occas ionally</w> 384
UE FA</w> 384
A . 383
8 9</w> 383
j ur 383
fri end 383
domin ant</w> 383
institut ions</w> 383
h ang 382
B eg 382
el e</w> 382
ig er</w> 382
ra d</w> 382
our ney</w> 382
ell ow 382
bro ken</w> 382
189 8</w> 382
appear ing</w> 382
appro ach</w> 382
alg orith 382
cerem on 382
streng th 382
t ube</w> 381
r h 381
a er 381
p ath</w> 381
i op 381
m erc 381
L ong 381
G od 381
v est 381
W ater</w> 381
er t 381
ag ement</w> 381
ud i</w> 381
ell i</w> 381
ly n</w> 381
Rep res 381
lo ad</w> 381
Que ens 381
rac y</w> 381
veh icles</w> 381
Louis iana</w> 381
e aten</w> 380
f ib 380
f illed</w> 380
F ab 380
E le 380
V ar 380
ar es</w> 380
es is</w> 380
ent itled</w> 380
de bu 380
um es</w> 380
sp ot</w> 380
tr ying</w> 380
ass ic</w> 380
pres idential</w> 380
cap ture</w> 380
pre y</w> 380
15 0 380
ie w</w> 380
car ry</w> 380
inf all</w> 380
Test ament</w> 380
p ep 379
T C</w> 379
D ak 379
b ow</w> 379
ac re</w> 379
ast s</w> 379
Col omb 379
Vi deo</w> 379
km \/h</w> 379
goal keeper</w> 379
r or 378
z y</w> 378
L is 378
K ath 378
id ly</w> 378
Ch ampionships</w> 378
ut ting</w> 378
te eth</w> 378
char ged</w> 378
div or 378
su st 378
tri al</w> 378
188 9</w> 378
trav eled</w> 378
bran ches</w> 378
meas ured</w> 378
mathemat ical</w> 378
Simp son</w> 378
drop ped</w> 378
Nich olas</w> 378
- sur- 377
H im 377
ar ith 377
In d 377
min ute</w> 377
ret ro 377
anim e</w> 377
character istics</w> 377
conf used</w> 377
Langu age</w> 377
u ka</w> 376
t ool</w> 376
P le 376
F ig 376
F ern 376
B ag 376
ô te</w> 376
it is</w> 376
ot i 376
cl i 376
Ch o 376
off ered</w> 376
For eign</w> 376
Mal ays 376
Me di 376
chall eng 376
9 1</w> 375
be ar</w> 375
aw s</w> 375
dec re 375
tit ude</w> 375
Atlan ta</w> 375
use ful</w> 375
s or</w> 374
m u 374
J eff</w> 374
K evin</w> 374
an ne</w> 374
id ency</w> 374
str ings</w> 374
Sh er 374
serv er</w> 374
Com man 374
Ir on</w> 374
def ense</w> 374
On ce</w> 374
techn iques</w> 374
dh ood</w> 374
Hom o</w> 374
scre en 374
Aust in</w> 374
s ang</w> 373
M yst 373
Mar s</w> 373
Mar shall</w> 373
att acked</w> 373
ett a</w> 373
Br ab 373
histor ian</w> 373
func t 373
Ret rieved</w> 373
distingu ished</w> 373
g etting</w> 372
H art</w> 372
M aj 372
I .</w> 372
ri x</w> 372
pro ph 372
sp elling</w> 372
cont ext</w> 372
gu il 372
col leg 372
Pruss ia</w> 372
Wag ner</w> 372
s k</w> 371
e iro</w> 371
D o 371
C ou 371
in er</w> 371
re d 371
st ick</w> 371
ch am 371
ch airman</w> 371
be yond</w> 371
amp s</w> 371
organ ism</w> 371
Man h 371
consid er</w> 371
hol e</w> 371
ress es</w> 371
Rh ine- 371
osaur us</w> 371
North- West</w> 371
m o</w> 370
W ill 370
C Ã</w> 370
C av 370
ect ic 370
dr ug</w> 370
10 th</w> 370
design er</w> 370
cult ures</w> 370
belong s</w> 370
Aber de 370
Britann ica</w> 370
f ishing</w> 369
1 ,000</w> 369
L av 369
im ate</w> 369
all as</w> 369
li ber 369
20 s</w> 369
present -day</w> 369
host s</w> 369
key s</w> 369
l ay</w> 368
m ales</w> 368
n on 368
f ro 368
S ib 368
P ear 368
V eg 368
C P 368
es c 368
pl ain</w> 368
ill er</w> 368
ill ing</w> 368
bo at</w> 368
refer ences</w> 368
crit ic 368
plan ets</w> 368
rang ing</w> 368
Sol ar</w> 368
archit ect</w> 368
Univers al</w> 368
u an</w> 367
b rain</w> 367
ur g 367
de ep 367
gr ounds</w> 367
Ge ography</w> 367
dre ds</w> 367
vis ual</w> 367
Per iod</w> 367
dest ro 367
Sci ences</w> 367
Ha iti</w> 367
novel ist</w> 367
t tem 366
l ists</w> 366
9 0 366
M ul 366
N O 366
B ell 366
Y ug 366
es cop 366
Ch el 366
bor dered</w> 366
En d</w> 366
to ols</w> 366
min ing</w> 366
au dio</w> 366
elev en</w> 366
expl os 366
Commun ist</w> 366
Manh attan</w> 366
s ell</w> 365
h its</w> 365
S ah 365
J enn 365
con vent 365
cont ested</w> 365
au x</w> 365
bl u 365
Te hsil</w> 365
Rel ig 365
Clin ton</w> 365
t on 364
B Ã</w> 364
er ts</w> 364
ac compan 364
Fran z</w> 364
lin ed</w> 364
Sind h</w> 364
Develop ment</w> 364
9 , 363
w w 363
M r 363
S ac 363
F R 363
J ur 363
j ust 363
it als</w> 363
ro ads</w> 363
ph on 363
vi de 363
ign s</w> 363
Bl o 363
190 9</w> 363
lear n</w> 363
far m</w> 363
uten ant</w> 363
perf ect</w> 363
resour ces</w> 363
s ized</w> 362
s ound 362
l ets</w> 362
O range</w> 362
ic ts</w> 362
ov en</w> 362
St ory</w> 362
inter view</w> 362
Bar bar 362
All en</w> 362
den omin 362
execut ed</w> 362
contribu tions</w> 362
osaur s</w> 362
r ical</w> 361
R NA</w> 361
st ay</w> 361
ec raft</w> 361
qu een</w> 361
fl ag 361
pr int</w> 361
ind ic 361
lead ership</w> 361
gener a</w> 361
Cap ital</w> 361
185 7</w> 361
fac es</w> 361
Mag azine</w> 361
Wi i</w> 361
r ugby</w> 360
p ic 360
c odes</w> 360
y le</w> 360
V il 360
in fl 360
di t</w> 360
ap h</w> 360
for ts</w> 360
all i 360
ens on</w> 360
ult an</w> 360
inv ited</w> 360
tour ist</w> 360
spir it 360
Hou ston</w> 360
T our 359
D ue</w> 359
B erg 359
B CE</w> 359
an them</w> 359
en joy 359
is ol 359
el i</w> 359
ig i</w> 359
pr int 359
Ac c 359
189 9</w> 359
Bo ard</w> 359
lear ning</w> 359
promot ion</w> 359
eigh th</w> 359
p ay</w> 358
O ri 358
in ist</w> 358
Th ail 358
id ge</w> 358
ne eds</w> 358
if ying</w> 358
co ol 358
offic ers</w> 358
Ro os 358
fur t</w> 358
Uran us</w> 358
Repres ent 358
A ar 357
2 ,000</w> 357
in k 357
di oxide</w> 357
ser ious</w> 357
min d</w> 357
Sh ort 357
Con vention</w> 357
rap idly</w> 357
Giov anni</w> 357
s on 356
f are</w> 356
b right</w> 356
st - 356
ic als</w> 356
par am 356
sc ar</w> 356
he m</w> 356
Fl em 356
ly - 356
cover ing</w> 356
Bad en- 356
Serb ia</w> 356
c at</w> 355
3 60</w> 355
m .</w> 355
B M 355
B row 355
ch - 355
ch en</w> 355
and - 355
ang ular</w> 355
cre w</w> 355
Pr o</w> 355
sup ply</w> 355
lear ned</w> 355
Hom er</w> 355
lic ens 355
scre en</w> 355
Doug las</w> 355
e au</w> 354
w al</w> 354
V ari 354
b ones</w> 354
al ists</w> 354
ag le</w> 354
Sh ar 354
ann ually</w> 354
col ored</w> 354
cri me</w> 354
urric anes</w> 354
equ ator</w> 354
188 2</w> 354
Cr us 354
molec ules</w> 354
saf ety</w> 354
adap ted</w> 354
Margar et</w> 354
A - 353
s ung</w> 353
w right</w> 353
O ber 353
ad m 353
ass istant</w> 353
cond ition</w> 353
engine er</w> 353
suff ered</w> 353
i i</w> 352
k ings</w> 352
z en</w> 352
G Ã</w> 352
P ed 352
at ch 352
ro d 352
de pos 352
St rat 352
Ch i 352
nor theastern</w> 352
ob tained</w> 352
ith ic</w> 352
10 ,000</w> 352
189 2</w> 352
We b</w> 352
Res er 352
Del ta</w> 352
short ened</w> 352
r ay</w> 351
c ra 351
R ain 351
L as</w> 351
N BC</w> 351
S au 351
W ed 351
oc racy</w> 351
189 6</w> 351
Ze us</w> 351
invol ving</w> 351
Hind u</w> 351
Journ al</w> 351
r us</w> 350
p ers</w> 350
z h 350
L og 350
M oh 350
B ooks</w> 350
en on</w> 350
re di 350
ing o</w> 350
ing redi 350
incl ination</w> 350
sy nd 350
acc ident</w> 350
expl orer</w> 350
Mo ore</w> 350
princ iple</w> 350
shar p</w> 350
busin ess 350
th- century</w> 350
lic ense</w> 350
Jac ques</w> 350
Hug o</w> 350
Gir l</w> 350
Conn ectic 350
passeng ers</w> 350
GN U</w> 350
fres h</w> 350
Herc ules</w> 350
t exts</w> 349
i z</w> 349
z burg</w> 349
R ou 349
L en 349
B ast 349
C ena</w> 349
ap art</w> 349
op position</w> 349
con ference</w> 349
be t</w> 349
Nor man</w> 349
Eng l 349
secon ds</w> 349
dec or 349
189 0</w> 349
driv ers</w> 349
pain ted</w> 349
Arc tic</w> 349
0 /O)</w> 348
R ab 348
M P</w> 348
S uc 348
en ia</w> 348
ch a 348
ad ding</w> 348
do ing</w> 348
193 0s</w> 348
ext ension</w> 348
188 1</w> 348
introduc tion</w> 348
ire ment</w> 348
Cart er</w> 348
Je an- 348
low est</w> 348
quant um</w> 348
r ating</w> 347
p el 347
E M 347
C M 347
ed - 347
In du 347
develop ing</w> 347
De utsch 347
cult iv 347
Bal tim 347
astronom er</w> 347
Aust en</w> 347
Jun ior</w> 347
bound aries</w> 347
ben ef 347
other wise</w> 347
Boy s</w> 347
Oliv er</w> 347
desc end 347
e ased</w> 346
y l</w> 346
g un 346
L ov 346
N ative</w> 346
K in 346
O w 346
C rown</w> 346
b ound</w> 346
th in</w> 346
re views</w> 346
comm iss 346
rid ges</w> 346
sul f 346
Connectic ut</w> 346
A ub 345
t y- 345
l Ã</w> 345
f ame</w> 345
T ul 345
M it 345
S ong 345
P age</w> 345
E sc 345
J imm 345
al t</w> 345
st ro 345
ic ide</w> 345
St ew 345
res istance</w> 345
ut ation</w> 345
br on 345
ubl in</w> 345
popul ous</w> 345
bl ed</w> 345
Tr ad 345
view ed</w> 345
pal ace</w> 345
impl em 345
conver ted</w> 345
Hear t</w> 345
eccent ric 345
T o 344
S am</w> 344
ran t</w> 344
enc ycl 344
rele ases</w> 344
Or ton</w> 344
186 7</w> 344
187 9</w> 344
fact ory</w> 344
recogn ition</w> 344
coo king</w> 344
rout es</w> 344
brief ly</w> 344
Iran ian</w> 344
Thail and</w> 344
a z</w> 343
V ic 343
B h 343
on so</w> 343
al thy</w> 343
ch es- 343
sh ear</w> 343
ang ar 343
dec ision</w> 343
offic es</w> 343
organ ist</w> 343
De ad</w> 343
Me dia</w> 343
Bro thers</w> 343
wal k</w> 343
nation ally</w> 343
autonom ous</w> 343
Lenn on</w> 343
Baltim ore</w> 343
il ation</w> 342
as is</w> 342
es co</w> 342
ag ne</w> 342
con stitution</w> 342
be ach</w> 342
ra ise</w> 342
um ents</w> 342
mov ements</w> 342
oper ates</w> 342
fun dam 342
Lu x 342
hard ware</w> 342
Gord on</w> 342
H ardy</w> 341
H ospital</w> 341
R y 341
b un 341
00 s</w> 341
ass es</w> 341
po t</w> 341
Su ff 341
mer ch 341
colon ies</w> 341
abs or 341
Tam il</w> 341
Queens land</w> 341
A A</w> 340
s isters</w> 340
S on 340
j um 340
ag ency</w> 340
Ch ampions</w> 340
ell er</w> 340
mon ast 340
bro ad</w> 340
189 3</w> 340
Atlan ti 340
compet ed</w> 340
pers ons</w> 340
character ized</w> 340
Cel tic</w> 340
Goth ic</w> 340
Atlanti ques</w> 340
t il</w> 339
t ax</w> 339
r ice</w> 339
p ick</w> 339
H is 339
P ont 339
B ach</w> 339
W er 339
C ri 339
ic us</w> 339
om a</w> 339
os ph 339
ass igned</w> 339
off er</w> 339
mun ity</w> 339
mod ern 339
Mc Cart 339
Ven ez 339
comput ing</w> 339
citiz ens</w> 339
Napol eon</w> 339
Aff airs</w> 339
oog le</w> 339
Clev eland</w> 339
F our 338
F ather</w> 338
Th us</w> 338
om y 338
St ars</w> 338
ect ors</w> 338
reg ularly</w> 338
Ar ound</w> 338
ric ket</w> 338
lin e 338
Is ab 338
subst ance</w> 338
Arn old</w> 338
Perc y</w> 338
Rhine- Westphalia</w> 338
k id 337
R ing</w> 337
G ö 337
F un 337
J ura</w> 337
B yr 337
ic on</w> 337
un ited</w> 337
iv e- 337
Bl u 337
lab or</w> 337
conn ection</w> 337
pict ures</w> 337
whe el</w> 337
bell ion</w> 337
p in</w> 336
e us</w> 336
H ans</w> 336
9 00</w> 336
T A</w> 336
S A</w> 336
S ão</w> 336
Z h 336
pl eas 336
ex ists</w> 336
sp her 336
In f 336
\/ or</w> 336
publ ication</w> 336
sit uation</w> 336
Russ ell</w> 336
stat esman</w> 336
chem ist</w> 336
ident ity</w> 336
back ground</w> 336
thous and</w> 336
s ed</w> 335
L ight</w> 335
K l 335
am oto</w> 335
ac le</w> 335
et ical</w> 335
ut ions</w> 335
tr am 335
Am ster 335
hol iday</w> 335
Counc ils</w> 335
dam aged</w> 335
Jer ry</w> 335
Air lines</w> 335
best -known</w> 335
c ard 334
D .C.</w> 334
re comm 334
and \/or</w> 334
ath er 334
car bon 334
Ang el</w> 334
rang es</w> 334
init i 334
sugg ests</w> 334
gir ls</w> 334
ici ency</w> 334
n ut 333
h op</w> 333
M is 333
C ay 333
st im 333
wor ship</w> 333
ear ing</w> 333
ers elf</w> 333
Mar yland</w> 333
chil dhood</w> 333
dra w</w> 333
techn ical</w> 333
cycl ones</w> 333
1. 5</w> 333
fem ales</w> 333
hun dreds</w> 333
cho ice</w> 333
maint ained</w> 333
heav ily</w> 333
enter tainment</w> 333
A w 332
t ell</w> 332
m as 332
7 00</w> 332
h ills</w> 332
F Ã</w> 332
B e</w> 332
an ism</w> 332
or g</w> 332
ur ation</w> 332
wh y</w> 332
ab ilities</w> 332
sh op</w> 332
se ats</w> 332
Se bast 332
thre at 332
docum ent</w> 332
Jam a 332
patter n</w> 332
ttem berg</w> 332
Roos ev 332
s um</w> 331
2 3 331
R aj 331
h ence</w> 331
P os 331
F ounded</w> 331
th ick</w> 331
at ively</w> 331
sh ip 331
off ers</w> 331
acc ur 331
requ ire</w> 331
det ails</w> 331
log ic</w> 331
adv anced</w> 331
docum ents</w> 331
Ath ens</w> 331
sle ep</w> 331
Roll ing</w> 331
t ower</w> 330
o b</w> 330
m ile</w> 330
n iv 330
M ast 330
b b 330
Col on 330
ie ge</w> 330
Sy ria</w> 330
Jon athan</w> 330
l ob 329
g old 329
H o 329
L Ã</w> 329
G oogle</w> 329
w aste</w> 329
I - 329
ou ts</w> 329
Th er 329
ak h</w> 329
gr amm 329
Ar ena</w> 329
oper as</w> 329
requ est</w> 329
clos est</w> 329
German - 329
mass ive</w> 329
academ ic</w> 329
Brook lyn</w> 329
cous in</w> 329
én é 329
L es 328
h ospital</w> 328
G P 328
w ings</w> 328
v it 328
K il 328
ot yp 328
te en 328
Sh ep 328
inter ested</w> 328
publ ic 328
sl ow</w> 328
mod e</w> 328
amm u</w> 328
jo int</w> 328
bi ological</w> 328
14 th</w> 328
stand ards</w> 328
cop y</w> 328
circ ulation</w> 328
doc tor</w> 328
Mun icip 328
rhyth m</w> 328
ipel ago</w> 328
d oll 327
m obile</w> 327
N at 327
K ent</w> 327
K enn 327
B ull</w> 327
el - 327
reg ul 327
te - 327
ref used</w> 327
ik a</w> 327
viol ence</w> 327
inj ury</w> 327
draw ing</w> 327
Beng al</w> 327
p g</w> 326
y ro 326
d est</w> 326
H L</w> 326
R ic 326
P av 326
ex ual</w> 326
ex pression</w> 326
Un til</w> 326
gu ard</w> 326
co ord 326
bel ong</w> 326
Mich a 326
circ um 326
wat ch</w> 326
Stew art</w> 326
Amster dam</w> 326
p ig 325
S ound 325
at or 325
ro me</w> 325
str ugg 325
co al</w> 325
co at</w> 325
bac king</w> 325
los ing</w> 325
mom ent</w> 325
d war 324
g one</w> 324
L t 324
B ib 324
on c 324
pl us</w> 324
sh el 324
bu d 324
eg g</w> 324
Wh edon</w> 324
exp ensive</w> 324
success ion</w> 324
person ality</w> 324
vert ical</w> 324
civil ization</w> 324
instruc tions</w> 324
Lud w 324
Yug os 324
R al 323
un like</w> 323
ap ers</w> 323
end ers</w> 323
call s</w> 323
Le o</w> 323
Le eds</w> 323
cons isted</w> 323
let ic</w> 323
Ag ency</w> 323
mix ture</w> 323
encycl op 323
a ud 322
o qu 322
T ru 322
T usc 322
h erself</w> 322
M M 322
N ote</w> 322
S erg 322
B ak 322
at oms</w> 322
es pe 322
In g 322
gen e</w> 322
Ser ie</w> 322
tur ns</w> 322
189 4</w> 322
shar es</w> 322
attemp ts</w> 322
che ese</w> 322
mechan ics</w> 322
preser ved</w> 322
s ave</w> 321
t ica</w> 321
e ira</w> 321
L il 321
in us</w> 321
in aug 321
em or 321
im al</w> 321
par ks</w> 321
ob s</w> 321
enc ryp 321
aw are</w> 321
Bl ues</w> 321
He alth</w> 321
mot or</w> 321
On line</w> 321
vir us</w> 321
occup ation</w> 321
Bou ches- 321
eclip tic</w> 321
Shak espe 321
Marit imes</w> 321
Bouches- du- 321
H es 320
T oy 320
S ri</w> 320
C ook</w> 320
th etic</w> 320
ro b 320
em entary</w> 320
im b 320
ul ed</w> 320
ra infall</w> 320
part ly</w> 320
ign ing</w> 320
Ex press</w> 320
head s</w> 320
inst ance</w> 320
big ger</w> 320
fix ed</w> 320
draf ted</w> 320
m ate</w> 319
B enn 319
is c 319
as k 319
ach i</w> 319
Sh ah</w> 319
prov iding</w> 319
cons ist 319
refer ring</w> 319
tur al</w> 319
trad ing</w> 319
Cor ps</w> 319
ge on</w> 319
incre asing</w> 319
grad ually</w> 319
well - 319
fel d</w> 319
sent ence</w> 319
Kur t</w> 319
weak ened</w> 319
beaut iful</w> 319
Alli ance</w> 319
Roosev elt</w> 319
f ried</w> 318
1 20</w> 318
N ow</w> 318
E qu 318
st ages</w> 318
am ounts</w> 318
di esel</w> 318
em en</w> 318
em ot 318
se ud 318
ter y</w> 318
man ia</w> 318
ip e</w> 318
Rom anian</w> 318
requ ires</w> 318
ush ed</w> 318
scrip tion</w> 318
Common s</w> 318
pher ic</w> 318
eccentric ity</w> 318
Shakespe are</w> 318
l ooks</w> 317
n ie</w> 317
H ud 317
as a</w> 317
le agues</w> 317
Sou theast</w> 317
offic ials</w> 317
Bar on</w> 317
Pet ers 317
Lu is</w> 317
2. 5</w> 317
Alpes- Maritimes</w> 317
Ob serv 317
Merc ury</w> 317
danc er</w> 317
house hold</w> 317
Pakist ani</w> 317
where as</w> 317
categ ories</w> 317
S or 316
S uch</w> 316
S oph 316
S ix</w> 316
C - 316
pl ot</w> 316
fin ds</w> 316
ann ounc 316
ind icate</w> 316
govern ments</w> 316
Gu sta 316
Ed mund</w> 316
exc ept 316
Mi ami</w> 316
apol is</w> 316
geomet ry</w> 316
horiz ont 316
r ying</w> 315
T at 315
L em 315
S ite</w> 315
F all</w> 315
K le 315
ch a</w> 315
oo s</w> 315
um - 315
end or 315
writ ings</w> 315
For bes</w> 315
Jos é</w> 315
voc al</w> 315
process or</w> 315
Hi ro 315
Brab ant</w> 315
Tusc any</w> 315
l ds</w> 314
J an</w> 314
b alls</w> 314
Y outh</w> 314
on al</w> 314
re strial</w> 314
pro fit</w> 314
Nor se</w> 314
bel iefs</w> 314
Sch w 314
tri p</w> 314
auth ors</w> 314
success fully</w> 314
surv ived</w> 314
Chap el</w> 314
Ern st</w> 314
sau ce</w> 314
z o 313
R oute</w> 313
M idd 313
S o 313
F ield</w> 313
B lan 313
en stein</w> 313
om ing</w> 313
un ci 313
le f 313
cl oud</w> 313
gr ay</w> 313
depart ments</w> 313
po ems</w> 313
Gu err 313
cri p 313
Per u</w> 313
twent y</w> 313
best - 313
onym ous</w> 313
McCart ney</w> 313
f aster</w> 312
H ond 312
ü n 312
al ition</w> 312
ion e</w> 312
cl ient</w> 312
Ch ron 312
ex ternal</w> 312
ph one</w> 312
ph ase</w> 312
conn ects</w> 312
econom ics</w> 312
Gir ls</w> 312
volcan ic</w> 312
swe et</w> 312
inhab ited</w> 312
Malays ia</w> 312
c up 311
P el 311
è re</w> 311
de - 311
18 0</w> 311
la id</w> 311
div is 311
bre ad</w> 311
tre ated</w> 311
Mc C 311
prot ected</w> 311
compet e</w> 311
invol ves</w> 311
law yer</w> 311
Pok é 311
concent ration</w> 311
Tib et 311
modif ied</w> 311
p u 310
R ot 310
R ico</w> 310
W a 310
il ing</w> 310
int ensity</w> 310
Be y 310
flu id</w> 310
mart ial</w> 310
exec ution</w> 310
Jimm y</w> 310
y ard</w> 309
S A 309
P ref 309
E li 309
J on</w> 309
O reg 309
le gend</w> 309
pro j 309
comm od 309
rec over 309
Cath ol 309
Thom p 309
Mag n 309
Ur ban</w> 309
frequ ency</w> 309
targ et</w> 309
chro mos 309
Lic ense</w> 309
o ons</w> 308
op ol 308
we ed</w> 308
Con s 308
acc ess 308
row ing</w> 308
Canadi ens</w> 308
Hol land</w> 308
educ ated</w> 308
Bern ard</w> 308
Rhô ne</w> 308
s and</w> 307
t ot 307
i h 307
e ava</w> 307
m ice</w> 307
n - 307
R ow 307
L ang 307
b anned</w> 307
ch ose</w> 307
Ch ev 307
te au</w> 307
zer o</w> 307
ef forts</w> 307
hom es</w> 307
electr ons</w> 307
Sil ver</w> 307
cho ose</w> 307
employ ed</w> 307
Suc eava</w> 307
A x 306
s o- 306
a ire</w> 306
g am 306
g all 306
H ere</w> 306
H ell 306
W ood</w> 306
W ind</w> 306
ol ithic</w> 306
ab i</w> 306
ran ts</w> 306
ing - 306
um in 306
est one</w> 306
An n</w> 306
ste p</w> 306
sub si 306
curr ency</w> 306
app er</w> 306
rap id</w> 306
net works</w> 306
Lou ise</w> 306
187 8</w> 306
Ap oll 306
mos que</w> 306
schol ars</w> 306
Elect ric</w> 306
s y</w> 305
s ections</w> 305
c y</w> 305
S oon</w> 305
in struction</w> 305
pro pos 305
ne ither</w> 305
pe oples</w> 305
gen ous</w> 305
pr ayer</w> 305
cap able</w> 305
la di 305
cre ator</w> 305
Bas il 305
sign s</w> 305
hy per 305
stud ying</w> 305
Bal d 305
Vol k 305
jun ction</w> 305
ynam ics</w> 305
R un 304
L ost</w> 304
h aw 304
M eg 304
M embers</w> 304
v ation</w> 304
E uc 304
B ack 304
W all</w> 304
b ic 304
re ally</w> 304
re duce</w> 304
St a 304
des ert</w> 304
sub jects</w> 304
Pro g 304
sev ere</w> 304
bur ned</w> 304
cor por 304
Bas ketball</w> 304
ident ical</w> 304
pow der</w> 304
Mad ison</w> 304
fa ith</w> 304
éné es</w> 304
Thomp son</w> 304
P ad 303
V it 303
J ava</w> 303
le ans</w> 303
doc tr 303
pow ered</w> 303
fact ors</w> 303
Tre k</w> 303
Ren ault</w> 303
nec k</w> 303
extr at 303
flav or</w> 303
arrang ed</w> 303
premi ered</w> 303
invent or</w> 303
d ar 302
g ain</w> 302
n s 302
h ip</w> 302
w arm 302
S ound</w> 302
J ammu</w> 302
C E 302
th ro 302
st ed</w> 302
em ph 302
od d</w> 302
In stead</w> 302
ess ions</w> 302
publ ishing</w> 302
Col um 302
oth urn</w> 302
Her bert</w> 302
188 7</w> 302
188 8</w> 302
activ ist</w> 302
Sol othurn</w> 302
great ly</w> 302
tor n 302
Simp sons</w> 302
week ly</w> 302
Ut ah</w> 302
p regn 301
on i</w> 301
os pel</w> 301
Le ip 301
ann es</w> 301
app ing</w> 301
189 7</w> 301
conduc ting</w> 301
Alp es</w> 301
Ot to</w> 301
Nel son</w> 301
Poké mon</w> 301
c rown</w> 300
m ac 300
H end 300
0 4</w> 300
R Ã</w> 300
M S</w> 300
W CW</w> 300
en ly</w> 300
es i 300
em ia</w> 300
ul us</w> 300
se ed</w> 300
man ner</w> 300
play offs</w> 300
act ly</w> 300
comp onents</w> 300
Con tin 300
der ives</w> 300
descri ption</w> 300
Princ ip 300
vot es</w> 300
Slov akia</w> 300
foss ils</w> 300
nav ig 300
favor ite</w> 300
Natur al</w> 300
s now</w> 299
t is</w> 299
t ons</w> 299
e ating</w> 299
c av 299
m b 299
ir s</w> 299
ir ing</w> 299
ad ults</w> 299
for ec 299
stri p 299
Is le</w> 299
ett i</w> 299
sup porting</w> 299
trad itions</w> 299
design s</w> 299
histor ically</w> 299
ym n 299
but ter 299
Ham burg</w> 299
s i</w> 298
2 4 298
ou l</w> 298
em ic</w> 298
Ch ak 298
Eng ine 298
fil es</w> 298
Pl ace</w> 298
tra ined</w> 298
ough s</w> 298
revol ution</w> 298
belong ing</w> 298
Bat ista</w> 298
Fla g</w> 298
Bapt ist</w> 298
tribut ary</w> 298
advant age</w> 298
retro grade</w> 298
s ounds</w> 297
i Ä</w> 297
m yst 297
T own 297
J ason</w> 297
un cle</w> 297
ab ase</w> 297
ev il</w> 297
if f</w> 297
lar s</w> 297
Sc re 297
govern ing</w> 297
ris ing</w> 297
inf ection</w> 297
mark ets</w> 297
attemp ted</w> 297
D ub 296
an to</w> 296
is - 296
am ateur</w> 296
sp an</w> 296
ell es</w> 296
sc oring</w> 296
mon arch</w> 296
Oc e 296
char ges</w> 296
acc ounts</w> 296
Wil d</w> 296
cop per</w> 296
bus h 296
Mil itary</w> 296
Ven ice</w> 296
s ud 295
k top</w> 295
f inger</w> 295
T amp 295
N ob 295
N ick</w> 295
C oc 295
comp onent</w> 295
pr ise</w> 295
ber - 295
sub division</w> 295
riv al</w> 295
bre aking</w> 295
187 0</w> 295
umb le</w> 295
Frank furt</w> 295
North west</w> 295
Oreg on</w> 295
c able</w> 294
ro oms</w> 294
pro of</w> 294
res ort</w> 294
sc op 294
spec im 294
port ers</w> 294
Ber kel 294
leg it 294
eff icient</w> 294
appro pri 294
defe ats</w> 294
vo iced</w> 294
Jul ius</w> 294
IS O</w> 294
FI A</w> 294
Hamp shire</w> 294
Engl ish- 294
L ag 293
M ut 293
S we 293
ou n</w> 293
et ers</w> 293
ion - 293
En ergy</w> 293
Americ as</w> 293
188 5</w> 293
Med al</w> 293
August us</w> 293
cham ber</w> 293
R ights</w> 292
M ak 292
U NE 292
B rem 292
ap proved</w> 292
id en</w> 292
ab lish</w> 292
art istic</w> 292
ug ht</w> 292
min eral</w> 292
amb ig 292
Franc esco</w> 292
promot e</w> 292
Stu art</w> 292
docum entary</w> 292
laun ch</w> 292
dissol ved</w> 292
Lithu ania</w> 292
Pyr énées</w> 292
Sof tware</w> 292
u v 291
u ous</w> 291
H ard 291
h ol</w> 291
S af 291
E ch 291
K night</w> 291
b o</w> 291
ro ot</w> 291
ass ium</w> 291
ann y</w> 291
bl ack 291
disc ipl 291
Pl ayer</w> 291
rid g 291
hol m</w> 291
ris k</w> 291
ock et</w> 291
low - 291
cloth es</w> 291
sched uled</w> 291
A D 290
t ick 290
l ime</w> 290
f oods</w> 290
H all 290
D ave</w> 290
J ust</w> 290
or - 290
ent ially</w> 290
no on</w> 290
iz za</w> 290
pri est</w> 290
rem berg</w> 290
inter pret 290
tow ard</w> 290
represent ative</w> 290
mos ques</w> 290
short - 290
ner v 290
Stra it</w> 290
Class ic</w> 290
ba by</w> 290
A R 289
u to</w> 289
s ure</w> 289
i ar</w> 289
m ad 289
n ur 289
H otel</w> 289
T ag</w> 289
P op</w> 289
K om 289
B S 289
ch ance</w> 289
ent ers</w> 289
ex actly</w> 289
est ion</w> 289
est ablish</w> 289
no - 289
ant i 289
port un 289
emb our 289
Mc Mah 289
Ale x</w> 289
promot ed</w> 289
Arab ia</w> 289
counc ils</w> 289
Clar k</w> 289
Dre am</w> 289
symb ols</w> 289
Gusta v</w> 289
D ublin</w> 288
G ame 288
N uc 288
O ur</w> 288
in di 288
av ian</w> 288
ev ening</w> 288
Al g 288
end ary</w> 288
Jan eiro</w> 288
ific ial</w> 288
establ ishment</w> 288
daugh ters</w> 288
observ ations</w> 288
nin th</w> 288
agon ist</w> 288
agric ultural</w> 288
SC O</w> 288
sover eign</w> 288
ester shire</w> 288
Dak ota</w> 288
Berkel ey</w> 288
l ist 287
c ake</w> 287
M aine</w> 287
B - 287
in put</w> 287
at ically</w> 287
st ress</w> 287
li th 287
For ces</w> 287
We im 287
camp s</w> 287
so ap</w> 287
found ation</w> 287
chlor ide</w> 287
11 th</w> 287
install ed</w> 287
Guerr ero</w> 287
A post 286
t ol 286
D allas</w> 286
B ear</w> 286
en to</w> 286
at om</w> 286
ch air</w> 286
ste am</w> 286
sub divided</w> 286
publ isher</w> 286
partic le</w> 286
radi o 286
Sen ator</w> 286
experim ent</w> 286
Nu remberg</w> 286
liam entary</w> 286
A zer 285
. A.</w> 285
H ull</w> 285
I van</w> 285
b in 285
Y an 285
ar y 285
ow les</w> 285
cl ay</w> 285
sou l</w> 285
ach el 285
aj a</w> 285
ther mal</w> 285
stat ement</w> 285
wid th</w> 285
Rh ine</w> 285
purch ased</w> 285
commit tee</w> 285
Lux embour 285
i ah</w> 284
H emisphere</w> 284
1 00 284
T en 284
G ood 284
G overnor 284
N ame</w> 284
S onic</w> 284
K ey</w> 284
C ov 284
el ine</w> 284
pl ural</w> 284
os aur</w> 284
sh ir 284
wor k 284
enc ia</w> 284
eng er</w> 284
orig ins</w> 284
air line</w> 284
stor ed</w> 284
Gu it 284
He ad</w> 284
10 - 284
def ensive</w> 284
Co oper</w> 284
electr on</w> 284
bri ef</w> 284
strong est</w> 284
Der by</w> 284
Buff alo</w> 284
Techn ology</w> 284
Administ ration</w> 284
dang erous</w> 284
debu ted</w> 284
a ea</w> 283
e ases</w> 283
H op 283
S umm 283
B ack</w> 283
an ything</w> 283
ap par 283
be ar 283
oo th 283
ren owned</w> 283
lif etime</w> 283
hor n</w> 283
ier ra</w> 283
km / 283
Harv ard</w> 283
shor ter</w> 283
teleph one</w> 283
colleg es</w> 283
s burg</w> 282
L ot 282
w ants</w> 282
j pg</w> 282
dis c</w> 282
jo ins</w> 282
Ed ition</w> 282
trad ed</w> 282
Di am 282
188 0</w> 282
Bur n 282
fre sh 282
driv ing</w> 282
surv ive</w> 282
eas y</w> 282
Lib eral</w> 282
grand son</w> 282
succe eds</w> 282
Wom an</w> 282
Na ples</w> 282
any one</w> 282
Uk rain 282
spac ecraft</w> 282
grav ity</w> 282
express ed</w> 282
Num ber</w> 282
Suff olk</w> 282
s ville</w> 281
H ab 281
W he 281
en emy</w> 281
ch ampionships</w> 281
Ch ase</w> 281
ep hal 281
ed itions</w> 281
we ak</w> 281
kn ess</w> 281
cent ers</w> 281
spec tr 281
Par t</w> 281
cre am</w> 281
acc essed</w> 281
Bl ood</w> 281
mill ions</w> 281
ax is</w> 281
Bar ry</w> 281
Ex ternal</w> 281
Mich elle</w> 281
188 6</w> 281
Ear th 281
Nev ada</w> 281
A ch 280
l iga</w> 280
L ight 280
D an</w> 280
M iss</w> 280
N ation 280
v eter 280
j ourney</w> 280
b ai 280
en er</w> 280
re aches</w> 280
al ization</w> 280
be d 280
fin ed</w> 280
fin ish</w> 280
sub species</w> 280
unt u</w> 280
stre ets</w> 280
Ag ainst</w> 280
deter mine</w> 280
controvers ial</w> 280
Colum bus</w> 280
km/ h</w> 280
s day</w> 279
t .</w> 279
H ub 279
L ad 279
F itz 279
I t 279
V an 279
K ings</w> 279
C i 279
C ret 279
in stein</w> 279
ch art 279
im perial</w> 279
ut ies</w> 279
over seas</w> 279
and er 279
port ra 279
oper ate</w> 279
ca ught</w> 279
eff ective</w> 279
main stream</w> 279
fac ed</w> 279
Orig inal</w> 279
Ba by</w> 279
f u 278
H ob 278
re search 278
ion ist</w> 278
St even</w> 278
um a</w> 278
ug u 278
att ers</w> 278
sing le- 278
Gr ace</w> 278
sign ature</w> 278
US B</w> 278
184 8</w> 278
fr ag 278
Angl ican</w> 278
improv e</w> 278
strong ly</w> 278
Antarc tica</w> 278
unci ation</w> 278
McMah on</w> 278
H esse</w> 277
h unting</w> 277
D E 277
P E 277
ag ree</w> 277
im prison 277
ul u</w> 277
le g</w> 277
ap es</w> 277
op in 277
Ch all 277
In it 277
ph in</w> 277
amp ire</w> 277
Gre y</w> 277
Min or</w> 277
ord inary</w> 277
defe ating</w> 277
Mac ed 277
emerg ed</w> 277
NAS A</w> 277
Advent ures</w> 277
vide os</w> 277
Micha els</w> 277
s ail 276
t oms</w> 276
r ab 276
o de 276
c up</w> 276
3 ,000</w> 276
k l 276
R ise</w> 276
v aries</w> 276
ac o</w> 276
19 20s</w> 276
ed itors</w> 276
ob i 276
bre ed</w> 276
tri es</w> 276
Rich mond</w> 276
eas ier</w> 276
Gal il 276
sugg est</w> 276
Naz is</w> 276
experi enced</w> 276
hs ils</w> 276
molec ular</w> 276
prepar ed</w> 276
Ind us</w> 276
sound track</w> 276
Venez u 276
Leip zig</w> 276
s ion</w> 275
s sel 275
H amm 275
T en</w> 275
S ony</w> 275
I A</w> 275
K ane</w> 275
en th 275
en comp 275
re z</w> 275
al titude</w> 275
em ed</w> 275
ad esh</w> 275
ag e 275
gr and</w> 275
rem em 275
sl ide</w> 275
sur g 275
su it</w> 275
Or leans</w> 275
cor ner</w> 275
ef fort</w> 275
mult ipl 275
Sci ent 275
Mid lands</w> 275
soldi er</w> 275
fle et</w> 275
Thur ing 275
ha usen</w> 275
symb ol 275
Moz art</w> 275
Slav ic</w> 275
Barbar a</w> 275
Yugos lav 275
A venue</w> 274
a ic</w> 274
p ets</w> 274
p seud 274
c ed</w> 274
g au</w> 274
S \/ 274
E sp 274
í n</w> 274
al k 274
un te 274
de struction</w> 274
ran e</w> 274
Ch a 274
ex erc 274
ed iting</w> 274
sub stant 274
Re ich</w> 274
retur ning</w> 274
ever ything</w> 274
ij i</w> 274
Cast ile</w> 274
John ny</w> 274
Buddh ism</w> 274
Gabri el</w> 274
Murr ay</w> 274
so- called</w> 274
A F 273
t issue</w> 273
l en 273
f an</w> 273
H ir 273
1 00,000</w> 273
D ay 273
P P 273
V el 273
C at</w> 273
ro l</w> 273
if er</w> 273
Sp irit</w> 273
187 6</w> 273
US D</w> 273
New found 273
(/O200 4/O)</w> 273
hon or 273
Hor se</w> 273
den burg</w> 273
newsp apers</w> 273
restaur ant</w> 273
Croat ia</w> 273
regist ered</w> 273
Aberde en</w> 273
Peters burg</w> 273
p ain</w> 272
e ur</w> 272
M athemat 272
U b 272
b righ 272
Th ames</w> 272
res igned</w> 272
Sh el 272
pr ice</w> 272
rem n 272
Sc ar 272
bl ing</w> 272
dr ugs</w> 272
Tr ade</w> 272
under standing</w> 272
rece iving</w> 272
186 2</w> 272
aff ili 272
Ter ry</w> 272
Dr ama</w> 272
rep utation</w> 272
Leon ese</w> 272
jun ior</w> 272
Vinc ent</w> 272
Represent atives</w> 272
t u 271
t ip</w> 271
c ro 271
H ur 271
B uck 271
C and 271
il le- 271
os h</w> 271
loc ations</w> 271
Rom ant 271
Gu ar 271
(/O 197 271
oth y</w> 271
sup ports</w> 271
Ex p 271
Phil os 271
188 3</w> 271
phys ician</w> 271
lim it</w> 271
land sc 271
so dium</w> 271
extr a</w> 271
Gil bert</w> 271
And erson</w> 271
Circ le</w> 271
dimens ional</w> 271
fair ly</w> 271
G amb 270
F alls</w> 270
E vol 270
in als</w> 270
ro - 270
ap prov 270
res idence</w> 270
Al ong</w> 270
gr ave</w> 270
Nor folk</w> 270
olog ies</w> 270
ivers ary</w> 270
bo t</w> 270
rel l</w> 270
Be ij 270
ext ens 270
ax y</w> 270
Gen er 270
gener ated</w> 270
Tr av 270
administ ered</w> 270
hor ror</w> 270
Med ic 270
pract ical</w> 270
edi t</w> 270
keep ing</w> 270
Antarc tic</w> 270
locomot ives</w> 270
Encyclop edia</w> 270
A str 269
s end</w> 269
l ens</w> 269
T ob 269
S T 269
F 1</w> 269
id ation</w> 269
do ors</w> 269
cap t 269
struc k</w> 269
Bar b 269
cop y 269
cour ts</w> 269
ure ment</w> 269
comman der</w> 269
house holds</w> 269
Eth iop 269
ard- winning</w> 269
Tibet an</w> 269
h o 268
U N</w> 268
F antasy</w> 268
in stitution</w> 268
is er</w> 268
el eph 268
un able</w> 268
est ine</w> 268
no thing</w> 268
An ton</w> 268
enc oun 268
popul ated</w> 268
writ es</w> 268
fil med</w> 268
acc ept 268
rist s</w> 268
ok a</w> 268
du o</w> 268
Sing les</w> 268
an- American</w> 268
happ ens</w> 268
arriv al</w> 268
neg oti 268
last ing</w> 268
exclus ive</w> 268
nerv ous</w> 268
L ug 267
G lo 267
E y 267
B la 267
al ry</w> 267
cont est</w> 267
Com pl 267
inn ed</w> 267
dre w</w> 267
Tr inity</w> 267
Du chy</w> 267
exc eption</w> 267
sw imm 267
Ben ed 267
experim ents</w> 267
danc ing</w> 267
ynam ic</w> 267
patter ns</w> 267
Croat ian</w> 267
prote in</w> 267
Cost a</w> 267
Luxembour g</w> 267
t ag</w> 266
c od 266
O scar</w> 266
ro v 266
ol o</w> 266
un t</w> 266
ay an</w> 266
be gun</w> 266
Al tern 266
dis aster</w> 266
fe ed</w> 266
fin ishing</w> 266
rem ents</w> 266
Com ics</w> 266
Rom an 266
Pri or</w> 266
plat inum</w> 266
hydro x 266
aband oned</w> 266
horizont al</w> 266
a us</w> 265
H an</w> 265
H unt 265
G ur 265
N ine</w> 265
K hy 265
C le 265
Y ok 265
il ia</w> 265
por ter</w> 265
min erals</w> 265
sol ute</w> 265
Di ff 265
Lu ke</w> 265
Tran sport</w> 265
Kn owles</w> 265
polic ies</w> 265
some what</w> 265
emerg ency</w> 265
Serb ian</w> 265
birth day</w> 265
exclus ively</w> 265
Adv ance</w> 265
ciph er</w> 265
Bey onc 265
Yugoslav ia</w> 265
s ession</w> 264
f at</w> 264
S occer</w> 264
E P 264
I D</w> 264
b y- 264
: 00</w> 264
en os</w> 264
on ne</w> 264
re vis 264
ist le</w> 264
inc ar 264
Com m 264
der ing</w> 264
Pr adesh</w> 264
(/O 196 264
ext ends</w> 264
Mal i</w> 264
quart er</w> 264
hun t</w> 264
distinc tive</w> 264
character istic</w> 264
Spr ings</w> 264
Class ical</w> 264
compris ing</w> 264
Dol j</w> 264
escop e</w> 264
Cret aceous</w> 264
Newfound land</w> 264
A BC</w> 263
l es- 263
U C 263
I S</w> 263
B es 263
er ated</w> 263
ent e</w> 263
av ery</w> 263
li ps</w> 263
pe aked</w> 263
Ar sen 263
sc ales</w> 263
Em my</w> 263
187 2</w> 263
ipp ing</w> 263
pen is</w> 263
Cz ech 263
manufact urer</w> 263
enz o</w> 263
Spr ing</w> 263
maint ain</w> 263
autom obile</w> 263
sent enced</w> 263
Sus sex</w> 263
Vill age</w> 263
Stock holm</w> 263
spirit ual</w> 263
Ludw ig</w> 263
i ago</w> 262
G ren 262
M ain 262
P iper</w> 262
B rig 262
W ayne</w> 262
in ian</w> 262
am ph 262
all ed</w> 262
att acking</w> 262
sol e</w> 262
lo os 262
read s</w> 262
trav eling</w> 262
neigh bour 262
dial ect</w> 262
advent ure</w> 262
Sic ily</w> 262
business man</w> 262
remem bered</w> 262
a head</w> 261
c ir 261
7 0 261
G ros 261
E ra</w> 261
B ever 261
er ius</w> 261
ev ac 261
comm emor 261
ast ro 261
sy st 261
ang les</w> 261
Pol y 261
187 7</w> 261
ern al</w> 261
Ca uc 261
grow s</w> 261
Sa udi</w> 261
Greg ory</w> 261
particip ated</w> 261
agric ulture</w> 261
abol ished</w> 261
adapt ation</w> 261
Buil ding</w> 261
accompan ied</w> 261
Flem ish</w> 261
Weim ar</w> 261
o ic</w> 260
m it</w> 260
G es 260
M organ</w> 260
N ation</w> 260
I B 260
in land</w> 260
ou x</w> 260
il er</w> 260
el se</w> 260
ac ent</w> 260
op ter 260
op hy 260
ob j 260
ong st</w> 260
cons ecutive</w> 260
20 ,000</w> 260
186 0</w> 260
Arch bishop</w> 260
Bat man</w> 260
Buff y</w> 260
Hein rich</w> 260
FR S</w> 260
v ary</w> 259
U TC</w> 259
E very</w> 259
st s</w> 259
ent rance</w> 259
av ia</w> 259
est ate</w> 259
Is a 259
Ap pl 259
tro phy</w> 259
disp ute</w> 259
nin et 259
yt es</w> 259
Lie utenant</w> 259
perc uss 259
UNE SCO</w> 259
r ina</w> 258
f ra 258
G - 258
G ib 258
b in</w> 258
b at</w> 258
er ty</w> 258
il ogy</w> 258
ac ou 258
de an</w> 258
le ys</w> 258
op portun 258
ran king</w> 258
iz ard</w> 258
fl ying</w> 258
min ority</w> 258
fin ite</w> 258
rel ation</w> 258
acc el 258
Gr am 258
ext ent</w> 258
sign als</w> 258
ick en</w> 258
descri bing</w> 258
Prov inc 258
Cam eron</w> 258
cross ed</w> 258
conserv ative</w> 258
correc t</w> 258
Beij ing</w> 258
i a 257
c ub 257
c attle</w> 257
f at 257
T itan</w> 257
G ill 257
w ars</w> 257
M other</w> 257
S ut 257
B att 257
W ill</w> 257
b our</w> 257
er ian</w> 257
ad voc 257
ov ich</w> 257
wit z</w> 257
oc ene</w> 257
En viron 257
Mar qu 257
of - 257
he ating</w> 257
call ing</w> 257
Gu ide</w> 257
car rying</w> 257
not ation</w> 257
arm ies</w> 257
flu or 257
Jos Ã</w> 257
dem and</w> 257
Cy cl 257
Pop ulation</w> 257
qual ified</w> 257
resc ue</w> 257
aure ate</w> 257
floo ding</w> 257
strength ened</w> 257
Ral ph</w> 257
A C 256
t et 256
c ats</w> 256
z i</w> 256
R an 256
D um 256
M end 256
E ast 256
in ae</w> 256
on ics</w> 256
est a</w> 256
col umn</w> 256
stri p</w> 256
Nov a</w> 256
ari us</w> 256
gener ations</w> 256
vis itors</w> 256
soci eties</w> 256
Sal zburg</w> 256
Comp uter</w> 256
them es</w> 256
meas urement</w> 256
Thur sday</w> 256
Phys iology</w> 256
deb ate</w> 256
restaur ants</w> 256
Bundes liga</w> 256
Ron ald</w> 256
scen es</w> 256
Bulgar ia</w> 256
vertebr ates</w> 256
Liter ature</w> 256
Nuc lear</w> 256
A bor 255
A gr 255
i ents</w> 255
m ou 255
n os 255
n ell</w> 255
R yan</w> 255
h op 255
C ulture</w> 255
C emetery</w> 255
on ym</w> 255
re move</w> 255
ph osph 255
tw in</w> 255
me an 255
Cal c 255
cons ol 255
inter nationally</w> 255
pre dec 255
met eor 255
Char lie</w> 255
Geor g</w> 255
fron t 255
Sax on</w> 255
inj ured</w> 255
foc used</w> 255
Vend ée</w> 255
dol lars</w> 255
Cant on</w> 255
o i</w> 254
H av 254
L ane</w> 254
h urricanes</w> 254
ak h 254
fir m</w> 254
fir st- 254
dis played</w> 254
Pas s</w> 254
stri ke</w> 254
ah n</w> 254
bre eding</w> 254
Ed ge</w> 254
Ed die</w> 254
rul ers</w> 254
War ren</w> 254
yl um</w> 254
estim ates</w> 254
Lab our</w> 254
conv ection</w> 254
Isra eli</w> 254
asp ects</w> 254
saf e</w> 254
wick shire</w> 254
A ires</w> 253
t ied</w> 253
3 D</w> 253
g ra 253
V ik 253
th rown</w> 253
at us</w> 253
re pl 253
em br 253
ad u</w> 253
00 0,000</w> 253
se ems</w> 253
Ch al 253
att ribu 253
mus cle</w> 253
tal ent</w> 253
Ab u</w> 253
Bu enos</w> 253
Sant iago</w> 253
distinc tion</w> 253
phot ograph 253
San to</w> 253
occas ions</w> 253
schol ar</w> 253
wood en</w> 253
crow ned</w> 253
Econom ic</w> 253
fast est</w> 253
Pref ecture</w> 253
u ter 252
p itch</w> 252
k g</w> 252
d oms</w> 252
m id</w> 252
2 1st</w> 252
T on 252
D am</w> 252
J ar 252
j er 252
ex act</w> 252
ra w</w> 252
ff ield</w> 252
ear ning</w> 252
ult ane 252
sk y 252
sci ences</w> 252
retur ns</w> 252
clos er</w> 252
comb at</w> 252
driv es</w> 252
Pers ia</w> 252
grand father</w> 252
key board</w> 252
contribu ted</w> 252
mess ages</w> 252
adj acent</w> 252
constitu ency</w> 252
fundam ental</w> 252
A sc 251
t enth</w> 251
f ire 251
z ed</w> 251
R h</w> 251
N S 251
li e 251
no b 251
lan e</w> 251
cont est 251
Com miss 251
int ens 251
ari um</w> 251
De aths</w> 251
Ab ra 251
shar ing</w> 251
mor ph 251
itz er</w> 251
controvers y</w> 251
pref ecture</w> 251
alco hol</w> 251
algorith m</w> 251
Reser ve</w> 251
Hud son</w> 251
s um 250
m ouse</w> 250
T ogether</w> 250
w inners</w> 250
W ell 250
j e 250
sh ift</w> 250
sp in- 250
ed es</w> 250
18 00</w> 250
bec k</w> 250
br inging</w> 250
ret irement</w> 250
Sh adow</w> 250
iel ds</w> 250
He arts</w> 250
Pri m 250
187 1</w> 250
Not es</w> 250
volcan o</w> 250
Ern est</w> 250
oce ans</w> 250
Observ atory</w> 250
H ill 249
R umble</w> 249
N ep 249
K os 249
er back</w> 249
en g</w> 249
en bach</w> 249
ch ann 249
art ificial</w> 249
St all 249
sp ots</w> 249
ign y</w> 249
inter pre 249
su icide</w> 249
organ ised</w> 249
Har ris</w> 249
tem ple</w> 249
Pal m</w> 249
185 2</w> 249
Stu dies</w> 249
dom ain</w> 249
environ mental</w> 249
conqu est</w> 249
beaut y</w> 249
tox ic</w> 249
Nick el 249
carbon ate</w> 249
extrat ropical</w> 249
Thuring ia</w> 249
predec ess 249
s izes</w> 248
a . 248
a Ã</w> 248
o que</w> 248
m ill</w> 248
z es</w> 248
M I 248
b ounded</w> 248
it t</w> 248
re u 248
al is</w> 248
st ig 248
do t</w> 248
185 9</w> 248
crit ic</w> 248
Lab oratory</w> 248
Ep is 248
Pruss ian</w> 248
replac ement</w> 248
Auth ority</w> 248
Colomb ia</w> 248
ssel dorf</w> 248
Isa ac</w> 248
e ign 247
- en- 247
G ary</w> 247
P ra 247
J av 247
at on</w> 247
il legal</w> 247
rec t 247
Com edy</w> 247
186 6</w> 247
186 3</w> 247
mount ain 247
Il l 247
cast s</w> 247
relat ives</w> 247
Coll ins</w> 247
diss ip 247
replac ing</w> 247
Song s</w> 247
monast ery</w> 247
Glo be</w> 247
p ay 246
p ure</w> 246
i ón</w> 246
R ap 246
L C</w> 246
G w 246
S ierra</w> 246
b es 246
th an 246
or d</w> 246
is che</w> 246
et z 246
ne ph 246
wor st</w> 246
Al ps</w> 246
Le op 246
Le gend</w> 246
sing ers</w> 246
elev ation</w> 246
ific ations</w> 246
dro p</w> 246
cho ir</w> 246
Camp bell</w> 246
Som er 246
box ing</w> 246
Mov ie</w> 246
disp uted</w> 246
opt ical</w> 246
Produc tions</w> 246
Veg as</w> 246
commiss ioned</w> 246
Apoll o</w> 246
Volk sw 246
Tamp a</w> 246
Abor ig 246
r apper</w> 245
d ay 245
H ope</w> 245
M ouse</w> 245
N ature</w> 245
P on 245
U s</w> 245
F em 245
st an 245
el dest</w> 245
cl ou 245
ex pos 245
co alition</w> 245
Sc and 245
inter ior</w> 245
org ans</w> 245
sup posed</w> 245
Sy stems</w> 245
10 . 245
pass age</w> 245
har v 245
wid er</w> 245
US $</w> 245
natur ally</w> 245
concer ned</w> 245
Luc y</w> 245
loo ked</w> 245
appropri ate</w> 245
t ill</w> 244
S ag 244
P sych 244
V P</w> 244
C ard</w> 244
ep ing</w> 244
ell ar</w> 244
ber g 244
He ad 244
Man agement</w> 244
Br yan</w> 244
rat s</w> 244
188 4</w> 244
187 4</w> 244
orb ital</w> 244
Loc ated</w> 244
nav al</w> 244
spher ical</w> 244
haw ks</w> 244
Azer bai 244
s op 243
p ill 243
R P 243
R O 243
T ou 243
b os 243
b ane</w> 243
en ham</w> 243
ic ial</w> 243
ch t</w> 243
In formation</w> 243
gr ass</w> 243
De an</w> 243
tem por 243
dist ances</w> 243
war ning</w> 243
Des ert</w> 243
achiev e</w> 243
esh ip</w> 243
quest ions</w> 243
bal let</w> 243
Kir by</w> 243
distingu ish</w> 243
Alexand ria</w> 243
induc ted</w> 243
Curr ently</w> 243
Ray mond</w> 243
jur is 243
Sebast ian</w> 243
subsi diary</w> 243
r ings</w> 242
i os</w> 242
m el</w> 242
m ix</w> 242
f ab 242
v es 242
v ul 242
P ret 242
C up 242
b ow 242
re view</w> 242
is cher</w> 242
em ies</w> 242
id al</w> 242
se where</w> 242
Mar co</w> 242
Sou l</w> 242
ie v</w> 242
stor y 242
Pak h 242
Rob in</w> 242
ge ographical</w> 242
Her z 242
under stood</w> 242
Vi ol 242
histor ians</w> 242
represent ation</w> 242
lat est</w> 242
log arith 242
Stat istical</w> 242
spir ation</w> 242
Cab inet</w> 242
She ffield</w> 242
theor em</w> 242
u able</w> 241
t om 241
t end</w> 241
3 : 241
5 0,000</w> 241
R ange</w> 241
D E</w> 241
P riv 241
B righ 241
ar in</w> 241
St ur 241
An ast 241
sc at 241
au d</w> 241
au er</w> 241
des ktop</w> 241
enn ial</w> 241
Reg ional</w> 241
happ en</w> 241
Univers e</w> 241
Buddh ist</w> 241
special ized</w> 241
s son</w> 240
c ad 240
H E 240
H us 240
h emisphere</w> 240
D . 240
M S 240
N ile</w> 240
C air 240
at ch</w> 240
it ter</w> 240
re public</w> 240
ent ity</w> 240
os phere</w> 240
ap point 240
id o</w> 240
Al ban 240
te ach</w> 240
comp at 240
Ne il</w> 240
he ir</w> 240
fin ding</w> 240
int elligence</w> 240
met als</w> 240
mil it 240
mill enn 240
aff airs</w> 240
sec ure</w> 240
domin ated</w> 240
weap on</w> 240
deliv ered</w> 240
wind ow</w> 240
farm ing</w> 240
crimin al</w> 240
Sound garden</w> 240
l un 239
p en</w> 239
g ases</w> 239
f ive- 239
L ' 239
D og</w> 239
w ed 239
M ig 239
S um 239
F ol 239
V ince</w> 239
K en</w> 239
C ul 239
C ore</w> 239
b omb</w> 239
Z el 239
ic - 239
Le ban 239
liv er</w> 239
roc k 239
fer t 239
Rep ort</w> 239
Ex ecutive</w> 239
Que ens</w> 239
Ro b</w> 239
Olymp i 239
Med ical</w> 239
own ers</w> 239
driv en</w> 239
Ur ugu 239
abs ence</w> 239
Profess ional</w> 239
Tu esday</w> 239
divers e</w> 239
assum ed</w> 239
Dig ital</w> 239
phenom enon</w> 239
t age</w> 238
k new</w> 238
T op 238
G az 238
S on</w> 238
V Ã</w> 238
V as 238
Y uc 238
ic ia</w> 238
as ian</w> 238
as ingly</w> 238
pl as 238
pl ant 238
sp irit</w> 238
ud ing</w> 238
dis eases</w> 238
Col or</w> 238
Can al</w> 238
su itable</w> 238
ack er</w> 238
govern ed</w> 238
He aven</w> 238
Br is 238
lo o</w> 238
abl o</w> 238
miss ing</w> 238
185 6</w> 238
Ven us</w> 238
cross ing</w> 238
Pan ama</w> 238
Us ually</w> 238
sport ing</w> 238
Marc us</w> 238
t esting</w> 237
r ounds</w> 237
m ail</w> 237
m aps</w> 237
1 30</w> 237
h ired</w> 237
h ail</w> 237
h idden</w> 237
G B</w> 237
S ap 237
J Ã</w> 237
W right</w> 237
ö n 237
or us</w> 237
re at</w> 237
re actions</w> 237
et es</w> 237
ev ille</w> 237
ser ial</w> 237
ong ue</w> 237
Gre at 237
cons ist</w> 237
Con tro 237
produc ers</w> 237
ik o</w> 237
anim ation</w> 237
vari ations</w> 237
sit com</w> 237
Mich el 237
exp edition</w> 237
Sl am</w> 237
compan ion</w> 237
oul der</w> 237
fav or</w> 237
consider able</w> 237
Nik ol 237
alli ance</w> 237
e ur 236
D er</w> 236
v ast</w> 236
C BS</w> 236
is ot 236
ac les</w> 236
pl anning</w> 236
ill ic</w> 236
bl ind</w> 236
Pr ague</w> 236
bi o 236
vari eties</w> 236
leg endary</w> 236
Em irates</w> 236
Lat via</w> 236
dra ft</w> 236
War saw</w> 236
Tre as 236
view ers</w> 236
burg - 236
kh wa</w> 236
Count ess</w> 236
roman tic</w> 236
L ion</w> 235
h ot 235
F ut 235
B rist 235
in ts</w> 235
ar io</w> 235
it ic</w> 235
re built</w> 235
Th ir 235
le af</w> 235
18 30</w> 235
ish ops</w> 235
fe el</w> 235
tran sportation</w> 235
sk ills</w> 235
Ad olf</w> 235
Gu il 235
Man uel</w> 235
lo an</w> 235
Ma ple</w> 235
Sim il 235
signific antly</w> 235
bloc ked</w> 235
Ke ith</w> 235
Mot or</w> 235
conqu ered</w> 235
wa it</w> 235
lib eral</w> 235
ultim ately</w> 235
Cyr illic</w> 235
Icel and</w> 235
Ukrain ian</w> 235
A ur 234
s word</w> 234
t est 234
p etro 234
c ester</w> 234
H ume</w> 234
D ays</w> 234
M obile</w> 234
S ultan</w> 234
P ost</w> 234
I ce</w> 234
B aker</w> 234
C rit 234
er man</w> 234
us crip 234
sch eme</w> 234
16 0</w> 234
sk a</w> 234
cr ash</w> 234
hol y</w> 234
emat ic</w> 234
prog ressive</w> 234
Wind sor</w> 234
happ y</w> 234
German ic</w> 234
manufact ured</w> 234
Hug h</w> 234
Mov ement</w> 234
Thr ough</w> 234
neut r 234
bron ze</w> 234
m in</w> 233
w inger</w> 233
N y 233
P la 233
E sper 233
I P 233
C S 233
b od 233
re form</w> 233
al p 233
il st</w> 233
ri t</w> 233
im ent</w> 233
con g 233
co ins</w> 233
Ber m 233
Vict orian</w> 233
hand le</w> 233
Up on</w> 233
lib ret 233
every one</w> 233
Ext reme</w> 233
Leban on</w> 233
p ent 232
H and 232
N an 232
S ass 232
U N 232
j et</w> 232
C ode</w> 232
b inary</w> 232
am ongst</w> 232
as us</w> 232
os y 232
sh ops</w> 232
man tle</w> 232
sc ope</w> 232
Le ic 232
Le ft</w> 232
Wor k</w> 232
prov is 232
la p</w> 232
app ly</w> 232
acc ept</w> 232
Dec lar 232
met ric</w> 232
ok u</w> 232
sym ph 232
conn ect</w> 232
(/O200 6/O)</w> 232
Jo an</w> 232
conc e 232
Pen gu 232
hous ing</w> 232
subst ances</w> 232
repe ated</w> 232
public ly</w> 232
encyclop edia</w> 232
chann els</w> 232
Great est</w> 232
s ale</w> 231
d ri 231
m ud</w> 231
g lands</w> 231
f all 231
H az 231
D ance</w> 231
D ick</w> 231
G ardens</w> 231
V ol</w> 231
K ol 231
O f 231
re production</w> 231
un k</w> 231
se es</w> 231
tr ou 231
te hsil</w> 231
An to 231
cre dit</w> 231
acc o</w> 231
Ad el 231
her b 231
Sil va</w> 231
anal og</w> 231
bloc ks</w> 231
Lan ka</w> 231
Art icle</w> 231
Independ ent</w> 231
arrang ement</w> 231
Fur ther</w> 231
brow ser</w> 231
protoc ol</w> 231
friend ly</w> 231
Pear l</w> 231
u h 230
i od 230
H ed 230
N ed</w> 230
v ector</w> 230
Y ellow</w> 230
or n</w> 230
Th ere 230
il it 230
ran dom</w> 230
ex posed</w> 230
comm ent 230
act ic</w> 230
dis order</w> 230
int ense</w> 230
bot an 230
Sch ol 230
sim ultane 230
coll ected</w> 230
ight - 230
commun es</w> 230
186 9</w> 230
establ ishing</w> 230
exc e 230
concer ns</w> 230
tun khwa</w> 230
San tos</w> 230
Thr oughout</w> 230
Pow ell</w> 230
Albu m</w> 230
hypo thesis</w> 230
collap se</w> 230
doll ar</w> 230
lef t- 230
Nickel ode 230
Pakh tunkhwa</w> 230
L ach 229
F O 229
j ump</w> 229
b is 229
as er</w> 229
St ri 229
wor ms</w> 229
our ed</w> 229
Ed mon 229
Ab d 229
resp ect</w> 229
183 6</w> 229
179 1</w> 229
merg er</w> 229
thir teen</w> 229
necess arily</w> 229
prote ins</w> 229
constitut ional</w> 229
correspon ding</w> 229
ingredi ents</w> 229
Philos oph 229
A I 228
o it</w> 228
p uts</w> 228
e enth</w> 228
h ind</w> 228
D J</w> 228
S ang 228
V or 228
C ad 228
' re</w> 228
se di 228
ep id 228
play wright</w> 228
off ensive</w> 228
sev ent 228
186 4</w> 228
compet ing</w> 228
incre asingly</w> 228
Stu dio</w> 228
provinc ial</w> 228
jud ge</w> 228
prison ers</w> 228
bomb ing</w> 228
Ub untu</w> 228
u ro 227
i ously</w> 227
T - 227
h em 227
D est 227
S F</w> 227
C ind 227
re jected</w> 227
ic ing</w> 227
am mon 227
ot t</w> 227
av er</w> 227
ter n</w> 227
ter med</w> 227
ter ror 227
ect ures</w> 227
Sh ir 227
ann ex 227
sur ance</w> 227
De ep</w> 227
At las</w> 227
Ed gar</w> 227
187 3</w> 227
trans ition</w> 227
Gran d 227
Ty ler</w> 227
chap el</w> 227
ceremon ial</w> 227
indi genous</w> 227
achel or</w> 227
t one</w> 226
t rig 226
l ' 226
p end 226
i ation</w> 226
z ones</w> 226
D in 226
on ds</w> 226
st an</w> 226
ri ots</w> 226
ak e 226
An dy</w> 226
tim s</w> 226
sc ri 226
Le ader</w> 226
dec line</w> 226
185 4</w> 226
New ton</w> 226
(/O200 7/O)</w> 226
Cam p</w> 226
cam era</w> 226
Des ign</w> 226
prec ip 226
fr ame</w> 226
occas ional</w> 226
mur dered</w> 226
quant ity</w> 226
fal se</w> 226
symp toms</w> 226
Hain aut</w> 226
cli ff 226
gold en</w> 226
u ke</w> 225
t ape</w> 225
t ongue</w> 225
d os</w> 225
9 7 225
T O 225
L ess 225
w earing</w> 225
F iction</w> 225
C ôte</w> 225
en emies</w> 225
at - 225
ac ids</w> 225
be ars</w> 225
cl ock</w> 225
qu ot 225
Le af 225
inter face</w> 225
ebr a</w> 225
Gr ay</w> 225
rat io</w> 225
cal c 225
pur ple</w> 225
cat al 225
conn ecting</w> 225
but ter</w> 225
habit at</w> 225
thre at</w> 225
psych iat 225
she ep</w> 225
divers ity</w> 225
resol ution</w> 225
Chak wal</w> 225
A ang</w> 224
r ays</w> 224
p referred</w> 224
d life</w> 224
D s</w> 224
ar at</w> 224
el sewhere</w> 224
bu y</w> 224
par as 224
gen res</w> 224
ath ering</w> 224
ren ew 224
Carl o</w> 224
cart oon</w> 224
locomot ive</w> 224
neighbor hood</w> 224
Sain te- 224
Tas mania</w> 224
Expl orer</w> 224
absor bed</w> 224
Volksw agen</w> 224
Berm uda</w> 224
Nickelode on</w> 224
r ag 223
i ke</w> 223
c ult</w> 223
n one</w> 223
f est 223
M uch</w> 223
v el</w> 223
C ross 223
í a</w> 223
ab led</w> 223
con vention</w> 223
sh ow 223
18 15</w> 223
ess ential</w> 223
cre ates</w> 223
col um 223
Ac tion</w> 223
ys ide</w> 223
rece ives</w> 223
def end</w> 223
Bal k 223
log o</w> 223
hand ed</w> 223
Av atar</w> 223
XX X 223
mir al</w> 223
citiz en</w> 223
integr ated</w> 223
restric ted</w> 223
With in</w> 223
Jur assic</w> 223
threat ened</w> 223
p us</w> 222
H aut 222
ö r 222
ov es</w> 222
op ping</w> 222
form ers</w> 222
Al ph 222
rop s</w> 222
inter ests</w> 222
inter rup 222
Con t 222
mat ure</w> 222
Se ason</w> 222
ian g</w> 222
Ed wards</w> 222
Sy n 222
vol unte 222
Fre edom</w> 222
cat ch</w> 222
incre ases</w> 222
Fri ends</w> 222
German s</w> 222
Bab yl 222
Circ uit</w> 222
Ferr ari</w> 222
enjoy ed</w> 222
Of ten</w> 222
p ed 221
E d</w> 221
or ious</w> 221
st ones</w> 221
art en</w> 221
pro xim 221
cl ust 221
ell ect 221
mon archy</w> 221
la v</w> 221
tal e</w> 221
ack ers</w> 221
cri mes</w> 221
sup porters</w> 221
ther mod 221
stat istical</w> 221
Cap it 221
Arab ian</w> 221
mach ines</w> 221
psych ology</w> 221
Ath letic</w> 221
journ al</w> 221
pred ators</w> 221
rot ation</w> 221
behav i 221
Phys ics</w> 221
ancest or</w> 221
Amaz on</w> 221
Jama ica</w> 221
Declar ation</w> 221
s aint</w> 220
t ension</w> 220
k ing 220
n at 220
1 10</w> 220
h r</w> 220
D S 220
S ega</w> 220
P an</w> 220
F ood</w> 220
V ladi 220
J ess 220
K ate</w> 220
O ak 220
an try</w> 220
ab und 220
con sci 220
per cent 220
ed ited</w> 220
reg arding</w> 220
ell ation</w> 220
ens es</w> 220
Sh ire</w> 220
ber ship</w> 220
la h</w> 220
Par ker</w> 220
dr a</w> 220
press ed</w> 220
war ri 220
Hy der 220
canc eled</w> 220
famil iar</w> 220
relation ships</w> 220
manufact uring</w> 220
Plan et</w> 220
she et</w> 220
Albu ms</w> 220
screen writer</w> 220
isol ated</w> 220
a ign</w> 219
c ello</w> 219
d ub 219
g au 219
R ugby</w> 219
L omb 219
D own 219
G and 219
C rist 219
C BE</w> 219
ar ag 219
st icks</w> 219
el der</w> 219
ow ski</w> 219
cl ar 219
18 50</w> 219
loc ked</w> 219
min imum</w> 219
mar ry</w> 219
ind a</w> 219
inn ov 219
mag ic</w> 219
Mor ris</w> 219
rol led</w> 219
184 9</w> 219
meas ures</w> 219
Gran de</w> 219
pron unciation</w> 219
Oper ation</w> 219
attr action</w> 219
Ott awa</w> 219
Histor ically</w> 219
pack age</w> 219
Wolf gang</w> 219
Chall enge</w> 219
Somer set</w> 219
t z 218
R af 218
h ub</w> 218
D ame</w> 218
N ix 218
j obs</w> 218
C inc 218
the ories</w> 218
ter restrial</w> 218
ach t</w> 218
trad em 218
rul ing</w> 218
hol der</w> 218
Sal v 218
fac to</w> 218
Vict or</w> 218
temper ate</w> 218
Mic ro 218
syn thesis</w> 218
Leon ard</w> 218
Dre am 218
tou ch</w> 218
Rev iew</w> 218
Rock y</w> 218
atmos pheric</w> 218
orchest ral</w> 218
divor ced</w> 218
t ob 217
o h</w> 217
H T 217
L ah 217
M itch 217
I R 217
K ell 217
th row</w> 217
oc ide</w> 217
En try</w> 217
Ne ar</w> 217
fe athers</w> 217
inter net</w> 217
ron diss 217
viol ent</w> 217
conv icted</w> 217
Loc ation</w> 217
Liv ing 217
Black hawks</w> 217
continu ous</w> 217
Confed eration</w> 217
advert ising</w> 217
Theod ore</w> 217
Fern ando</w> 217
dwar f</w> 217
Bouches-du- Rh</w> 217
Hiro sh 217
acou stic</w> 217
A er 216
t iles</w> 216
l oss 216
e able</w> 216
D h 216
S ep 216
S ug 216
P S 216
C ot 216
ro gen</w> 216
om i</w> 216
ad mitted</w> 216
qu est</w> 216
li ked</w> 216
man uscrip 216
lan g</w> 216
pr ince</w> 216
sign ing</w> 216
Ab b 216
contro ls</w> 216
proc ed 216
Norman dy</w> 216
exc ell 216
compet itions</w> 216
tak er</w> 216
circ ular</w> 216
mit ive</w> 216
fif teen</w> 216
nomin ation</w> 216
din osaurs</w> 216
Jac ob</w> 216
loo p</w> 216
utt le</w> 216
Engine ering</w> 216
Scand in 216
Hyder abad</w> 216
d t</w> 215
m emb 215
P D 215
er as</w> 215
ol i</w> 215
ri but 215
di et</w> 215
et ings</w> 215
av o 215
sh ock</w> 215
St ef 215
se eing</w> 215
we t</w> 215
gu ar 215
au - 215
ann iversary</w> 215
sk el 215
rest ored</w> 215
ash es</w> 215
186 8</w> 215
Dis cover 215
sequ ences</w> 215
independ ently</w> 215
righ t- 215
Cr yst 215
Den is</w> 215
180 1</w> 215
Sur rey</w> 215
Da ily</w> 215
nucle us</w> 215
Alber ta</w> 215
hydrox ide</w> 215
loos ely</w> 215
c ave</w> 214
d uties</w> 214
- General</w> 214
G ol 214
M E</w> 214
O pen 214
bu ff 214
tr ag 214
gr y</w> 214
17 0</w> 214
Qu art 214
Gu y</w> 214
bre aks</w> 214
tur b 214
Sal t</w> 214
Lu igi</w> 214
185 8</w> 214
attr acted</w> 214
athlet es</w> 214
Cla ude</w> 214
premi ere</w> 214
west ward</w> 214
Deb ian</w> 214
indic ates</w> 214
Ped ro</w> 214
doctr ine</w> 214
L ay 213
F rit 213
b le 213
or ted</w> 213
on n 213
is ms</w> 213
ac a</w> 213
ur rec 213
us a</w> 213
de e</w> 213
be er</w> 213
ell ers</w> 213
fl owing</w> 213
po ds</w> 213
pop e</w> 213
dr agon</w> 213
gre en 213
peri or</w> 213
tur ning</w> 213
Europe ans</w> 213
under stand</w> 213
hor ses</w> 213
north- east</w> 213
Pers onal</w> 213
lat itude</w> 213
Mos que</w> 213
great - 213
arriv es</w> 213
vot ing</w> 213
employ ees</w> 213
experi ences</w> 213
argu ed</w> 213
Indo- European</w> 213
spin- off</w> 213
Nix on</w> 213
s berg</w> 212
c ook 212
n t</w> 212
H ard</w> 212
D - 212
D riv 212
G o</w> 212
N on 212
N it 212
I z 212
K as 212
in c</w> 212
er io</w> 212
di r 212
oc a 212
St al 212
part ially</w> 212
we igh 212
ers ch 212
emb le</w> 212
struc tural</w> 212
Man it 212
occ o</w> 212
Bra ille</w> 212
12 - 212
Mal ta</w> 212
aff ir 212
Met ro 212
und y</w> 212
six teen</w> 212
Luc as</w> 212
belong ed</w> 212
Int elligence</w> 212
Lim ited</w> 212
SP D</w> 212
pep per</w> 212
descend ants</w> 212
radio active</w> 212
attribu ted</w> 212
Brist ol</w> 212
t s 211
k u</w> 211
T ig 211
M az 211
S ik 211
F ire 211
B od 211
O z 211
ac ter 211
ir regular</w> 211
St art 211
per ors</w> 211
man ga</w> 211
tim ate</w> 211
gu ide</w> 211
pres idency</w> 211
min es</w> 211
bo ats</w> 211
194 0s</w> 211
cre atures</w> 211
e- up</w> 211
10 1</w> 211
Val encia</w> 211
recogn ize</w> 211
tou rists</w> 211
assass inated</w> 211
cu is 211
Medi eval</w> 211
Mr s.</w> 211
angar oo</w> 211
t in</w> 210
t ag 210
t ab 210
l l 210
p it</w> 210
m atters</w> 210
f ill</w> 210
f ires</w> 210
1 / 210
R ach 210
L ink</w> 210
M é 210
N un 210
F all 210
F ris 210
V illa</w> 210
Z oo</w> 210
or ship</w> 210
am pl 210
oc rat</w> 210
pro port 210
pro claimed</w> 210
comm itted</w> 210
ill ness</w> 210
par d</w> 210
An y</w> 210
me g 210
ish ers</w> 210
co t</w> 210
dr inking</w> 210
acc used</w> 210
Cor s 210
Sm ash</w> 210
Lor enzo</w> 210
relig ions</w> 210
imm une</w> 210
instrum ental</w> 210
altern ate</w> 210
Alexand ra</w> 210
spons ored</w> 210
Alli ed</w> 210
transm ission</w> 210
All- Star</w> 210
lay ers</w> 210
Yan ke 210
Venezu ela</w> 210
Brigh ton</w> 210
Manit oba</w> 210
A P 209
r end 209
p aint</w> 209
n ings</w> 209
n berg</w> 209
h otel</w> 209
S port</w> 209
an arch 209
ac res</w> 209
Ch uck</w> 209
um p 209
ed e</w> 209
cap it 209
spec ified</w> 209
ann on</w> 209
iss a</w> 209
num bered</w> 209
dep th</w> 209
cor d</w> 209
car ries</w> 209
bas in</w> 209
Calv in</w> 209
conduc tors</w> 209
185 3</w> 209
del eg 209
princ iples</w> 209
process ors</w> 209
Liv ing</w> 209
settl ers</w> 209
Under taker</w> 209
Bran denburg</w> 209
down load</w> 209
Sus an</w> 209
concent rated</w> 209
Maur ice</w> 209
Sain ts</w> 209
portr ayed</w> 209
Wed n 209
bed ded</w> 209
A S</w> 208
n g 208
f alling</w> 208
z oo</w> 208
R on</w> 208
S ig 208
S id 208
B and 208
è ge</w> 208
at ra</w> 208
st ab 208
ov ina</w> 208
bor ne</w> 208
18 24</w> 208
pos it 208
nam ing</w> 208
ber ing</w> 208
Fl oy 208
Or lan 208
dep ends</w> 208
amb ers</w> 208
har a</w> 208
Bal tic</w> 208
US SR</w> 208
184 1</w> 208
orb iting</w> 208
tour ism</w> 208
esh ire</w> 208
thir d- 208
RA ID</w> 208
Fron t</w> 208
Cra ig</w> 208
conserv ation</w> 208
suppl ies</w> 208
dat abase</w> 208
Chel sea</w> 208
pic ked</w> 208
Medic i</w> 208
Abra ham</w> 208
f air</w> 207
1 20 207
D A 207
S S 207
E aster</w> 207
K it 207
b ill</w> 207
ar a 207
ri k</w> 207
ch ampions</w> 207
ent ering</w> 207
os lov 207
op ens</w> 207
ev e</w> 207
cl oth</w> 207
per mission</w> 207
ne e</w> 207
no ble</w> 207
reg ime</w> 207
co ined</w> 207
Gu ill 207
Har old</w> 207
ost er</w> 207
Ser ver</w> 207
kill s</w> 207
sec retary</w> 207
medi an</w> 207
plat forms</w> 207
environ ments</w> 207
Bus iness</w> 207
chap ter</w> 207
Ti bet</w> 207
Isab ella</w> 207
Toy ota</w> 207
Vladi mir</w> 207
t une</w> 206
g ymn 206
n oc 206
S eg 206
U m 206
V ista</w> 206
B art</w> 206
en ian</w> 206
es a</w> 206
ur ch 206
ap parent</w> 206
ab solute</w> 206
the ology</w> 206
Ch airman</w> 206
ret ained</w> 206
roc od 206
Bra h 206
aut obi 206
Bur ma</w> 206
tow n 206
Lu ther</w> 206
lim its</w> 206
184 0</w> 206
vo ices</w> 206
km 2</w> 206
top ic</w> 206
settl ements</w> 206
Spr ing 206
tax onom 206
birth place</w> 206
rub ber</w> 206
funct ional</w> 206
Anast asia</w> 206
l u 205
p ric 205
g y</w> 205
n g</w> 205
L et</w> 205
M ult 205
N ak 205
B ase</w> 205
C are 205
b ula</w> 205
é s</w> 205
ar ina</w> 205
ar ized</w> 205
as aki</w> 205
et us</w> 205
ig o</w> 205
ran ger</w> 205
man uel</w> 205
An at 205
fl ood</w> 205
inc ident</w> 205
sl avery</w> 205
col or 205
Col in</w> 205
Fl ight</w> 205
oper ative</w> 205
Tr ust</w> 205
cr is 205
hol es</w> 205
Pal e 205
read ers</w> 205
(/O200 5/O)</w> 205
sat is 205
San sk 205
occurr ing</w> 205
Der by 205
tournam ents</w> 205
legisl ature</w> 205
Nig eria</w> 205
vic tims</w> 205
discuss ion</w> 205
Broad way</w> 205
prop ag 205
fib ers</w> 205
Esper anto</w> 205
t ask</w> 204
c rops</w> 204
f ing 204
f actor</w> 204
L et 204
G y 204
I p 204
O u 204
re in 204
tr ilogy</w> 204
par all 204
sc rap 204
int ellect 204
pre vent 204
Be aut 204
Mus ical</w> 204
ther ap 204
her itage</w> 204
cal i 204
conduc t</w> 204
184 2</w> 204
adv ice</w> 204
Bir ths</w> 204
atom y</w> 204
bal ance</w> 204
Tom my</w> 204
CA A</w> 204
week end</w> 204
wr ong</w> 204
Gon z 204
Euc li 204
bear ing</w> 204
spectr um</w> 204
Czech oslov 204
Floy d</w> 204
Orlan do</w> 204
Derby shire</w> 204
A rist 203
s is</w> 203
s ue</w> 203
s ought</w> 203
l ig 203
l ots</w> 203
o be</w> 203
c estershire</w> 203
g ardens</w> 203
H ous 203
R E 203
R ace</w> 203
T ab 203
T empl 203
D ah 203
G et</w> 203
w ald</w> 203
M T 203
M VP</w> 203
N as 203
N ash 203
S ky</w> 203
K ids</w> 203
re al- 203
ro le- 203
us ch 203
the - 203
the atre</w> 203
wor lds</w> 203
po s</w> 203
Gre eks</w> 203
Sc rip 203
mat h</w> 203
rat or</w> 203
Bel ar 203
Sl ayer</w> 203
(/O200 1/O)</w> 203
grad ed</w> 203
Dem ocrat 203
alt ies</w> 203
uni form</w> 203
opp onent</w> 203
sculp ture</w> 203
vel oc 203
Short ly</w> 203
stro ke</w> 203
Nob le</w> 203
Diff er 203
neighbour ing</w> 203
A L 202
p ra 202
n ac 202
H ouse 202
0 7</w> 202
0 9</w> 202
G im 202
M ust 202
P y 202
F ac 202
V ie 202
B omb 202
W ells</w> 202
C row 202
Th ose</w> 202
be ating</w> 202
oo ker</w> 202
In ca</w> 202
iz ations</w> 202
gen der</w> 202
hel ping</w> 202
pre domin 202
dec ay</w> 202
coll oqu 202
commun ications</w> 202
present er</w> 202
Indi ans</w> 202
ris es</w> 202
sequ ently</w> 202
ox idation</w> 202
pract ices</w> 202
estim ate</w> 202
improv ed</w> 202
Indon esian</w> 202
coo ked</w> 202
concl uded</w> 202
exhib ition</w> 202
Relig ion</w> 202
t aste</w> 201
l ia</w> 201
p ale</w> 201
c ens 201
d ens 201
d ress</w> 201
g or 201
8 ,000</w> 201
C ar</w> 201
un less</w> 201
us i 201
se ason 201
li o</w> 201
ep ts</w> 201
fe wer</w> 201
Sc ale</w> 201
govern mental</w> 201
fun eral</w> 201
cant ons</w> 201
pat ients</w> 201
inf ra 201
pot assium</w> 201
wal king</w> 201
Leon ardo</w> 201
graph ics</w> 201
Crus ade</w> 201
legit imate</w> 201
There fore</w> 201
role- playing</w> 201
H ad 200
v in 200
v oy 200
J ay</w> 200
K reis</w> 200
B all</w> 200
é r 200
th al 200
ar rest</w> 200
re l</w> 200
re ver 200
ur g</w> 200
sp oke</w> 200
per t</w> 200
ut il 200
we althy</w> 200
comp ilation</w> 200
vi br 200
pri mitive</w> 200
Rom ance</w> 200
leg ally</w> 200
stu dios</w> 200
cr uc 200
prot agonist</w> 200
Hel en</w> 200
commerc ially</w> 200
Chil d</w> 200
Nic olas</w> 200
Wall ace</w> 200
after wards</w> 200
Mong olia</w> 200
Gri ff 200
Polit ical</w> 200
immig rants</w> 200
Four th</w> 200
Guit ar</w> 200
Light ning</w> 200
Arsen al</w> 200
percuss ion</w> 200
clou ds</w> 200
Yuc at 200
Discover y</w> 200
Sansk rit</w> 200
A T</w> 199
i ya</w> 199
. 5</w> 199
d an</w> 199
n ose</w> 199
0 1</w> 199
T ed</w> 199
h ar</w> 199
V ent 199
in n</w> 199
in ch</w> 199
wh ilst</w> 199
ot am 199
ov o</w> 199
ab str 199
St ock</w> 199
sp here</w> 199
ut a</w> 199
bor oughs</w> 199
od o</w> 199
ass embly</w> 199
fin als</w> 199
Con c 199
dec ide</w> 199
met all 199
Se an</w> 199
Be eth 199
10 , 199
compos itions</w> 199
vol tage</w> 199
har bor</w> 199
ans w 199
rol ling</w> 199
quart erback</w> 199
alg ae</w> 199
enh agen</w> 199
But ter 199
Rud olf</w> 199
denomin ations</w> 199
strip es</w> 199
u ch 198
s iege</w> 198
p airs</w> 198
e v</w> 198
c emetery</w> 198
H Ã</w> 198
N ott 198
S port 198
E vent 198
I T 198
K un 198
W itt 198
b ishops</w> 198
st om 198
ir ate</w> 198
ap ple</w> 198
con fig 198
ex ile</w> 198
ex press</w> 198
qu et</w> 198
me etings</w> 198
Sp enc 198
tri o</w> 198
contin ents</w> 198
hy m 198
10 5</w> 198
Rob erto</w> 198
Rob erts</w> 198
eff iciency</w> 198
Gl en 198
four teen</w> 198
arg ument</w> 198
prob ability</w> 198
Princ eton</w> 198
univers al</w> 198
Play ers</w> 198
Int el</w> 198
Thur gau</w> 198
crypt ography</w> 198
step s</w> 198
Lot us</w> 198
fresh water</w> 198
honor ary</w> 198
swimm ing</w> 198
c ache</w> 197
m ort 197
g em 197
n ut</w> 197
H as 197
R evolutionary</w> 197
D ir 197
G ard 197
P ink</w> 197
K Ã</w> 197
C ec 197
b ol 197
en za</w> 197
ro of</w> 197
de ad 197
id ity</w> 197
qu ad 197
li br 197
rec re 197
Ar e</w> 197
co s</w> 197
pos thum 197
ret ail</w> 197
Sh awn</w> 197
eng aged</w> 197
sl ave</w> 197
follow ers</w> 197
her d</w> 197
The ory</w> 197
chem icals</w> 197
miss ions</w> 197
Met ro</w> 197
War ri 197
1. 2</w> 197
busin esses</w> 197
celebr ation</w> 197
lor d</w> 197
respons ibility</w> 197
fru its</w> 197
Stra uss</w> 197
CA R</w> 197
Typ es</w> 197
cab inet</w> 197
teach ers</w> 197
gau ge</w> 197
u - 196
a illes</w> 196
l er 196
l ical</w> 196
n a 196
T su 196
D ob 196
P S</w> 196
P and 196
F red</w> 196
at em 196
ic y</w> 196
ent um</w> 196
for tun 196
oc t 196
pro x 196
ran ks</w> 196
ub b 196
comp act</w> 196
att end</w> 196
ver b</w> 196
Par amount</w> 196
sl ower</w> 196
inn ess</w> 196
Joh annes</w> 196
der iv 196
car niv 196
bre ast</w> 196
(/O200 3/O)</w> 196
ush ing</w> 196
surr ender</w> 196
Mont en 196
frequ ent</w> 196
178 9</w> 196
Camp aign</w> 196
spac es</w> 196
Bru ins</w> 196
Mach ine</w> 196
destro y</w> 196
torn ado</w> 196
Init ially</w> 196
p ink</w> 195
4 ,000</w> 195
f ighter</w> 195
H ot 195
T ah 195
h es</w> 195
S now</w> 195
I b 195
J ose</w> 195
en ko</w> 195
re bellion</w> 195
al do</w> 195
ic king</w> 195
il em 195
ac claimed</w> 195
le e</w> 195
St and</w> 195
all ies</w> 195
par liamentary</w> 195
Mar vel</w> 195
att end 195
lin ear</w> 195
rap h 195
Gu atem 195
ext ant</w> 195
oph one</w> 195
pat ron</w> 195
Bro ther</w> 195
gran t</w> 195
Andre a</w> 195
mem bership</w> 195
philosoph ical</w> 195
Jud a 195
Hind enburg</w> 195
Dom ingo</w> 195
Os aka</w> 195
mig ration</w> 195
Him al 195
Aar on</w> 195
Wedn esday</w> 195
u um</w> 194
r ine</w> 194
a ide</w> 194
l ington</w> 194
y u</w> 194
k im 194
g h 194
g ay</w> 194
L on 194
w ish</w> 194
S our 194
O m 194
Y as 194
th en- 194
ar - 194
it ness</w> 194
il i</w> 194
em er 194
em ann</w> 194
ad ers</w> 194
sh aft</w> 194
ing ham 194
fir ed</w> 194
An al 194
col m</w> 194
bre eds</w> 194
arch ipelago</w> 194
vol umes</w> 194
Per th</w> 194
Mal colm</w> 194
Bur ton</w> 194
Met all 194
mount ed</w> 194
dest ination</w> 194
183 7</w> 194
proper ly</w> 194
Hawai ian</w> 194
legisl ative</w> 194
elim inated</w> 194
Rand y</w> 194
bud get</w> 194
Ethiop ia</w> 194
neph ew</w> 194
provis ional</w> 194
s ort</w> 193
i ate</w> 193
e al</w> 193
d iction</w> 193
R ous 193
D ante</w> 193
w ire</w> 193
V at 193
O sl 193
C H 193
at t</w> 193
el e 193
ov sky</w> 193
ev angel 193
ra id</w> 193
sp end</w> 193
ter ing</w> 193
qu ick</w> 193
In de 193
tw er 193
Ar tem 193
Af ter 193
pol ar</w> 193
sl aves</w> 193
inn ati</w> 193
pre stig 193
tran sp 193
ie u</w> 193
ge ological</w> 193
stat ue</w> 193
Gl ou 193
Ev il</w> 193
fac ility</w> 193
plan ted</w> 193
Chil ean</w> 193
ancest ors</w> 193
consum ption</w> 193
reser ve</w> 193
best- selling</w> 193
Cinc innati</w> 193
A vi 192
l on</w> 192
p in 192
c ock 192
y on</w> 192
H og 192
2 2 192
R evol 192
T odd</w> 192
h osp 192
M am 192
N W 192
N ever</w> 192
K iss</w> 192
th inking</w> 192
ar id</w> 192
re ar</w> 192
ro let</w> 192
as ide</w> 192
iv als</w> 192
ag ers</w> 192
ag ons</w> 192
ab use</w> 192
se em</w> 192
Ch art</w> 192
ex - 192
Ar agon</w> 192
char ity</w> 192
gener ate</w> 192
du ke</w> 192
ge ographic</w> 192
Her mann</w> 192
Bo eing</w> 192
miss ed</w> 192
medi ate</w> 192
New castle</w> 192
north- west</w> 192
183 2</w> 192
hu a</w> 192
astronom y</w> 192
Us ing</w> 192
AT O</w> 192
after noon</w> 192
continu ing</w> 192
Corn ell</w> 192
prom ise</w> 192
Fel ix</w> 192
Cru z</w> 192
teach ings</w> 192
industri es</w> 192
critic ized</w> 192
kid n 192
Chev rolet</w> 192
millenn ium</w> 192
A j 191
p m</w> 191
c aster</w> 191
- in- 191
0 6</w> 191
T il 191
T ott 191
L isa</w> 191
G ate</w> 191
P all 191
P ly 191
I ber 191
K im 191
B C 191
W itch</w> 191
è res</w> 191
_ _</w> 191
am eric 191
ol f 191
pro file</w> 191
be et 191
18 12</w> 191
duc tor</w> 191
cent res</w> 191
cent ered</w> 191
loc k 191
az ines</w> 191
diff er</w> 191
su ite</w> 191
Ad ri 191
high way</w> 191
Cor in 191
kill er</w> 191
ans wer</w> 191
184 4</w> 191
ae us</w> 191
Bon d</w> 191
Rog ers</w> 191
guil ty</w> 191
predecess or</w> 191
u ations</w> 190
t ory</w> 190
l o</w> 190
d in</w> 190
g i</w> 190
G P</w> 190
G arc 190
S ak 190
P ent 190
E agle</w> 190
K hal 190
B ridg 190
W olf</w> 190
C all 190
in tr 190
in ho</w> 190
as so</w> 190
ur i</w> 190
ri de</w> 190
iv er</w> 190
be e</w> 190
cl in 190
no s</w> 190
Con struction</w> 190
mat ic</w> 190
Ph il</w> 190
sk ull</w> 190
ograp h</w> 190
14 0</w> 190
commun ist</w> 190
Mor occo</w> 190
185 1</w> 190
conc rete</w> 190
Mont g 190
Stan ford</w> 190
Conn or</w> 190
reli able</w> 190
ori ented</w> 190
NAS CAR</w> 190
Chem istry</w> 190
pione er</w> 190
scop ic</w> 190
Romant ic</w> 190
Cryst al</w> 190
Event ually</w> 190
A L</w> 189
k a 189
0 3</w> 189
R est 189
L P</w> 189
L loy 189
G ent 189
S under 189
P ik 189
F é 189
b id</w> 189
é t 189
in die</w> 189
ac ron 189
ch ec 189
ay ers</w> 189
Ch ang 189
ill on</w> 189
Am ad 189
In vest 189
if ted</w> 189
Mar i 189
mon uments</w> 189
rem ote</w> 189
ann er</w> 189
Con f 189
bur ning</w> 189
origin ating</w> 189
ett y</w> 189
count ed</w> 189
mag n 189
aur us</w> 189
dem ocracy</w> 189
sec ret 189
host ing</w> 189
Hel sin 189
Gran t</w> 189
down town</w> 189
volcan oes</w> 189
Si eg 189
graph ic</w> 189
lay out</w> 189
Curr ent</w> 189
sac red</w> 189
Rav ens</w> 189
Constant ine</w> 189
Sud an</w> 189
Beeth oven</w> 189
e g</w> 188
1 : 188
h ope</w> 188
D P</w> 188
D ow 188
v is</w> 188
W ond 188
b ook 188
Y osh 188
am orph 188
ri um</w> 188
wit t</w> 188
bu st 188
Ch Ã</w> 188
ra p</w> 188
est y</w> 188
and ing</w> 188
Gu inness</w> 188
equ ation</w> 188
We ek 188
Pet e</w> 188
med als</w> 188
1, 0 188
strong er</w> 188
whe at</w> 188
headquart ered</w> 188
Es sex</w> 188
crow d</w> 188
extinc tion</w> 188
Spe ed</w> 188
Mik hail</w> 188
wind ows</w> 188
batt les</w> 188
Dur ham</w> 188
Chem ical</w> 188
aim ed</w> 188
Act ress</w> 188
just ice</w> 188
simultane ously</w> 188
Monten egr 188
c ool</w> 187
h il 187
C olog 187
re pr 187
Th or 187
pro mp 187
ay e</w> 187
sh ells</w> 187
se al</w> 187
bu l</w> 187
An twer 187
po ison 187
Sh im 187
dec ides</w> 187
differ enti 187
ash ire</w> 187
compl ex 187
vari ant</w> 187
Tr ue</w> 187
val leys</w> 187
Ant illes</w> 187
grand mother</w> 187
Lar ry</w> 187
Mot or 187
astronom ers</w> 187
experim ental</w> 187
Int roduc 187
Bad en</w> 187
cle an</w> 187
Od ys 187
advent ures</w> 187
assass ination</w> 187
Lanc ashire</w> 187
Water loo</w> 187
sust ained</w> 187
Altern ative</w> 187
Beyonc é</w> 187
Leaf s</w> 187
Antwer p</w> 187
A von</w> 186
t z</w> 186
e ath</w> 186
3 5 186
1 25</w> 186
D umb 186
G ospel</w> 186
M ass</w> 186
U . 186
K w 186
B uc 186
B og 186
B olog 186
O bl 186
W ings</w> 186
C ran 186
or m 186
ac compl 186
St itch</w> 186
St aff</w> 186
18 31</w> 186
po or 186
bo y 186
coun tr 186
dep icted</w> 186
ext ending</w> 186
jo y</w> 186
Phil lip</w> 186
Du chess</w> 186
expl ained</w> 186
Form er</w> 186
urb s</w> 186
mem orial</w> 186
Dev on</w> 186
Phys ical</w> 186
Cop enhagen</w> 186
ucc i</w> 186
strateg y</w> 186
landsc ape</w> 186
veloc ity</w> 186
A gre 185
t es</w> 185
t ie</w> 185
x ton</w> 185
G el 185
N in 185
V ampire</w> 185
re h 185
de als</w> 185
con version</w> 185
the a</w> 185
per su 185
he ated</w> 185
la ugh 185
Sp an 185
sm ooth</w> 185
Rom eo</w> 185
Se oul</w> 185
15 - 185
Fren ch- 185
aff ect</w> 185
187 5</w> 185
lab els</w> 185
184 6</w> 185
Div is 185
Del aware</w> 185
fort ress</w> 185
theor etical</w> 185
susp ended</w> 185
pap ers</w> 185
Vers ailles</w> 185
neut ral</w> 185
Pul itzer</w> 185
Card inals</w> 185
seg ment</w> 185
theat ers</w> 185
theat rical</w> 185
recomm ended</w> 185
otyp e</w> 185
interpret ation</w> 185
Astr onom 185
Edmon ton</w> 185
Sunder land</w> 185
Helsin ki</w> 185
l ights</w> 184
c ricket</w> 184
y early</w> 184
n esses</w> 184
H ass 184
L ow 184
h ai</w> 184
D anny</w> 184
N er 184
N ext</w> 184
N ancy</w> 184
C lan 184
b age</w> 184
on ation</w> 184
am o</w> 184
ch i 184
de z</w> 184
pro f 184
sh orts</w> 184
St on 184
per ce 184
ep pe</w> 184
ph arm 184
Pas c 184
met er</w> 184
Ac tor</w> 184
bas es</w> 184
fac ing</w> 184
All ies</w> 184
nit z</w> 184
mix ing</w> 184
Dev il</w> 184
sn akes</w> 184
Nic ol 184
mechan ism</w> 184
Est onia</w> 184
sav ed</w> 184
convent ional</w> 184
strugg le</w> 184
short- lived</w> 184
Maced onia</w> 184
mean ings</w> 184
Lach lan</w> 184
percent age</w> 184
Juda ism</w> 184
s anc 183
l ou 183
o is 183
d ust</w> 183
d ense</w> 183
m us</w> 183
2 7 183
M L 183
S ection</w> 183
P ich 183
b ridges</w> 183
re ason 183
re igning</w> 183
et ition</w> 183
de er</w> 183
le z</w> 183
sp ective</w> 183
ass istance</w> 183
Mar ine</w> 183
off ering</w> 183
Cl audi 183
peri odic</w> 183
Gu ard</w> 183
(/O200 2/O)</w> 183
civ ilian</w> 183
mor al</w> 183
radi us</w> 183
celebr ate</w> 183
(/O199 9/O)</w> 183
alt ar</w> 183
Mot ors</w> 183
revol utionary</w> 183
promin ence</w> 183
chor d</w> 183
shoot ing</w> 183
cos m 183
diplom at</w> 183
Key nes</w> 183
print ing</w> 183
pu zz 183
specim ens</w> 183
approv al</w> 183
Mitch ell</w> 183
Care er</w> 183
r ing 182
l ings</w> 182
l eng 182
m ith</w> 182
g ary</w> 182
5 00,000</w> 182
T os 182
w il</w> 182
S part 182
I w 182
il - 182
qu e 182
igh ted</w> 182
ph s</w> 182
te c</w> 182
Mar il 182
Cal gary</w> 182
ang ered</w> 182
anc ing</w> 182
pr ent 182
pol ym 182
sk ater</w> 182
cor poration</w> 182
Sm all</w> 182
dem ocratic</w> 182
lab oratory</w> 182
rol ls</w> 182
Sec ret</w> 182
Mel ina</w> 182
quart ers</w> 182
viol inist</w> 182
south- west</w> 182
broad casts</w> 182
there after</w> 182
autom atically</w> 182
Aut om 182
Ec u 182
doub le- 182
Confed erate</w> 182
Aw ard-winning</w> 182
Governor -General</w> 182
Leop old</w> 182
Azerbai jan</w> 182
Ip sw 182
Colog ne</w> 182
t act 181
l aureate</w> 181
e king</w> 181
T ech</w> 181
D j 181
D ro 181
M old 181
V .</w> 181
C ube</w> 181
b i</w> 181
en o</w> 181
am as</w> 181
et to</w> 181
ag as 181
oun ce</w> 181
ion er</w> 181
lan ded</w> 181
Mar k 181
ib al</w> 181
Sh ang 181
rele asing</w> 181
dr um</w> 181
dr inks</w> 181
Can ter 181
ok er</w> 181
Riv ers</w> 181
Su z 181
coll ections</w> 181
auth ent 181
eff ectively</w> 181
Per ry</w> 181
Val ent 181
can al</w> 181
Bal och 181
non- profit</w> 181
mark eting</w> 181
mark eted</w> 181
Tw ent 181
180 4</w> 181
Georg es</w> 181
sn ow 181
mamm al</w> 181
reli ef</w> 181
Gall ery</w> 181
immedi ate</w> 181
cert ified</w> 181
Mong ol</w> 181
sam ple</w> 181
Lithu anian</w> 181
cot ton</w> 181
Concer to</w> 181
Evol ution</w> 181
rondiss ement</w> 181
Osl o</w> 181
c ow 180
c ited</w> 180
y cle</w> 180
m - 180
T ube</w> 180
M eck 180
S lip 180
F at 180
b ars</w> 180
in os</w> 180
in sky</w> 180
at oes</w> 180
al ive</w> 180
ol ph</w> 180
us ive</w> 180
ent - 180
oc ked</w> 180
be ans</w> 180
cl ock 180
18 21</w> 180
fe e</w> 180
mon s</w> 180
prov e</w> 180
Gre g</w> 180
met re</w> 180
Sch um 180
Pl uto</w> 180
Me an 180
Li u</w> 180
clos ing</w> 180
det ailed</w> 180
expl an 180
separ ation</w> 180
bus iest</w> 180
Comp an 180
influ ences</w> 180
apt ers</w> 180
top ics</w> 180
Slov ak</w> 180
fle x 180
Kat rina</w> 180
Vers ion</w> 180
Bast ille</w> 180
sulf ate</w> 180
His pan 180
opin ion</w> 180
ingham shire</w> 180
A li 179
t rop 179
R T 179
R oss 179
L ig 179
h ier 179
M .D.</w> 179
S z 179
F res 179
F if 179
I E 179
V iv 179
J or 179
B ased</w> 179
oc ytes</w> 179
sh allow</w> 179
ass er 179
fl ed</w> 179
air ing</w> 179
15 00</w> 179
sk ir 179
Sch war 179
hy bri 179
El der</w> 179
gir l 179
suff icient</w> 179
wrest lers</w> 179
zz o</w> 179
cross - 179
Offic er</w> 179
Hug hes</w> 179
abbrevi ation</w> 179
Sn ow 179
veget ables</w> 179
archae ological</w> 179
CE O</w> 179
Dub ai</w> 179
Montg om 179
s ch</w> 178
H app 178
z ir 178
R ut 178
L au 178
h p</w> 178
S ard 178
E ve</w> 178
om o</w> 178
el ia</w> 178
un ified</w> 178
pl ed</w> 178
ent on</w> 178
art e</w> 178
pro hib 178
sh ield</w> 178
Ch amp 178
gr o</w> 178
mon arch 178
ich i</w> 178
Lu ther 178
south- east</w> 178
signific ance</w> 178
Cong o</w> 178
revol t</w> 178
Han over</w> 178
oz oic</w> 178
tin y</w> 178
Max well</w> 178
ne- Alpes</w> 178
Comm and</w> 178
Ply mouth</w> 178
Ipsw ich</w> 178
A gu 177
l l</w> 177
l am 177
l isting</w> 177
o ire</w> 177
p utting</w> 177
3 9 177
n ée</w> 177
R ice</w> 177
R ick</w> 177
D et 177
M emp 177
S O 177
V ul 177
K ap 177
O BE</w> 177
W inn 177
X IV</w> 177
ar is</w> 177
or th 177
re mark 177
Th ai</w> 177
ec om 177
le um</w> 177
pro be</w> 177
Ch ad</w> 177
um ber 177
igh ty</w> 177
fl ights</w> 177
dis ambig 177
off - 177
bo arding</w> 177
inter val</w> 177
sm o 177
Inter continental</w> 177
hy d 177
Dem ocrat</w> 177
hear ing</w> 177
habit ats</w> 177
Rail ways</w> 177
Art icles</w> 177
thir ty</w> 177
Are as</w> 177
Harv ey</w> 177
ker nel</w> 177
Stall one</w> 177
Cair o</w> 177
Nash ville</w> 177
predomin antly</w> 177
acron ym</w> 177
Memp his</w> 177
A ud 176
l ag 176
p anc 176
m ad</w> 176
0 2</w> 176
L akes</w> 176
G an 176
M L</w> 176
K ak 176
C o- 176
æ dia</w> 176
in ser 176
it ian</w> 176
st ance</w> 176
pl ains</w> 176
od ing</w> 176
por n 176
Ger ald</w> 176
Par an 176
refer end 176
Pl an</w> 176
Br us 176
vari ation</w> 176
Pal at 176
184 7</w> 176
bran ds</w> 176
tour ed</w> 176
tour ing</w> 176
Del hi</w> 176
179 8</w> 176
broad casting</w> 176
bon ds</w> 176
top - 176
merg ing</w> 176
Serv ices</w> 176
termin us</w> 176
Anim al</w> 176
seg ments</w> 176
Broad casting</w> 176
Myst erio</w> 176
pleas ure</w> 176
Gram een</w> 176
Bris bane</w> 176
Canter bury</w> 176
Mean while</w> 176
u ality</w> 175
l en</w> 175
l ava</w> 175
p raised</w> 175
k not</w> 175
f un</w> 175
0 5</w> 175
T ow 175
v ag 175
v acc 175
b acks</w> 175
in surance</w> 175
ic ular</w> 175
wh ales</w> 175
ag ents</w> 175
ion aries</w> 175
ab a</w> 175
200 ,000</w> 175
cl er 175
to ys</w> 175
and ro</w> 175
gen etics</w> 175
ret ain</w> 175
rel ess</w> 175
ict ing</w> 175
Gu j 175
Pl ains</w> 175
mag azines</w> 175
Tur ner</w> 175
185 5</w> 175
wat ches</w> 175
Tri bal</w> 175
Ben oit</w> 175
own ership</w> 175
Mag ic</w> 175
Mont ana</w> 175
din osaur</w> 175
Constant in 175
ww w 175
Anto ine</w> 175
Less er</w> 175
Amad eus</w> 175
Agre ement</w> 175
l ose</w> 174
o dies</w> 174
p ushed</w> 174
z er</w> 174
D res 174
V oc 174
J oy 174
b ay</w> 174
or o</w> 174
st ation 174
el abor 174
ac commod 174
ab s</w> 174
200 0s</w> 174
In v 174
Ne igh 174
cap s</w> 174
Sc ala</w> 174
sub urban</w> 174
ari ans</w> 174
Scot ia</w> 174
Sy l 174
Ro y</w> 174
expl ic 174
Port land</w> 174
represent atives</w> 174
Dr agon</w> 174
conv inc 174
employ ment</w> 174
mass es</w> 174
Alb any</w> 174
schol ar 174
satell ites</w> 174
prepar ation</w> 174
mut ual</w> 174
favor able</w> 174
recip ient</w> 174
Card inal</w> 174
inde x</w> 174
administrat or</w> 174
hur t</w> 174
pit cher</w> 174
synd rome</w> 174
Cay ce</w> 174
Lug ano</w> 174
Cauc asus</w> 174
Mig uel</w> 174
Contro l</w> 174
oca ust</w> 174
cuis ine</w> 174
Claudi us</w> 174
3 6 173
R ost 173
G ret 173
N ATO</w> 173
S oc 173
E . 173
b uses</w> 173
th ly</w> 173
re forms</w> 173
sh og 173
est ial</w> 173
ep ic</w> 173
wor ker</w> 173
ed it 173
over ty</w> 173
ang er</w> 173
do l</w> 173
tal king</w> 173
oper ator</w> 173
foun ders</w> 173
Mon te</w> 173
Bas que</w> 173
proc e 173
Co .</w> 173
ung le</w> 173
bar k</w> 173
trav els</w> 173
183 4</w> 173
ment ary</w> 173
180 3</w> 173
declar es</w> 173
coast line</w> 173
dial ects</w> 173
Techn ical</w> 173
Web ster</w> 173
oce anic</w> 173
Eug ene</w> 173
resemb les</w> 173
Comman der</w> 173
Cathol ics</w> 173
extens ively</w> 173
Bever ly</w> 173
opportun ity</w> 173
r ations</w> 172
y me</w> 172
n uts</w> 172
D ick 172
D uck</w> 172
w ounded</w> 172
v ap 172
P Ã</w> 172
P ablo</w> 172
F ont 172
& M</w> 172
Th under</w> 172
il ers</w> 172
im munity</w> 172
ig e</w> 172
St utt 172
tr ac 172
ath ered</w> 172
rem ain 172
sub family</w> 172
out break</w> 172
tem plates</w> 172
We ather</w> 172
Indi an 172
184 3</w> 172
2. 0</w> 172
183 3</w> 172
179 0</w> 172
mach t</w> 172
prec eding</w> 172
Clar k 172
Slov enia</w> 172
cle arly</w> 172
molec ule</w> 172
Bav arian</w> 172
Green land</w> 172
Tan z 172
electro magnetic</w> 172
advert is 172
Kenn eth</w> 172
Alg eria</w> 172
Khy ber- 172
Aborig inal</w> 172
scat tered</w> 172
urrec tion</w> 172
www . 172
Stutt g 172
r um 171
l ion</w> 171
o on 171
p o</w> 171
c . 171
k el</w> 171
R aff 171
T H 171
L as 171
D aw 171
M R 171
N CAA</w> 171
v s.</w> 171
K ag 171
on o</w> 171
Th ile</w> 171
ri o</w> 171
em ig 171
ad ise</w> 171
se p 171
tr act</w> 171
ip es</w> 171
iz a</w> 171
Ne br 171
sc al 171
gen es</w> 171
tal ks</w> 171
Cl er 171
tri angle</w> 171
tri bal</w> 171
bi ologist</w> 171
Ser en 171
Ang le</w> 171
ident ify</w> 171
tour s</w> 171
forc ement</w> 171
syn thes 171
hard core</w> 171
Univers it 171
twent i 171
jud ges</w> 171
cust om</w> 171
box er</w> 171
pul led</w> 171
gun s</w> 171
coord in 171
Basil ica</w> 171
d y 170
n y 170
R ey</w> 170
M A</w> 170
M B</w> 170
U se</w> 170
B ish 170
di er</w> 170
ch icken</w> 170
sh ed</w> 170
sp ire</w> 170
all a</w> 170
18 20</w> 170
18 17</w> 170
nam ely</w> 170
ath ing</w> 170
ber ries</w> 170
dev oted</w> 170
air y</w> 170
Ac ts</w> 170
ok i</w> 170
tri bu 170
The ater</w> 170
ident ally</w> 170
Ter min 170
184 5</w> 170
Sec ret 170
Arch it 170
compar ison</w> 170
Bab a</w> 170
Hann ibal</w> 170
Corn wall</w> 170
sac rif 170
motor way</w> 170
dimens ions</w> 170
ju ice</w> 170
consider ably</w> 170
cot t</w> 170
cir cles</w> 170
Agr ic 170
H oh 169
T rist 169
M D 169
M ing</w> 169
M ega</w> 169
S ir 169
S et</w> 169
S ix 169
v .</w> 169
I mp 169
st ances</w> 169
es ch 169
id ad</w> 169
rit e</w> 169
if ies</w> 169
ass em 169
cont ain 169
Wh ere</w> 169
Oc c 169
Pro gramm 169
inn ings</w> 169
diff ers</w> 169
dec isions</w> 169
Bar oque</w> 169
arch ive</w> 169
ick y</w> 169
Tr um 169
vis iting</w> 169
val uable</w> 169
def ended</w> 169
Gl en</w> 169
cycl es</w> 169
Dan iel 169
Andre as</w> 169
Wat son</w> 169
Fam ous</w> 169
ner ship</w> 169
Hun ter</w> 169
possib ility</w> 169
Goth a</w> 169
Bos nia</w> 169
thum b</w> 169
Sau ber</w> 169
PP V</w> 169
Zel da</w> 169
Salv ador</w> 169
Constantin ople</w> 169
remain der</w> 169
Nebr aska</w> 169
twenti eth</w> 169
u its</w> 168
H em 168
T ag 168
L ak 168
L az 168
M a</w> 168
F ischer</w> 168
I dol</w> 168
B am 168
B achelor</w> 168
b om 168
is se</w> 168
am - 168
ac et 168
un ge</w> 168
pl aint 168
id na</w> 168
se ek</w> 168
um en 168
form ats</w> 168
pe ace 168
if a</w> 168
Al most</w> 168
ens ure</w> 168
enc ing</w> 168
Sh in 168
la us</w> 168
bur ial</w> 168
met ic</w> 168
Mon ey</w> 168
car go</w> 168
Per forman 168
Val ais</w> 168
Sim ple</w> 168
Met al</w> 168
Kar achi</w> 168
fif ty</w> 168
180 9</w> 168
Cro m 168
Mid land</w> 168
Ken ya</w> 168
campa igns</w> 168
const ellation</w> 168
Histor ical</w> 168
concl usion</w> 168
purch ase</w> 168
constitu ent</w> 168
Deutsch e</w> 168
Ow en</w> 168
Lt d.</w> 168
Bald win</w> 168
nos ed</w> 168
Guatem ala</w> 168
clock wise</w> 168
Indian apolis</w> 168
Khyber- Pakhtunkhwa</w> 168
s ick</w> 167
s essions</w> 167
a ise</w> 167
y st</w> 167
y man</w> 167
d uty</w> 167
m ates</w> 167
g io</w> 167
n om 167
R econ 167
D ennis</w> 167
w ing 167
P ut 167
P ast 167
U P 167
V all 167
B ird</w> 167
O ld 167
ch arter</w> 167
ig ne</w> 167
ul ating</w> 167
ab road</w> 167
ub a</w> 167
od on</w> 167
ass is</w> 167
ind icated</w> 167
acc ount 167
dec k</w> 167
ly mph 167
Bas in</w> 167
Wal ker</w> 167
Te hsils</w> 167
ef s</w> 167
invol ve</w> 167
hon ors</w> 167
approxim ate</w> 167
shap es</w> 167
syn thetic</w> 167
rep tiles</w> 167
vict ories</w> 167
cul min 167
Gro ve</w> 167
Cra w 167
doub les</w> 167
Adv anced</w> 167
illustr ated</w> 167
Bis mar 167
Beg inning</w> 167
tick et</w> 167
substant ial</w> 167
Herz eg 167
Czechoslov akia</w> 167
Pich ilem 167
disambig uation</w> 167
s ib 166
t elling</w> 166
r ttemberg</w> 166
a im</w> 166
p inned</w> 166
n ight 166
f s</w> 166
0 8 166
L A 166
U C</w> 166
C ust 166
it us</w> 166
it em</w> 166
it arian</w> 166
em es</w> 166
em bedded</w> 166
ent a</w> 166
00 - 166
Ch es 166
qu ity</w> 166
18 25</w> 166
ast ed</w> 166
ip per</w> 166
fe ar</w> 166
ath a</w> 166
oy a</w> 166
depend ent</w> 166
Gl obal</w> 166
expl ain</w> 166
(/O200 9/O)</w> 166
Mah ar 166
sn ake</w> 166
far ther</w> 166
Provence-Alpes- Côte</w> 166
Max im 166
past or</w> 166
fi ber</w> 166
ür ttemberg</w> 166
IN G</w> 166
cryst all 166
vac uum</w> 166
CP U</w> 166
depos its</w> 166
revis ed</w> 166
photograph s</w> 166
mountain ous</w> 166
libret to</w> 166
s worth</w> 165
e ux</w> 165
d ried</w> 165
T ales</w> 165
T sar</w> 165
M ill</w> 165
P rest 165
K oh 165
, 8 165
b apt 165
X ena</w> 165
ar ena</w> 165
st own</w> 165
ig nor 165
oc ese</w> 165
uc t 165
the olog 165
res ident</w> 165
oo p</w> 165
sp aw 165
tr um 165
Am her 165
ph ins</w> 165
Al t 165
Mar tha</w> 165
vi ous</w> 165
20 - 165
Re agan</w> 165
Sch ools</w> 165
sol utions</w> 165
ash ing</w> 165
inv aded</w> 165
Ex change</w> 165
coll ision</w> 165
guit ars</w> 165
Bur ke</w> 165
ide al</w> 165
Im munity</w> 165
hand held</w> 165
Mah ler</w> 165
AT IO 165
escap ed</w> 165
termin al</w> 165
enter tain 165
Dal mat 165
rev ival</w> 165
rad ical</w> 165
appoint ment</w> 165
dub bed</w> 165
tob acco</w> 165
Spenc er</w> 165
l ung</w> 164
p ump</w> 164
i b</w> 164
h of</w> 164
S mo 164
v ae</w> 164
P rop 164
V H 164
V aux 164
B ail 164
B aja</w> 164
C é 164
b ull</w> 164
ar di 164
on der</w> 164
on wards</w> 164
re publ 164
ro t</w> 164
il li 164
be ef</w> 164
be aches</w> 164
ing bird</w> 164
og a</w> 164
Fran co</w> 164
ect ural</w> 164
br ack 164
ib er 164
att a</w> 164
off spring</w> 164
Wh is 164
Brit t 164
publ ications</w> 164
16 5</w> 164
enn es</w> 164
Fl ash</w> 164
mod erate</w> 164
tre at</w> 164
Bo x 164
Mc Lar 164
Gl ad 164
Hol ocaust</w> 164
War wickshire</w> 164
Dep uty</w> 164
183 5</w> 164
edi ble</w> 164
Vol ume</w> 164
Camb rian</w> 164
Pict ure</w> 164
hr macht</w> 164
Cham ber</w> 164
Trans it</w> 164
less ons</w> 164
Burg undy</w> 164
Indu strial</w> 164
merch ant</w> 164
appar ently</w> 164
veter an</w> 164
kl ore</w> 164
Adel aide</w> 164
king doms</w> 164
cris is</w> 164
Lloy d</w> 164
A M</w> 163
c t 163
3 0,000</w> 163
H abs 163
2 40</w> 163
T ang 163
h at</w> 163
G ott 163
N ac 163
N on- 163
S le 163
, 6 163
, 5 163
O L</w> 163
C in 163
an as</w> 163
in spiration</w> 163
at er 163
re ward</w> 163
ac ute</w> 163
ag encies</w> 163
ion ing</w> 163
ev ich</w> 163
sh ine</w> 163
18 29</w> 163
comp reh 163
Con test</w> 163
col our</w> 163
Re formation</w> 163
Mon aco</w> 163
Scot s</w> 163
At tor 163
Em press</w> 163
Mor ning</w> 163
pat ent</w> 163
trans formed</w> 163
comb ining</w> 163
(/O200 8/O)</w> 163
transl ations</w> 163
Den ver</w> 163
sil k</w> 163
tun nel</w> 163
arriv e</w> 163
psych ological</w> 163
fort ified</w> 163
pil gri 163
any where</w> 163
ben eath</w> 163
Laur a</w> 163
inher ited</w> 163
IO C</w> 163
copy right</w> 163
sky scrap 163
Epis ode</w> 163
symph ony</w> 163
Montgom ery</w> 163
s al</w> 162
s ley</w> 162
t ests</w> 162
a um 162
c oup</w> 162
4 9 162
k Ã</w> 162
k reis</w> 162
m es 162
z inc</w> 162
6 ,000</w> 162
v et</w> 162
v ement</w> 162
F en 162
E t 162
O g 162
O thers</w> 162
C N 162
en z</w> 162
it ance</w> 162
un us</w> 162
ch apters</w> 162
de pl 162
con e</w> 162
to y</w> 162
dis orders</w> 162
po x</w> 162
fe eding</w> 162
Car n 162
dec lined</w> 162
sk ating</w> 162
rat ings</w> 162
sit uations</w> 162
Her o</w> 162
manag ing</w> 162
umb ers</w> 162
Ev ans</w> 162
wat ching</w> 162
Air ways</w> 162
nit rogen</w> 162
Kn ights</w> 162
inj uries</w> 162
Hun dred</w> 162
Kir k 162
Lim burg</w> 162
tax es</w> 162
induc tion</w> 162
bomb s</w> 162
spons or</w> 162
dram atic</w> 162
administrat ively</w> 162
encour aged</w> 162
Jenn ifer</w> 162
Baden- W</w> 162
Town ship</w> 162
excell ent</w> 162
Amher st</w> 162
o j 161
n ow 161
h ip 161
h az 161
D w 161
N ou 161
N ight 161
J as 161
Y ou 161
è s</w> 161
om orph 161
un n 161
ch est</w> 161
et ically</w> 161
im possible</w> 161
reg ard</w> 161
ph ylum</w> 161
end angered</w> 161
ric k 161
fe ud</w> 161
ign ation</w> 161
Sh aw</w> 161
spec i 161
inter action</w> 161
sing ular</w> 161
acc ord 161
Col d 161
bel s</w> 161
Br Ã</w> 161
poss ession</w> 161
econom ist</w> 161
Sil ver 161
180 6</w> 161
adv ance</w> 161
Tro y</w> 161
foc uses</w> 161
Hun t</w> 161
attr act</w> 161
audi ences</w> 161
Coll ection</w> 161
particip ate</w> 161
wa iting</w> 161
Nav ar 161
var ying</w> 161
Wes ley</w> 161
Boh emia</w> 161
chromos omes</w> 161
Contin ental</w> 161
tradem ark</w> 161
Tott enham</w> 161
Herzeg ovina</w> 161
s ar 160
s et 160
s ailed</w> 160
t es 160
t ap 160
e ums</w> 160
h ect 160
w i 160
U g 160
K um 160
B é 160
B ush 160
Z o 160
th eless</w> 160
ar sen 160
at ers</w> 160
ol en</w> 160
ri ding</w> 160
for th</w> 160
op tim 160
sh oulder</w> 160
ran o</w> 160
ast ics</w> 160
if ts</w> 160
ph ate</w> 160
mon ument</w> 160
popul arly</w> 160
Brit ten</w> 160
dev ast 160
20 12</w> 160
cor rup 160
Har bour</w> 160
spe eds</w> 160
fun ds</w> 160
flu ence</w> 160
hal t</w> 160
Ma il</w> 160
present ation</w> 160
Ev angel 160
separ ately</w> 160
ever theless</w> 160
conc ern</w> 160
Jul ia</w> 160
Tor res</w> 160
meas uring</w> 160
person nel</w> 160
forc ing</w> 160
Clar ke</w> 160
Orig in</w> 160
astronom ical</w> 160
4. 5</w> 160
abor tion</w> 160
Tib erius</w> 160
Administ rative</w> 160
egr aph</w> 160
recip es</w> 160
coc oa</w> 160
encryp tion</w> 160
surg ery</w> 160
remn ants</w> 160
Rach el</w> 160
Pichilem u</w> 160
a an</w> 159
e j 159
y ards</w> 159
d ome</w> 159
m Ã</w> 159
g rain</w> 159
M ang 159
M ey 159
S N 159
E S</w> 159
V ery</w> 159
, 3 159
C oh 159
an k</w> 159
an ie</w> 159
er ect 159
ar y- 159
it ism</w> 159
ic z</w> 159
ol ds</w> 159
un es</w> 159
pl o 159
ab bey</w> 159
op tion</w> 159
man - 159
ut us</w> 159
Nor wood</w> 159
duc tion</w> 159
oh ama</w> 159
direc t- 159
cri ption</w> 159
not iced</w> 159
Gen us</w> 159
vol unt 159
def ault</w> 159
ung s 159
wid ow</w> 159
Met eor 159
prog ress</w> 159
Bor is</w> 159
den ly</w> 159
Miss ion</w> 159
Sa ar 159
Stev ens</w> 159
mass acre</w> 159
reduc ing</w> 159
Philipp e</w> 159
idi an</w> 159
Lincol n 159
ame work</w> 159
imprison ed</w> 159
enth usi 159
Yok ohama</w> 159
Gros so</w> 159
stan bul</w> 159
compat ible</w> 159
Baloch istan</w> 159
Slip knot</w> 159
l ect 158
p . 158
e ous</w> 158
4 : 158
k W</w> 158
f old</w> 158
D ü 158
G ett 158
F air</w> 158
F uk 158
F uture</w> 158
J esse</w> 158
K i 158
ic on 158
wh ale</w> 158
con es</w> 158
qu er 158
Un cle</w> 158
li er</w> 158
ess ay</w> 158
me al</w> 158
gu ez</w> 158
dis plays</w> 158
dis rup 158
po ets</w> 158
ant es</w> 158
Sh ort</w> 158
north ernmost</w> 158
ref ug 158
div ides</w> 158
sur name</w> 158
Be au 158
tri ple</w> 158
cr ashed</w> 158
stat ic</w> 158
We hrmacht</w> 158
Pe ak</w> 158
Dav ies</w> 158
Dis ne 158
def ine</w> 158
cour ses</w> 158
Lor ds</w> 158
invol vement</w> 158
territ orial</w> 158
Gi us 158
Sol om 158
ment ion</w> 158
Carol ine</w> 158
ate au</w> 158
tel escope</w> 158
nar row 158
Bran don</w> 158
Bol sh 158
earthqu akes</w> 158
pup pet</w> 158
ellig ent</w> 158
Gabri elle</w> 158
accur ate</w> 158
Hond a</w> 158
corpor ate</w> 158
incar nation</w> 158
Environ ment</w> 158
Jess ica</w> 158
Hirosh ima</w> 158
Montenegr o</w> 158
girl friend</w> 158
Dres den</w> 158
s ight</w> 157
t um 157
g ment</w> 157
n ik</w> 157
R hy 157
L i</w> 157
L od 157
L iga</w> 157
L ulu</w> 157
h yp 157
D og 157
G at 157
G am 157
M all 157
N ash</w> 157
J azz</w> 157
B ar</w> 157
Z er 157
el s 157
ion ism</w> 157
ul um</w> 157
con ven 157
Un its</w> 157
wor e</w> 157
pe an 157
In s 157
ers - 157
Mar ina</w> 157
sub urbs</w> 157
Cl oud</w> 157
roc ket</w> 157
develop ers</w> 157
fer til 157
Man ager</w> 157
out ing</w> 157
Bar n 157
ust ed</w> 157
Phil lips</w> 157
rac ial</w> 157
Rh odes</w> 157
crit icism</w> 157
plan es</w> 157
transl iter 157
Dan ube</w> 157
log ical</w> 157
179 2</w> 157
fed eration</w> 157
clim bing</w> 157
Lib erty</w> 157
Jack ie</w> 157
Plan t</w> 157
gradu ating</w> 157
Histor ic</w> 157
Ky oto</w> 157
King ston</w> 157
Wy oming</w> 157
Shep pard</w> 157
ninet eenth</w> 157
than ks</w> 157
story line</w> 157
Spring field</w> 157
scholar ship</w> 157
l ain</w> 156
c utting</w> 156
n as 156
H ak 156
1 15</w> 156
T rain</w> 156
T iger</w> 156
S it 156
S ide</w> 156
b ab 156
an ol</w> 156
ar ist 156
st ating</w> 156
ol ian</w> 156
ol ive</w> 156
ch in</w> 156
le y 156
cl aws</w> 156
ak ov</w> 156
br ass</w> 156
lar vae</w> 156
cent r 156
Le b 156
co in</w> 156
des ire</w> 156
ith ful</w> 156
tal es</w> 156
lin er</w> 156
lin der</w> 156
Cl ay</w> 156
ash a</w> 156
inv ention</w> 156
He at</w> 156
plac ing</w> 156
Tr am 156
minist ry</w> 156
discover ies</w> 156
Tri assic</w> 156
pen et 156
Tran sportation</w> 156
pal e 156
ten or</w> 156
177 6</w> 156
Buddh a</w> 156
lov ed</w> 156
Moz illa</w> 156
Maur it 156
Nav al</w> 156
ciph ers</w> 156
Bret t</w> 156
Electr onic</w> 156
param eters</w> 156
modern -day</w> 156
Lil o</w> 156
Prog ram</w> 156
exerc ise</w> 156
osy stem</w> 156
Metro id</w> 156
infra structure</w> 156
Brus sel 156
Tanz ania</w> 156
Performan ce</w> 156
Gius eppe</w> 156
A FC</w> 155
s ector</w> 155
l it</w> 155
c ran 155
y c 155
d ictionary</w> 155
n ch 155
R . 155
R idge</w> 155
D R</w> 155
D ata</w> 155
M om 155
P eg 155
K rist 155
C ultural</w> 155
de aling</w> 155
ess els</w> 155
gu ards</w> 155
sc ar 155
min imal</w> 155
att ending</w> 155
eg al</w> 155
Re ading</w> 155
tran scription</w> 155
ick er</w> 155
gl ob 155
exp ect 155
oph ys 155
Pet er 155
Vi king</w> 155
ins ect</w> 155
conc epts</w> 155
Mad agas 155
Gi ant</w> 155
liz ards</w> 155
Jam ie</w> 155
sens itive</w> 155
civil ians</w> 155
legisl ation</w> 155
tru th</w> 155
mas cot</w> 155
Princip al</w> 155
BS D</w> 155
satis f 155
ecom mun 155
Madagas car</w> 155
s ending</w> 154
3 50</w> 154
d ots</w> 154
f ü 154
1 1, 154
L ass 154
D oll 154
M acc 154
S T</w> 154
P oss 154
U - 154
E U</w> 154
K G</w> 154
C ricket</w> 154
th under 154
er \/ 154
at ories</w> 154
ap est</w> 154
sh al</w> 154
sh aw</w> 154
sh opping</w> 154
fl ash</w> 154
sm ell</w> 154
sub way</w> 154
produc tions</w> 154
int ro 154
Col e</w> 154
met aph 154
enn y</w> 154
Pres idential</w> 154
ett es</w> 154
aint y</w> 154
Bar th 154
Em ily</w> 154
exp and</w> 154
Flor a</w> 154
Dis c 154
war k</w> 154
Gl ac 154
expl ains</w> 154
Rh in 154
ipe g</w> 154
viol a</w> 154
surv ey 154
pun ishment</w> 154
Haw ks</w> 154
cur ve</w> 154
sul fur</w> 154
lingu istic</w> 154
fair y</w> 154
swit ch</w> 154
kir k</w> 154
Sah ara</w> 154
endor f</w> 154
access ible</w> 154
mac ro 154
precip itation</w> 154
Frit z</w> 154
Stuttg art</w> 154
McLar en</w> 154
Lincoln shire</w> 154
r d 153
p an</w> 153
p ear 153
c and 153
y x</w> 153
y ers</w> 153
1 19 153
R ain</w> 153
h ij 153
S add 153
F ra 153
E tr 153
K ö 153
B ern</w> 153
B ath 153
C ities</w> 153
C lif 153
b ble</w> 153
X II</w> 153
th est</w> 153
er os</w> 153
am ation</w> 153
di d 153
ch ief 153
ag i</w> 153
ul ates</w> 153
for ty</w> 153
sh ipping</w> 153
res ignation</w> 153
man if 153
ell ular</w> 153
Ne olithic</w> 153
ish i</w> 153
Le on</w> 153
ib n</w> 153
fam ously</w> 153
Eu rop 153
omet own</w> 153
ys burg</w> 153
Pol e</w> 153
count ing</w> 153
dist urb 153
her ed 153
lo g</w> 153
Li ège</w> 153
Mat o</w> 153
doc tor 153
ym ology</w> 153
Wat ers</w> 153
spir al</w> 153
control ler</w> 153
Ru th</w> 153
pred icted</w> 153
[...]
